#ifndef _MODELDATA_H_
#define _MODELDATA_H_
const unsigned char model[] = {0x1c,0x00,0x00,0x00,0x54,0x46,0x4c,0x33,0x14,0x00,0x20,0x00,0x1c,0x00,0x18,0x00,0x14,0x00,0x10,0x00,0x0c,0x00,0x00,0x00,0x08,0x00,0x04,0x00,0x14,0x00,0x00,0x00,0x1c,0x00,0x00,0x00,0x8c,0x00,0x00,0x00,0xe4,0x00,0x00,0x00,0xbc,0x27,0x00,0x00,0xcc,0x27,0x00,0x00,0x78,0x34,0x00,0x00,0x03,0x00,0x00,0x00,0x01,0x00,0x00,0x00,0x04,0x00,0x00,0x00,0x42,0xd6,0xff,0xff,0x0c,0x00,0x00,0x00,0x1c,0x00,0x00,0x00,0x3c,0x00,0x00,0x00,0x0f,0x00,0x00,0x00,0x73,0x65,0x72,0x76,0x69,0x6e,0x67,0x5f,0x64,0x65,0x66,0x61,0x75,0x6c,0x74,0x00,0x01,0x00,0x00,0x00,0x04,0x00,0x00,0x00,0x90,0xff,0xff,0xff,0x16,0x00,0x00,0x00,0x04,0x00,0x00,0x00,0x08,0x00,0x00,0x00,0x6f,0x75,0x74,0x70,0x75,0x74,0x5f,0x30,0x00,0x00,0x00,0x00,0x01,0x00,0x00,0x00,0x04,0x00,0x00,0x00,0x46,0xd9,0xff,0xff,0x04,0x00,0x00,0x00,0x0c,0x00,0x00,0x00,0x6b,0x65,0x72,0x61,0x73,0x5f,0x74,0x65,0x6e,0x73,0x6f,0x72,0x00,0x00,0x00,0x00,0x02,0x00,0x00,0x00,0x34,0x00,0x00,0x00,0x04,0x00,0x00,0x00,0xdc,0xff,0xff,0xff,0x19,0x00,0x00,0x00,0x04,0x00,0x00,0x00,0x13,0x00,0x00,0x00,0x43,0x4f,0x4e,0x56,0x45,0x52,0x53,0x49,0x4f,0x4e,0x5f,0x4d,0x45,0x54,0x41,0x44,0x41,0x54,0x41,0x00,0x08,0x00,0x0c,0x00,0x08,0x00,0x04,0x00,0x08,0x00,0x00,0x00,0x18,0x00,0x00,0x00,0x04,0x00,0x00,0x00,0x13,0x00,0x00,0x00,0x6d,0x69,0x6e,0x5f,0x72,0x75,0x6e,0x74,0x69,0x6d,0x65,0x5f,0x76,0x65,0x72,0x73,0x69,0x6f,0x6e,0x00,0x1a,0x00,0x00,0x00,0xd4,0x26,0x00,0x00,0xcc,0x26,0x00,0x00,0x3c,0x26,0x00,0x00,0xe4,0x25,0x00,0x00,0xc8,0x25,0x00,0x00,0xac,0x25,0x00,0x00,0x90,0x25,0x00,0x00,0x80,0x0d,0x00,0x00,0xf0,0x08,0x00,0x00,0x60,0x01,0x00,0x00,0x14,0x01,0x00,0x00,0x00,0x01,0x00,0x00,0xec,0x00,0x00,0x00,0xe4,0x00,0x00,0x00,0xdc,0x00,0x00,0x00,0xd4,0x00,0x00,0x00,0xcc,0x00,0x00,0x00,0xc4,0x00,0x00,0x00,0xbc,0x00,0x00,0x00,0xb4,0x00,0x00,0x00,0xac,0x00,0x00,0x00,0xa4,0x00,0x00,0x00,0x9c,0x00,0x00,0x00,0x94,0x00,0x00,0x00,0x74,0x00,0x00,0x00,0x04,0x00,0x00,0x00,0x2a,0xda,0xff,0xff,0x04,0x00,0x00,0x00,0x60,0x00,0x00,0x00,0x10,0x00,0x00,0x00,0x00,0x00,0x00,0x00,0x08,0x00,0x0e,0x00,0x08,0x00,0x04,0x00,0x08,0x00,0x00,0x00,0x10,0x00,0x00,0x00,0x24,0x00,0x00,0x00,0x00,0x00,0x06,0x00,0x08,0x00,0x04,0x00,0x06,0x00,0x00,0x00,0x04,0x00,0x00,0x00,0x00,0x00,0x00,0x00,0x0c,0x00,0x18,0x00,0x14,0x00,0x10,0x00,0x0c,0x00,0x04,0x00,0x0c,0x00,0x00,0x00,0x94,0x88,0xf1,0xdd,0x23,0xaf,0xc5,0x1a,0x02,0x00,0x00,0x00,0x02,0x00,0x00,0x00,0x04,0x00,0x00,0x00,0x06,0x00,0x00,0x00,0x32,0x2e,0x31,0x39,0x2e,0x30,0x00,0x00,0x96,0xda,0xff,0xff,0x04,0x00,0x00,0x00,0x10,0x00,0x00,0x00,0x31,0x2e,0x31,0x30,0x2e,0x30,0x00,0x00,0x00,0x00,0x00,0x00,0x00,0x00,0x00,0x00,0x90,0xcd,0xff,0xff,0x94,0xcd,0xff,0xff,0x98,0xcd,0xff,0xff,0x9c,0xcd,0xff,0xff,0xa0,0xcd,0xff,0xff,0xa4,0xcd,0xff,0xff,0xa8,0xcd,0xff,0xff,0xac,0xcd,0xff,0xff,0xb0,0xcd,0xff,0xff,0xb4,0xcd,0xff,0xff,0xb8,0xcd,0xff,0xff,0xde,0xda,0xff,0xff,0x04,0x00,0x00,0x00,0x04,0x00,0x00,0x00,0xfd,0xff,0xff,0xff,0xee,0xda,0xff,0xff,0x04,0x00,0x00,0x00,0x04,0x00,0x00,0x00,0x01,0x00,0x00,0x00,0xfe,0xda,0xff,0xff,0x04,0x00,0x00,0x00,0x3c,0x00,0x00,0x00,0xd6,0xa1,0x70,0xbc,0xcc,0x47,0x82,0xbc,0x4e,0xe3,0x6e,0xbc,0xbf,0x80,0x19,0x3c,0x00,0x00,0x00,0x00,0xe2,0x11,0x0f,0x3c,0xb8,0xb0,0x91,0x3b,0xa5,0x1d,0x1e,0x3c,0xbd,0x85,0x4a,0xbc,0xee,0xef,0x6b,0x3c,0x7f,0x28,0x51,0x3c,0x8d,0x0b,0x14,0xbc,0x7b,0xfd,0x81,0xbc,0xda,0x38,0x7b,0xbc,0x1f,0x1d,0x58,0xbc,0x46,0xdb,0xff,0xff,0x04,0x00,0x00,0x00,0x80,0x07,0x00,0x00,0xee,0x1c,0x33,0xbb,0x37,0x51,0xa8,0xbd,0xd8,0x6d,0x9d,0xbc,0x3f,0xa1,0x12,0x3e,0x31,0xa6,0x99,0x3e,0x04,0x74,0x89,0x3c,0xd1,0x4b,0x17,0x3d,0xd4,0xd1,0xcc,0xbd,0x82,0xd1,0x04,0x3e,0x36,0x3a,0xa1,0x3e,0x25,0x53,0x66,0xbe,0xb0,0xf3,0x03,0x3d,0x37,0x7d,0x8a,0x3e,0x62,0xfa,0x83,0x3e,0x24,0x2e,0x9c,0xbe,0x27,0x62,0x81,0x3e,0x5b,0x31,0x2b,0xbc,0x91,0x71,0x5a,0xbd,0xe4,0x2d,0x75,0x3d,0x37,0x45,0xcb,0xbd,0xd3,0x7d,0x95,0x3e,0xc6,0x02,0x1f,0x3e,0xeb,0x1a,0xa6,0x3e,0xce,0x5c,0x86,0xbe,0xbf,0xd4,0x86,0x3e,0x70,0xa5,0xba,0xbd,0x48,0x3b,0x91,0xbd,0x2b,0x45,0x9c,0x3e,0x8f,0xc8,0x5a,0xbd,0x4a,0x0c,0xbc,0xbb,0x70,0x35,0x88,0xbe,0x2d,0xe9,0x1b,0x3e,0xba,0x0b,0xf9,0x3c,0xb8,0xfe,0xb7,0xbe,0x8e,0xe9,0x94,0x3e,0xbc,0x8b,0xb0,0xbd,0x0b,0x21,0x31,0x3e,0x69,0x57,0xde,0x3d,0x19,0x35,0x88,0xbe,0x3a,0xd2,0x38,0x3e,0xa4,0x0e,0x38,0x3d,0xda,0x5c,0x9f,0xbd,0x83,0x6c,0x26,0x3e,0xee,0x48,0x7c,0x3e,0x5a,0xc4,0xbb,0xbc,0x5e,0x66,0x95,0x3d,0x2f,0xcb,0x36,0x3d,0x26,0xb6,0x52,0x3d,0xed,0x1e,0x7e,0x3e,0xef,0xac,0x7c,0x3e,0x51,0x9a,0xfe,0x3d,0xa8,0x84,0x90,0x3d,0x3f,0xff,0xaa,0x3e,0xb0,0x5a,0xbe,0xbe,0xb8,0x42,0x97,0x3e,0x52,0x70,0xb8,0xbe,0x1c,0x28,0x46,0x3e,0x88,0x8e,0xb0,0x3d,0x33,0x8f,0x9b,0xbe,0x2c,0x22,0x77,0xbe,0x4d,0xf0,0x77,0xbe,0x97,0xaa,0x92,0xbe,0x25,0x29,0x10,0x3e,0x58,0xc4,0x04,0x3e,0xe6,0x01,0xd3,0xbd,0x14,0xbe,0x96,0x3e,0xb6,0xb1,0xb7,0xbc,0x96,0xc3,0xb1,0xbe,0x6c,0xcc,0x77,0xbe,0x58,0x20,0x25,0x3e,0x83,0xb4,0x3a,0x3e,0xfb,0xa9,0x41,0x3e,0x85,0xb5,0x50,0xbe,0xaf,0xd9,0x99,0xbe,0xdd,0xd6,0x52,0xbe,0x94,0xbc,0x71,0xbe,0x2f,0xa3,0xe6,0xbd,0xd3,0x58,0x78,0xbe,0x9a,0x59,0xaa,0x3c,0x5e,0x9f,0x1e,0x3e,0x83,0xf0,0x97,0xbd,0x6e,0x1e,0x5a,0xbe,0xb9,0x73,0xc0,0x3d,0x63,0xbb,0x91,0xbc,0xba,0x2c,0x21,0x3e,0xc7,0xed,0x6c,0x3e,0x61,0x9d,0xd4,0xbc,0x5c,0xf7,0x3b,0xbd,0x4e,0x4b,0x7d,0xbe,0x37,0x6f,0xa8,0x3e,0xfe,0xf6,0xac,0x3e,0x5e,0x0e,0xe3,0x3d,0xe8,0x84,0x10,0x3e,0x05,0x19,0x6f,0x3d,0x00,0xc9,0xac,0xbe,0xdd,0xae,0x29,0xbe,0x5c,0xca,0x93,0x3e,0x53,0x1b,0x6d,0xbc,0xc9,0x18,0x8a,0x3e,0xb3,0x03,0x6c,0x3e,0xa0,0x57,0x6f,0xbe,0xf8,0x6a,0x3c,0xbe,0x36,0xbd,0x9d,0xbe,0x04,0xba,0xaf,0x3e,0xa5,0xe4,0x95,0x3e,0x9d,0xca,0x70,0xbc,0xc8,0x43,0x59,0xbe,0x0a,0x12,0x61,0xbe,0x74,0xdd,0xe7,0x3d,0x04,0xdf,0x31,0x3e,0x03,0x9f,0xee,0xbb,0x6b,0xa8,0x89,0xbd,0xe9,0x45,0x9d,0x3e,0x00,0x5a,0xeb,0xbb,0xd0,0xee,0xb1,0x3e,0xaa,0x43,0x02,0xbe,0x4e,0x23,0x1a,0xbe,0x92,0xa0,0x6a,0x3d,0x0b,0xb6,0xbc,0xbd,0x85,0x92,0x04,0xbe,0xed,0x18,0x6f,0xbc,0x82,0x76,0xa4,0xbd,0xe0,0xfb,0x87,0xbe,0x0e,0x25,0x7d,0x3d,0x9a,0x9d,0x49,0xbe,0x5b,0x3c,0xea,0xbd,0xbf,0xb5,0x96,0x3e,0x78,0xce,0x55,0xbd,0xf8,0x3c,0x9d,0xbd,0x80,0x98,0x4a,0x3c,0xfa,0x14,0xad,0xbe,0x25,0x16,0x91,0xbe,0x10,0x95,0x3a,0x3e,0x80,0xd4,0xe7,0xbd,0x08,0xe4,0x51,0xbd,0x18,0x73,0x81,0x3e,0x40,0x57,0xc1,0xbb,0x50,0xd7,0x01,0xbd,0x08,0x23,0x15,0x3e,0x68,0x1a,0x74,0x3e,0xf4,0x48,0xc4,0x3d,0x78,0xd9,0x8e,0x3e,0xbc,0xe6,0xd6,0xbd,0x6d,0x9d,0x91,0xbe,0x1c,0x41,0x0a,0xbe,0x24,0x29,0x1d,0x3e,0x86,0x8f,0x37,0xbe,0x57,0xdf,0x61,0xbe,0x5b,0xae,0x67,0xbe,0x2c,0x11,0xbe,0xbd,0xed,0x6d,0x56,0xbe,0x52,0xd5,0xa5,0x3e,0x54,0xb7,0x98,0x3e,0xc0,0x33,0x5f,0x3d,0x76,0x6f,0x05,0xbe,0x94,0xf7,0xa5,0xbd,0x78,0xf0,0x1b,0x3d,0xe4,0x2d,0xb5,0x3e,0x88,0xd5,0x82,0x3e,0xae,0x4e,0x7a,0xbe,0x5f,0x49,0xb7,0x3e,0x98,0x80,0xae,0x3e,0x89,0xf6,0x56,0x3e,0x12,0x93,0x20,0x3e,0xd0,0x53,0xcf,0x3d,0x5b,0x13,0x94,0x3e,0xae,0x5a,0xc9,0xbd,0xc7,0x9d,0x9c,0xbe,0x62,0x2d,0x30,0x3d,0xd7,0x04,0x94,0x3e,0x5d,0x09,0x1d,0x3e,0x19,0xca,0x4d,0xbe,0xdb,0x1a,0x0c,0xbe,0xef,0xd2,0x3e,0xbe,0x98,0x72,0x95,0xbe,0x98,0x1c,0xb7,0x3e,0x80,0xb6,0x5d,0xbe,0x4d,0x1e,0xd2,0xbb,0x9c,0xa5,0x97,0x3e,0xab,0xc3,0x39,0x3d,0x97,0x6a,0xb7,0x3d,0x32,0x85,0x63,0x3d,0x0b,0x21,0x02,0xbe,0x9e,0x38,0xa0,0xbe,0xcb,0x59,0xbf,0x3a,0x73,0xc0,0xdd,0x3d,0xab,0x57,0x8e,0x3e,0x37,0xbb,0x85,0xbe,0x5d,0x09,0x85,0x3e,0x00,0x0a,0xa5,0xbb,0x44,0x26,0x8f,0xbe,0x06,0x8e,0x8c,0xbe,0x14,0x4d,0xd3,0x3d,0x8b,0xcd,0x09,0x3e,0x8c,0xa6,0x60,0xbd,0xd8,0xac,0x03,0x3d,0xbb,0x55,0xd0,0x3b,0xf1,0x12,0xb4,0x3e,0xcb,0x4f,0x0b,0x3e,0x35,0xbe,0xb2,0x3e,0x5d,0x0d,0x87,0xbe,0x58,0xfe,0x08,0x3d,0x4b,0x75,0x0d,0x3e,0x07,0xd8,0x71,0x3a,0x0f,0x76,0x63,0xbd,0x9d,0xdf,0xc5,0x3d,0x50,0x9c,0xa9,0x3d,0xb4,0x2a,0x67,0xbd,0x8f,0xe0,0x84,0x3d,0xea,0x4b,0xa9,0xbe,0xbe,0x60,0xae,0x3e,0x56,0x04,0x44,0x3e,0x31,0x56,0x9a,0x3e,0x96,0x73,0x5e,0x3d,0xe7,0x57,0x90,0x3e,0x95,0x16,0x1b,0x3e,0xd2,0x65,0xaf,0xbe,0xac,0x05,0x20,0x3e,0x75,0x73,0xe0,0x3d,0x27,0xe1,0x95,0x3e,0x76,0x76,0x43,0x3d,0xe5,0xd4,0x98,0xbe,0x2b,0x74,0xfd,0xbd,0x0d,0x99,0x03,0x3e,0xff,0xe3,0xaf,0x3e,0x4a,0x4e,0x68,0x3e,0x76,0x7b,0xb6,0x3e,0x93,0xd1,0xad,0x3d,0x67,0x63,0xaa,0xb8,0x6a,0x0a,0xdd,0x3d,0xa6,0x78,0x9f,0x3e,0x08,0xf1,0x0d,0x3e,0x5c,0x2a,0xb2,0x3e,0x12,0xbb,0x4d,0xbe,0x79,0xff,0x95,0xbd,0x48,0xc8,0x99,0x3e,0x49,0x31,0x0e,0xbe,0x06,0xf6,0x08,0x3e,0xbe,0x9e,0x74,0xbe,0xe0,0x37,0xa3,0xbe,0xd7,0xae,0x92,0x3c,0xd5,0x1b,0x90,0x3e,0x80,0xdb,0x02,0x3d,0x3d,0x0c,0x1e,0xbe,0x76,0x4c,0x65,0xbe,0xe1,0x5a,0xb2,0xbc,0xfa,0x32,0xa2,0x3e,0x42,0xc3,0x70,0xbe,0xda,0x43,0x97,0x3e,0x21,0xd3,0x11,0xbd,0xb7,0xe6,0x68,0x3d,0x37,0x61,0xad,0xbe,0x2a,0x9b,0x31,0xbc,0x4c,0xba,0x70,0x3d,0x96,0x09,0xb2,0xbe,0xf0,0xe9,0xa0,0xbe,0xa1,0xc2,0x21,0x3c,0x80,0x76,0xa2,0x3e,0xef,0xcb,0xac,0xbe,0x2d,0xd2,0x5e,0xbd,0xf2,0xc2,0x8e,0xbe,0xa5,0xe3,0xa0,0xbe,0x2f,0x84,0x98,0x3e,0x6e,0x75,0x1f,0xbd,0x4c,0x7e,0xa3,0xbe,0xb5,0xae,0x43,0x3e,0xce,0x49,0x65,0xbe,0xf5,0xee,0xdf,0x3d,0x79,0x9f,0x26,0xbe,0xcb,0xf6,0x5e,0x3e,0x93,0xae,0xb2,0xbe,0x3a,0x56,0x3c,0xbe,0x5c,0xcb,0x97,0xbc,0x2f,0x7f,0x8b,0x3e,0xdd,0xf8,0x64,0x3e,0xf2,0x8e,0x92,0x3e,0x1e,0x6b,0x59,0xbe,0xa9,0x93,0x42,0x3e,0x91,0xca,0xb1,0x3d,0xb8,0x2f,0x58,0xbe,0x52,0x68,0x1b,0xbe,0xec,0x7b,0x8c,0x3e,0xe4,0xcb,0x82,0x3e,0xa0,0xe3,0x39,0xbe,0x3f,0x99,0x41,0x3e,0x06,0x8c,0x62,0xbe,0xc1,0x47,0xdf,0xbd,0x06,0x60,0x94,0xbd,0xef,0x63,0xa7,0xbe,0x93,0x30,0x91,0xbe,0x3c,0xb8,0x66,0x3e,0x95,0x6e,0x4d,0x3e,0xb9,0x93,0xa7,0xbd,0xd9,0x89,0xb4,0x3d,0xc2,0x14,0xb7,0x3d,0x6b,0x12,0x86,0xbe,0x52,0x7e,0x0e,0xbe,0xf3,0x56,0x84,0xbe,0x77,0xc2,0x2d,0x3e,0x8a,0xaf,0xd3,0xbd,0x22,0x11,0x40,0x3d,0x8e,0x93,0xcc,0xbd,0xf7,0xe4,0xb7,0x3e,0xc9,0x3f,0x80,0xbe,0x84,0xea,0x81,0xbe,0xdd,0x9b,0xcc,0xbd,0xa3,0x64,0x8f,0x3d,0x71,0xf5,0xbb,0x3e,0xec,0x84,0x51,0x3e,0x71,0x62,0x56,0xbd,0xdd,0xff,0x06,0xbe,0x73,0x29,0xe7,0x3d,0xfc,0x4d,0xcb,0xbd,0x2b,0x7e,0x5e,0x3e,0x99,0x1c,0x84,0x3e,0xd5,0xfc,0x9a,0xbe,0x3d,0xfc,0x8b,0x3d,0x19,0x09,0x67,0x3d,0x20,0xd8,0x94,0xbe,0x06,0xb6,0x9f,0x3d,0x57,0x1e,0xb6,0xbd,0x94,0x3a,0x44,0xbc,0x0a,0xa0,0x7c,0x3e,0x8f,0x8a,0x2a,0xbe,0x16,0x79,0xca,0xbc,0x1c,0x88,0x48,0x3e,0xc8,0xbe,0x17,0x3e,0x0e,0x88,0x8f,0xbe,0x8c,0x9a,0xae,0xbd,0x15,0xb7,0x80,0xbe,0x1f,0xa1,0x4f,0x3e,0x9d,0xc0,0xb5,0x3c,0x94,0xa1,0xe9,0xbd,0x99,0x67,0x8c,0xbb,0x72,0x3f,0x10,0x3e,0x1d,0x3c,0x3c,0xbe,0x73,0xb6,0x92,0xbe,0x38,0x24,0xa7,0x3e,0xd1,0xff,0xfd,0x3d,0xf4,0x4d,0x87,0xbe,0x6f,0x7c,0x89,0x3e,0xa5,0x9a,0xa3,0xbe,0x5b,0x92,0xab,0x3d,0xb8,0xaa,0x31,0x3e,0xf1,0x4f,0x9e,0xbe,0x1c,0x20,0x68,0xbc,0xbe,0xc4,0xa8,0xbe,0xde,0x51,0x90,0xbe,0xab,0x36,0x5f,0xbe,0xab,0xab,0x74,0x3e,0x4a,0xaf,0x45,0x3e,0xb1,0xaf,0xbe,0xbd,0x91,0xc2,0xd2,0x3d,0x28,0x4e,0x30,0x3d,0xae,0x54,0xae,0xbe,0xfc,0x59,0x4f,0xbe,0x30,0xb1,0x29,0xbd,0x4f,0xab,0xa7,0x3e,0xea,0xe2,0x9f,0x3e,0xcb,0x3b,0x85,0xbe,0x41,0xf4,0x8d,0xbe,0x08,0x43,0xf8,0xbb,0xf8,0x2f,0x9c,0xbd,0xb6,0x4a,0x02,0xbd,0xc8,0x41,0x99,0x3e,0x70,0x01,0xaf,0x3e,0xef,0xf5,0x06,0x3b,0x84,0xc9,0xbe,0xbd,0x2e,0xbc,0x4e,0xbe,0x6c,0x72,0x30,0xbe,0xe2,0x9f,0x86,0x3a,0x0a,0x9c,0x07,0xbe,0x97,0x7b,0x65,0xbc,0x2a,0xe4,0x41,0xbd,0x67,0xf8,0x7d,0xbe,0x1b,0x44,0x2a,0xbd,0x69,0x7a,0xa4,0x3e,0x60,0xbd,0x93,0x3e,0x31,0x52,0x53,0x3e,0xe7,0xf2,0x94,0x3e,0x66,0xe2,0x9d,0x3e,0x64,0x35,0x7c,0x3e,0x5b,0x7a,0x7c,0x3e,0x01,0x43,0x84,0xbe,0x78,0xd7,0x8f,0x3d,0x89,0x13,0xa9,0x3e,0xe9,0x26,0x45,0x3e,0xea,0x8b,0x8e,0x3e,0x03,0x42,0xe0,0xbd,0x42,0x0b,0xa8,0x3e,0x2d,0xcd,0x95,0xbe,0xc5,0xcc,0xc5,0x3d,0xfe,0x29,0x81,0xbe,0x7d,0xd7,0xa1,0x3e,0x41,0xbf,0x8d,0x3e,0x59,0xb4,0x02,0xbe,0xfb,0x3f,0x56,0xbe,0xc4,0x77,0x68,0xbe,0x8f,0xb4,0x3f,0xbe,0xea,0xc8,0x14,0x3c,0x41,0xb6,0x81,0x3e,0x59,0x9d,0x30,0x3e,0x97,0xb6,0x30,0xbe,0xf5,0x6f,0xbc,0xbe,0x3a,0xd6,0x89,0xbe,0x83,0x28,0x95,0xbc,0xa4,0xd3,0x03,0x3e,0xc9,0x69,0x37,0x3d,0x74,0x0a,0xec,0xbb,0x43,0x3c,0xb0,0xbe,0xf7,0xdb,0x86,0xbe,0x5c,0x64,0xf7,0xbd,0x1c,0x41,0x7e,0xbe,0xf9,0xdf,0x7e,0x3d,0xdf,0x99,0x76,0x3e,0xd5,0x08,0x09,0x3e,0x9c,0x7e,0xa1,0x3e,0xf5,0xf2,0x71,0xbe,0xf8,0x25,0xbf,0x3d,0x1c,0xa3,0x53,0x3e,0x9c,0x0b,0x87,0x3e,0xcf,0xac,0x64,0x3e,0x9c,0x07,0x1a,0x3e,0x98,0xea,0xd8,0x3d,0xd0,0xce,0x69,0x3e,0xad,0x6f,0x76,0xbe,0xa3,0x88,0xbb,0xbe,0x88,0xf2,0x81,0x3e,0x22,0x0f,0x63,0x3c,0xf9,0x44,0xd9,0xbd,0x86,0xe1,0xbb,0xbe,0x71,0xb4,0x88,0x3c,0xa4,0x6a,0x62,0x3e,0xd3,0x69,0xed,0x3d,0x15,0x91,0x81,0xbe,0xc2,0x94,0x37,0x3e,0xbb,0xc9,0xe5,0xbb,0x82,0xdd,0x1f,0x3e,0x74,0xe7,0x04,0xbd,0x20,0xc1,0x88,0x3e,0x3f,0x3d,0xad,0x3e,0x01,0x60,0xb2,0xbe,0xc1,0xbc,0xcf,0xbd,0x4e,0x9b,0xb7,0xbe,0x13,0xdf,0x31,0xbe,0xac,0xf0,0x94,0xbd,0xb0,0x60,0x95,0xbd,0x92,0x52,0xaa,0x3e,0xab,0xec,0x3a,0x3e,0x86,0x25,0x54,0x3e,0x3e,0xe0,0x1d,0x3e,0xc5,0x02,0x62,0xbe,0x23,0xe3,0x78,0x3e,0xa5,0xff,0xb2,0xbe,0x51,0x70,0x5b,0xbe,0xf2,0xb4,0x7b,0xbc,0x06,0x48,0x7a,0x3e,0x4e,0xda,0x9c,0x3d,0xc8,0x90,0xa3,0xbe,0x04,0x99,0x7f,0xbe,0x83,0x10,0x8a,0xbd,0xb2,0x83,0xb3,0xbe,0xcf,0x6c,0x20,0x3b,0x9a,0xa8,0x19,0xbe,0x1f,0xad,0x43,0x3e,0x55,0x24,0xef,0xbb,0xde,0xf0,0xa8,0xbe,0xef,0x07,0x42,0xbe,0xd4,0x2a,0xb8,0x3d,0xa6,0x77,0xc6,0xbd,0x7e,0x34,0x95,0x3e,0xa4,0x76,0x47,0xbe,0x77,0x56,0x8e,0x3d,0x31,0xc3,0x11,0x3e,0xd0,0xe2,0xe0,0xbd,0x5c,0x8a,0xa4,0x3e,0x3e,0x10,0x89,0xbd,0xf1,0x1e,0x5e,0x3e,0xe6,0x91,0xbc,0xbd,0x01,0xa6,0xff,0x3d,0xd2,0xe2,0xff,0xff,0x04,0x00,0x00,0x00,0x80,0x04,0x00,0x00,0x7b,0xd2,0x87,0xbe,0x5e,0x72,0x25,0xba,0x90,0x3f,0x35,0x3e,0xc1,0x8a,0x50,0xbe,0x48,0xf8,0xc4,0x3d,0x66,0x4d,0x2d,0xbe,0xbd,0x52,0x87,0x3d,0x02,0x99,0x01,0x3e,0x68,0xf3,0x1f,0x3e,0x1a,0x87,0x99,0xbe,0x8b,0xa3,0xb1,0x3c,0x75,0x5e,0x40,0x3e,0xee,0x25,0xa0,0x3d,0x98,0xb0,0x0d,0xbe,0xdf,0xd3,0xfc,0xbd,0x6f,0xb1,0xc4,0x3d,0x31,0x50,0x47,0x3e,0x54,0xb3,0x6b,0xbe,0xd6,0x22,0x97,0xbe,0x5b,0x0b,0x3e,0x3e,0x03,0x2c,0x8f,0x3e,0xf8,0xcd,0x89,0xbd,0xe9,0xd2,0x5c,0x3c,0x02,0x94,0xb9,0x3c,0x70,0x93,0x97,0x3e,0xfb,0x1b,0xa7,0x3d,0x21,0xe4,0x56,0x3e,0x29,0x0b,0x53,0x3e,0x70,0x44,0xa6,0x3d,0x55,0xa7,0x81,0xbd,0x40,0x4d,0x59,0xbe,0xd1,0x0b,0x36,0xbe,0xbd,0xf9,0x99,0xbe,0x0f,0x8d,0x83,0x3e,0x47,0x49,0xdf,0x3d,0xd6,0xd2,0x99,0xbd,0x80,0x53,0x5a,0x3e,0xc0,0xc7,0x95,0x3e,0xd8,0x97,0x59,0x3e,0x07,0x4b,0x88,0x3e,0x01,0xc7,0x0d,0x3e,0x6d,0x7f,0x99,0xbe,0xbf,0x50,0x04,0xbe,0x1a,0x36,0x56,0xbe,0x9f,0xf5,0xee,0x3d,0xf9,0x47,0x4e,0x3e,0x52,0x62,0x1d,0xbe,0x96,0x42,0xfe,0xbd,0x5f,0x64,0xf3,0x3d,0x28,0xf4,0x09,0xbe,0xe3,0x59,0x43,0x3e,0xb7,0xe9,0x18,0x3e,0xed,0xe3,0x2f,0x3e,0xb5,0xfc,0x53,0x3c,0x3c,0x7d,0x16,0xbe,0x87,0x56,0xdc,0x3d,0x97,0xfb,0x26,0xbe,0x83,0x9c,0xe6,0xbd,0x04,0x95,0x50,0xbe,0x59,0xc8,0x8f,0xbe,0x36,0x5a,0x17,0xbe,0xfd,0x9e,0x68,0xbe,0x5a,0xe1,0xb5,0xbd,0x45,0xfa,0x47,0x3e,0x21,0x2a,0x23,0x3e,0x35,0x24,0x06,0xbe,0xff,0xf2,0x7d,0x3e,0x50,0x4f,0xfd,0xbd,0x89,0x21,0xec,0xbc,0xe6,0x02,0xd7,0x3d,0x2f,0x8e,0x91,0x3e,0xe0,0x66,0x13,0xbe,0x3c,0x3e,0x01,0x3e,0x47,0x85,0x93,0xbe,0xeb,0xf1,0x1a,0x3e,0xa0,0x5c,0x7b,0x3e,0x1d,0x1e,0x76,0xbd,0xe2,0x8e,0x6c,0xbe,0xd4,0x31,0xe4,0xbd,0x3b,0x95,0xcf,0x3d,0xfc,0x93,0x95,0x3e,0x9a,0x12,0x56,0x3e,0x86,0x47,0xef,0x3d,0x50,0xa7,0xbb,0x3d,0xed,0x55,0x57,0x3e,0x3e,0x1c,0x37,0x3e,0x80,0xef,0x03,0x3e,0xa1,0x9a,0x24,0x3e,0xfb,0x20,0x69,0xbd,0xe0,0xe9,0x06,0x3d,0xd0,0x72,0xd3,0xbd,0x92,0x3b,0x23,0xbe,0xcd,0x74,0x85,0xbd,0x3c,0x78,0x6d,0x3e,0x8a,0x41,0x2e,0x3e,0x12,0xb3,0x6a,0xbe,0x7c,0xae,0x87,0x3e,0xcb,0xbd,0xe4,0xbd,0x75,0xa2,0xa1,0xba,0xf4,0x20,0x4d,0xbe,0x16,0x07,0x84,0xbe,0x89,0x6e,0x99,0xbe,0xf9,0x71,0x3e,0x3c,0x13,0x2d,0x91,0xbe,0x96,0x47,0xe3,0x3d,0x83,0x9a,0x68,0x3e,0x1a,0x72,0x59,0xbe,0x9c,0x35,0x49,0x3e,0xe8,0xb6,0x1c,0x3e,0x06,0xc2,0x88,0xbe,0xc7,0x6b,0x33,0xbe,0xf8,0xc3,0x9e,0x3c,0xa8,0x18,0x0c,0xbe,0x21,0xff,0x90,0xbe,0x6c,0x04,0x98,0x3e,0x86,0x5c,0x38,0x3e,0xe0,0xeb,0x7b,0xbe,0xaa,0x58,0x12,0xbe,0x5a,0x37,0xd7,0xbd,0xa0,0x34,0xaa,0xbb,0x72,0x73,0x73,0xbe,0x71,0xe4,0xad,0x3d,0x73,0xfa,0xd8,0x3d,0xf9,0x12,0x69,0x3e,0x57,0xca,0x81,0x3e,0x79,0xe8,0x3d,0xbe,0xbf,0x96,0x98,0x3d,0x93,0x48,0x9c,0xbd,0xaa,0x1f,0xb8,0xbd,0x87,0x38,0x4e,0xbd,0x99,0x74,0x9e,0x3c,0x97,0x6a,0xc0,0xbc,0x54,0x20,0x43,0xbe,0x13,0x5a,0x80,0xbe,0x5b,0xbe,0xd2,0x3d,0xa1,0x6b,0x0c,0x3e,0x88,0x78,0x14,0xbe,0x1d,0xa8,0x80,0xbe,0x57,0xb8,0x8d,0x3e,0xdf,0x9b,0x51,0xbe,0x4d,0x36,0x52,0x3e,0xd5,0x80,0x4c,0x3e,0xe2,0x59,0x0f,0x3e,0x9e,0xbb,0xfe,0x3c,0x1d,0x80,0xb3,0xbd,0x75,0x50,0x2a,0xbc,0x8e,0xa8,0x55,0xbe,0x5c,0x4d,0x0b,0x3d,0xde,0x90,0x55,0xbe,0xc6,0x97,0x80,0xbc,0x99,0x43,0x3f,0xbe,0xd6,0xf2,0x7d,0xbe,0x13,0x54,0x97,0x3e,0xa4,0x02,0xc8,0xbd,0x3b,0xbf,0x13,0x3d,0x0d,0x25,0x88,0xbe,0x86,0x22,0xc0,0xbd,0xe2,0x0b,0xc6,0x3a,0x59,0xa2,0xd6,0x3d,0x0a,0x41,0x06,0xbe,0x01,0x99,0x9c,0x3e,0x4c,0x5d,0x20,0x3e,0xb9,0x82,0xe4,0x3d,0xa8,0x56,0x86,0x3e,0x18,0xfd,0x7f,0x3e,0x93,0x65,0x57,0xbe,0xf2,0xe6,0x07,0x3c,0xe5,0x23,0x0b,0xbd,0x0c,0x3c,0x29,0x3e,0x36,0x79,0x01,0x3e,0xe2,0x17,0x5c,0x3e,0x35,0x17,0x1f,0x3e,0xec,0x27,0x2f,0x3e,0x35,0x4a,0x0e,0x3e,0x50,0x19,0x13,0xbe,0xd4,0xeb,0xb8,0xbc,0x45,0xd6,0x78,0xbe,0x67,0x39,0x2b,0x3e,0x12,0xc2,0x4c,0xbe,0xe6,0x1e,0x9e,0xbd,0x62,0x82,0x91,0xbd,0x0d,0xad,0x7e,0xbd,0xa3,0x8d,0x15,0xbe,0x5e,0x17,0xac,0xbd,0x51,0xf7,0x30,0xbe,0x71,0xdd,0x0a,0x3d,0xb0,0x72,0x5b,0xbb,0x16,0x17,0xa8,0x3c,0x28,0xcb,0x44,0x3d,0xb5,0x99,0xa0,0xbd,0x52,0xb5,0x09,0x3e,0x5b,0x76,0x08,0xbe,0xeb,0x31,0x60,0xbe,0xd3,0x8e,0x87,0xbc,0x6a,0x20,0x59,0xbe,0x9c,0x8d,0xd0,0xbd,0x97,0xeb,0x73,0x3e,0xd6,0x6e,0xa5,0xbd,0x23,0xe7,0x51,0x3e,0x64,0x3d,0xb8,0xbd,0x0d,0x14,0x49,0x3e,0x50,0xc7,0x85,0xbe,0x63,0x65,0x89,0xbe,0x62,0x79,0xa6,0xbd,0xfd,0x82,0x08,0x3d,0x39,0xf7,0x4f,0xbe,0x14,0xc2,0x33,0x3e,0x02,0x8e,0x13,0x3e,0x78,0xdc,0x76,0xbe,0xfd,0x80,0xc9,0x3d,0x17,0xe4,0x45,0xbd,0xa6,0xba,0x0a,0x3e,0x83,0xfd,0x81,0xbd,0x32,0xb4,0x91,0xbe,0x80,0xef,0x30,0x3e,0xc2,0x18,0x9b,0x3e,0x1b,0x54,0x8a,0x3e,0xf7,0x43,0x01,0x3e,0xf8,0xff,0xd2,0x3d,0x5e,0x2e,0xa4,0xbd,0xe5,0x0c,0x66,0xbe,0x91,0x1e,0x9f,0x3d,0xf6,0xf9,0xf8,0x3d,0xa7,0x4e,0x3f,0x3e,0xe6,0x85,0x14,0x3e,0x58,0x47,0x55,0x3e,0x8a,0x6f,0x1c,0x3e,0xfa,0x7c,0x67,0x3c,0xfc,0x05,0x84,0xbe,0x34,0x4d,0x91,0x3b,0x7b,0x48,0x13,0x3e,0x51,0x6e,0xf5,0x3d,0x08,0x56,0x44,0x3e,0x3d,0xba,0xce,0xbc,0x74,0x78,0x91,0xbe,0x14,0x0a,0x93,0x3c,0x27,0x46,0x21,0x3e,0x46,0x44,0x72,0xbd,0xe5,0xc9,0x4e,0xbe,0x59,0x4b,0x6d,0xbe,0x21,0x8a,0x5f,0x3d,0x01,0x5b,0x4e,0x3e,0x28,0xba,0x00,0x3e,0xce,0x1d,0x35,0xbe,0x3d,0x20,0x71,0x3e,0x37,0xe4,0x88,0xbe,0x32,0xb6,0x14,0xbe,0x2f,0x07,0x84,0x3c,0xe9,0x50,0x2b,0xbd,0x5b,0xb9,0x63,0xbe,0x44,0x72,0xd7,0xbd,0x9b,0x66,0xe5,0xbc,0xf0,0x48,0x3b,0x3e,0x2e,0xc6,0x7d,0x3e,0x04,0x1c,0x00,0xbe,0x8f,0x7f,0x39,0xbe,0xec,0xed,0xab,0x3c,0x67,0xe3,0x2f,0x3e,0x2c,0x55,0xe6,0xbc,0x72,0x7d,0x0e,0xbe,0x12,0xca,0xc0,0xbd,0x01,0xea,0x9f,0xbd,0xc4,0x48,0x73,0xbd,0xdb,0xf3,0x25,0xbd,0x70,0x11,0x51,0x3d,0x9a,0xa7,0x1c,0xbe,0x18,0x55,0x75,0x3c,0x29,0x9c,0x81,0x3e,0xd9,0x73,0xad,0x3c,0x3f,0xf7,0x1f,0xbe,0x05,0x45,0xa8,0xbd,0x2d,0x1f,0x63,0xbe,0xaf,0x70,0x83,0x3e,0x82,0x91,0x49,0xbe,0xda,0x4c,0xb0,0x3d,0x27,0x5a,0xf9,0x3d,0xce,0xbe,0x96,0x3e,0x72,0xc6,0x54,0xbe,0xaf,0x3a,0x8b,0x3e,0x63,0x97,0x95,0x3e,0xd1,0x8a,0x2b,0x3d,0xd0,0xf6,0x3a,0x3e,0xf1,0x92,0x48,0xbe,0xaa,0x48,0x65,0xbc,0x70,0x68,0x0a,0x3e,0xf5,0x48,0x21,0xbd,0x0b,0xe9,0x1e,0x3c,0x83,0x93,0x38,0xbe,0x5e,0xe7,0xff,0xff,0x04,0x00,0x00,0x00,0x00,0x18,0x00,0x00,0xff,0xd1,0x41,0x3e,0xa4,0xd1,0x13,0xbe,0xe8,0x0e,0xe8,0x3d,0x15,0xdc,0x0e,0x3e,0x65,0x00,0x07,0xbe,0x1e,0x70,0x3b,0xbe,0x21,0x41,0xdc,0x3d,0xab,0x23,0x11,0x3e,0xe5,0x39,0x99,0xbd,0x73,0x01,0xdc,0x3d,0x50,0x28,0xeb,0x3d,0x02,0x3f,0x41,0xbe,0x43,0x8b,0x38,0xbe,0x6e,0x5e,0x11,0xbe,0xfd,0x38,0x0a,0x3e,0xfd,0x54,0x28,0x3e,0xbc,0x64,0xd6,0xbd,0x06,0x6b,0x8e,0x3c,0x23,0x1a,0x5e,0xbc,0x24,0x76,0xe4,0xbd,0xfa,0x6e,0xb6,0x3b,0x9e,0xbd,0xae,0xbd,0xae,0x84,0xa1,0x3c,0x25,0xea,0xd2,0x3d,0x07,0x95,0x5b,0x3c,0x92,0x99,0x8e,0xbd,0xc3,0xe8,0x03,0x3e,0x66,0xc9,0x9d,0xbd,0x4d,0x95,0x0f,0xbe,0xbe,0x23,0xce,0xbd,0xe1,0xc7,0x0d,0xbe,0x71,0x5c,0x4d,0xbe,0xa9,0x29,0x0c,0xbe,0x18,0x57,0x00,0x3e,0x65,0x13,0x0b,0xbe,0x7b,0x98,0xb6,0x3c,0x93,0xec,0x3b,0xbe,0x67,0x0f,0x0f,0xbe,0xbf,0xd1,0x1d,0xbe,0xfe,0x42,0x49,0xbe,0x5b,0x3f,0x10,0xbd,0x61,0x08,0xa6,0x3d,0x78,0xd1,0x82,0x39,0x3b,0xab,0x23,0xbc,0x54,0xeb,0x0c,0x3d,0x18,0x4d,0xc4,0x3c,0x29,0x70,0x04,0xbe,0xc8,0x6d,0xc4,0x3d,0xee,0x2d,0x89,0xbc,0x87,0x8d,0xdc,0xbd,0xaa,0x79,0x34,0x3d,0xa0,0x27,0xa7,0xbc,0xd9,0x06,0x44,0x3e,0xba,0x3a,0x0d,0x3e,0xdc,0xff,0x09,0xbe,0x8d,0xd7,0x95,0x3d,0x87,0x8d,0x2f,0xbe,0xca,0xda,0x0f,0x3e,0x09,0x3e,0xa5,0x3d,0x0a,0x43,0xf9,0x3a,0x4c,0x93,0x84,0x3d,0xa7,0x0f,0xc3,0xbc,0x25,0xee,0x4b,0xbb,0xb2,0x9c,0xb8,0xbc,0x56,0x96,0xee,0xbd,0x61,0xa1,0xfb,0xbd,0xa7,0xbf,0x3c,0xbe,0x7d,0x74,0xbe,0xbd,0xac,0x05,0xd2,0x3d,0xec,0x74,0x1a,0x3e,0xcb,0x0e,0xf6,0xbd,0xb3,0xc9,0x12,0x3d,0x49,0x84,0x1a,0xbe,0x1e,0xc2,0xb4,0xbd,0xe2,0xb5,0x07,0x3e,0xb1,0x85,0x3e,0x3e,0x31,0x40,0x17,0xbd,0x9b,0x52,0x3b,0x3e,0xa9,0xfd,0xc9,0x3d,0xc5,0xac,0x12,0xbd,0xb4,0x6e,0x0a,0x3e,0x20,0x27,0xa2,0x3b,0x14,0x4e,0xe7,0xbb,0x9e,0xd3,0x1b,0x3e,0x90,0xa1,0xc9,0xba,0x93,0x5b,0x00,0x3e,0xa9,0x48,0xeb,0x3d,0x90,0x58,0x24,0x3a,0x1a,0xbd,0x74,0x3d,0x4f,0x3e,0x46,0x3e,0xe7,0x4e,0x0c,0xbd,0x6f,0x0a,0x80,0xbd,0x88,0x98,0x0f,0xbe,0x9b,0xdb,0xb0,0xbd,0xe6,0x49,0x8a,0xbd,0x03,0xf2,0x2c,0xbe,0xf0,0x17,0xba,0xbd,0x24,0xc3,0x25,0x3e,0x2e,0xd2,0x26,0x3e,0xaa,0x1d,0x4c,0x3d,0xe1,0xe6,0xda,0x3d,0x95,0x88,0x87,0xbc,0x5c,0x62,0x8e,0x3d,0xd6,0x60,0x3d,0x3e,0x17,0x8b,0x8c,0x3d,0x6a,0xa2,0xbb,0xbc,0x58,0x11,0x17,0x3d,0xf3,0x6d,0x1f,0x3e,0x17,0x7a,0xa9,0xbc,0xc6,0x30,0xbd,0x3d,0x4d,0xc3,0xe7,0x3d,0x49,0xf5,0x06,0x3e,0x6a,0x6d,0x9c,0x3b,0x48,0x49,0x48,0x3e,0x8d,0x2e,0x07,0xbe,0xd4,0xc7,0xf4,0xbd,0x55,0x76,0x40,0x3e,0x12,0x26,0xfa,0xbc,0x72,0xe5,0x44,0x3e,0xf1,0xc2,0x20,0x3d,0xd7,0x47,0x35,0x3e,0x1c,0xa5,0xfc,0xbb,0x60,0x1c,0x28,0x3e,0xcf,0x8b,0x47,0xbc,0xce,0xa0,0x39,0xbd,0xeb,0xb5,0x36,0xbe,0x2f,0xa9,0xe7,0xbc,0x53,0x70,0x27,0x3e,0x9b,0x96,0x3d,0x3e,0xfd,0xb0,0xbe,0x3d,0xba,0x6f,0x20,0x3e,0x00,0x5f,0x14,0x3e,0x13,0x86,0x94,0x3d,0xfe,0xcf,0x0c,0xbe,0x7d,0x33,0x5e,0xbc,0x3e,0xfe,0x68,0xbd,0x5a,0xea,0x5a,0x3d,0xec,0x42,0xe1,0x3d,0x96,0x68,0x05,0xbe,0x7f,0xa0,0x50,0x3e,0x57,0x66,0x23,0x3e,0xc2,0xa4,0x18,0x3e,0x2c,0xf0,0xd8,0xbd,0xeb,0xf7,0x39,0x3e,0x5c,0xe4,0x21,0x3e,0x9c,0x90,0x2f,0x3e,0xed,0x88,0x5c,0x3d,0x8c,0xe5,0xe2,0x3d,0xa3,0x96,0x4d,0x3d,0x9e,0x4e,0x3a,0xbe,0xbc,0xec,0x28,0x3c,0xd3,0x41,0x26,0x3e,0x7b,0x02,0x2a,0xbe,0x4f,0x9b,0x83,0xb9,0x24,0x0a,0x3d,0x3e,0x1f,0xbe,0x3c,0xbe,0x0d,0x79,0x4c,0x3e,0x65,0xbe,0x28,0x3e,0x06,0x23,0x0a,0xbd,0xda,0x64,0xb1,0x3d,0xe6,0x67,0xec,0x3d,0x5d,0x57,0xfe,0x3d,0x64,0xee,0xf2,0x3d,0x37,0x22,0xc9,0xbd,0x4f,0x45,0x13,0x3e,0x60,0xb2,0xca,0xbd,0x79,0x05,0x10,0x3e,0x8c,0xa7,0xc6,0x3d,0x40,0x77,0x0c,0xbe,0x87,0x29,0x3b,0xbe,0xd8,0x81,0x37,0xbc,0x95,0x45,0x6f,0xbd,0x92,0xe1,0x27,0xbe,0x67,0xe0,0xb1,0xbd,0x59,0x05,0x5d,0xbd,0x97,0x30,0x48,0xbe,0xf4,0x30,0x3c,0xbe,0xfc,0x74,0x42,0x3e,0x7d,0xef,0x12,0xbd,0xed,0x5f,0x04,0xbe,0xe1,0x89,0x52,0xbc,0x12,0xc7,0x24,0xbe,0x7a,0x8e,0x2a,0xbe,0x05,0x81,0x00,0x3d,0x9e,0xb6,0xde,0xbd,0x17,0xa3,0x70,0x3d,0x7c,0x6d,0xd6,0x3d,0x7c,0xa2,0xa7,0x3d,0x8c,0x0d,0xa6,0xbd,0xb4,0x3e,0x41,0x3e,0x18,0xbb,0x17,0xbe,0x16,0x8c,0x23,0xbe,0x98,0x7c,0x49,0xbe,0x41,0x88,0x19,0xbd,0x9e,0x1e,0x43,0xbe,0xd3,0x87,0x24,0xbe,0x50,0x07,0x9e,0xbd,0xde,0x07,0xab,0xbd,0xd6,0xda,0x19,0x3e,0x56,0x1e,0x14,0xbe,0x93,0x00,0xec,0x3d,0xe9,0x54,0x59,0x3d,0x6b,0x7d,0x25,0xbd,0x35,0x5f,0x5d,0xbd,0x9a,0xb3,0xa6,0xbb,0xc5,0x37,0xc6,0xbd,0x5a,0xf8,0x3a,0xbd,0x3c,0xe0,0x1c,0xbe,0x55,0x37,0xc5,0xbd,0xe3,0x1d,0xb4,0x3d,0x61,0xf8,0x24,0xbe,0xad,0x20,0x3c,0xbe,0xfd,0x8e,0x69,0xbd,0x6c,0x5b,0x36,0x3d,0x50,0xa1,0x14,0x3e,0xec,0x15,0xb8,0x3c,0x8c,0x03,0x2c,0x3e,0xb4,0x8c,0x23,0x3e,0x39,0xf2,0x02,0x3e,0xf9,0xa3,0x89,0x3d,0xd3,0x31,0x53,0xbe,0x58,0xe4,0x7d,0x3c,0x82,0xd0,0xce,0x3d,0x80,0x8e,0x14,0x3c,0x16,0x61,0xbb,0xbd,0x8b,0x6c,0x13,0xbe,0x1c,0xba,0xcc,0x3d,0x6d,0x06,0xeb,0xbc,0xf1,0xbb,0x1d,0xbd,0x20,0x71,0x2d,0xbe,0xe9,0x4b,0x51,0xbd,0x17,0x33,0xa4,0x3d,0x38,0x44,0x35,0x3c,0x3f,0x8e,0x20,0xbe,0xbf,0xb3,0x4f,0x3c,0xfb,0x68,0x31,0x3d,0xe5,0x2a,0x01,0xbe,0xa1,0xf1,0xfe,0x3d,0x10,0x63,0xe9,0x3d,0x15,0x8d,0x15,0x3e,0xee,0x95,0xd9,0x3c,0x5f,0x0c,0xb3,0xbd,0xd1,0x23,0xb6,0xbd,0x5e,0x0b,0x15,0x3e,0x5a,0xd2,0xd9,0x3d,0xdc,0x95,0x74,0xba,0x0c,0x26,0xb8,0xbd,0x2e,0x93,0x4d,0xbe,0x55,0xb5,0x88,0xbd,0x2b,0x43,0xf8,0x3c,0x68,0x9d,0xd2,0xbd,0x8a,0x0a,0x1d,0xbe,0x60,0x06,0xff,0xba,0x96,0xbd,0x8a,0x3d,0x05,0x3e,0x29,0xbe,0x4b,0x97,0x04,0x3e,0xe9,0x4f,0x85,0x3d,0xec,0x78,0x8c,0xbd,0xed,0x3c,0x48,0x3e,0x2e,0x53,0x8b,0xbd,0x90,0xe7,0x04,0xbe,0x24,0x4c,0x7a,0xbd,0xcc,0xe9,0x8d,0x3d,0x41,0x53,0xba,0xbc,0xc4,0x62,0xdf,0x3d,0x63,0xec,0x8a,0x3d,0xfa,0x74,0x25,0xbe,0xd8,0x8a,0x08,0xbe,0x8d,0xe1,0xad,0xbd,0x15,0x91,0x58,0xbc,0x85,0xc7,0x83,0xbc,0x9e,0x42,0x05,0x3e,0xca,0x81,0x15,0x3b,0x26,0x61,0x00,0x3e,0x8e,0xb3,0xb9,0xbd,0x40,0x2e,0xdf,0xbc,0x57,0x58,0xd8,0x3c,0x32,0x7b,0x43,0x3e,0xb1,0x73,0x24,0xbd,0x2a,0xa9,0x53,0x3d,0x78,0x32,0x97,0xbd,0x1a,0xe9,0x0a,0x3e,0xc0,0xc4,0x11,0xbc,0x41,0x33,0x36,0xbe,0xfb,0x44,0x29,0x3e,0x8b,0xce,0x29,0xbd,0xcf,0x24,0xc1,0x3d,0x38,0x27,0x10,0xbe,0xb0,0x62,0x08,0x3e,0xd0,0x2a,0xc8,0x3d,0xb6,0x8f,0x0d,0x3e,0x31,0x92,0x07,0xbd,0x67,0xe0,0x00,0xbe,0x94,0x0c,0x71,0xbc,0x45,0xe8,0xe8,0xbd,0xdf,0x3c,0xe6,0x3c,0xb6,0xbd,0x00,0xbe,0x9b,0xeb,0x10,0x3e,0x5c,0x20,0x18,0xbe,0x78,0xe5,0xe8,0x3d,0xba,0x80,0xb6,0xbb,0x86,0x66,0xa5,0x3d,0xfd,0xaf,0xb3,0xbd,0x27,0x1f,0xfd,0xbd,0x7b,0x04,0x46,0x3e,0x74,0x59,0xdb,0x3d,0x54,0x8e,0x23,0x3e,0x08,0x4e,0xe6,0x3d,0x4c,0x99,0x3a,0x3e,0xd2,0x1d,0x45,0xbe,0x40,0x2c,0x39,0x3d,0x85,0xbd,0xe5,0x3d,0x7d,0xed,0x01,0x3e,0x3d,0xec,0xc9,0xbd,0x7f,0x32,0x8c,0xbc,0x31,0xe7,0xf6,0xbc,0xea,0x65,0x99,0xbd,0xc5,0xbd,0x2a,0x3e,0x6d,0xb8,0xa6,0xbd,0x51,0xbc,0xa4,0x3c,0x68,0x5c,0x1b,0x3e,0x04,0xf6,0x47,0x3e,0x2f,0xd0,0x27,0x3e,0xab,0xeb,0xa0,0xbd,0xc6,0x67,0x8b,0xbd,0x00,0xad,0x04,0xbe,0x71,0xc1,0x22,0xbe,0x0f,0x2f,0x8f,0x3d,0x71,0xd4,0x7e,0xbd,0x4c,0x36,0xd1,0xbd,0xbf,0x2b,0x02,0xbd,0x5b,0x67,0xac,0xbd,0xdc,0xc6,0x56,0x3c,0xe6,0x25,0x0e,0x3b,0x02,0xba,0x53,0xbc,0xb8,0x40,0x3b,0xbe,0xde,0x74,0x4b,0xbe,0x2e,0xf3,0x1a,0x3d,0x37,0xa0,0x6e,0xbd,0xa1,0x6f,0xea,0x3d,0xb6,0xb3,0x1d,0xbe,0xd4,0x5e,0xef,0x3d,0x87,0x05,0xcb,0x3d,0x75,0xee,0x34,0xbe,0x7e,0x75,0x7a,0x3d,0x65,0x2b,0x32,0x3e,0x46,0xb9,0x5e,0xbd,0x49,0xaf,0x22,0xbc,0x24,0xe7,0xba,0xbd,0x30,0xc3,0xb0,0xbd,0xd3,0x56,0xc9,0xbd,0x6f,0x26,0x96,0x3d,0x8e,0x70,0x1a,0x3d,0xed,0xef,0xf9,0x3d,0xb9,0xa3,0x28,0xbe,0x26,0xb7,0x4e,0xbe,0x70,0xf6,0xaa,0x3d,0x97,0x3c,0x9c,0xbd,0x99,0xfd,0x09,0xbe,0xed,0xf2,0x79,0xbd,0xc5,0x5a,0x42,0x3e,0xeb,0xe1,0x46,0xbd,0xb9,0xa7,0x84,0x3d,0x9d,0x64,0x80,0x3d,0x4e,0xb5,0x40,0xbc,0x52,0x36,0xf2,0xbc,0xa4,0x69,0x99,0x3c,0xbe,0x04,0xd7,0xbc,0xf0,0xa1,0x1a,0x3e,0xdc,0xa0,0x69,0xbd,0x9f,0x53,0xff,0xbc,0x5c,0xa6,0xd7,0xbd,0x05,0xd8,0x99,0xbd,0xf9,0x4a,0x84,0x3d,0xb2,0xb0,0x5c,0x3c,0xed,0x7b,0x16,0xbe,0xa8,0x1a,0x36,0x3e,0x0b,0x53,0xa2,0x3d,0x66,0x47,0x01,0x3c,0xe3,0x15,0x02,0x3e,0xec,0x05,0x99,0xbd,0x24,0xfb,0xa8,0x3d,0xe9,0xf7,0xeb,0x3d,0x0f,0xc8,0x18,0xbe,0x11,0xfe,0xb8,0x3d,0xd8,0xb4,0x42,0xbe,0xc6,0x23,0xb7,0xbd,0xe6,0x13,0x3e,0x3e,0x92,0xa6,0xb7,0xbd,0x6e,0x44,0x4f,0x3e,0x9c,0x91,0x1c,0x3e,0xb7,0x10,0x0f,0xbe,0x63,0x26,0x42,0x3d,0xd5,0x27,0x3c,0x3d,0x3e,0x1a,0xfc,0x3c,0x31,0xd0,0x0b,0x3e,0x3c,0x36,0xe9,0xbd,0x63,0xba,0xc6,0x3d,0x7d,0x09,0x4c,0xbe,0xc1,0x30,0xd6,0xbd,0x6a,0x01,0x0b,0xbe,0xce,0x20,0xb9,0x3d,0x5a,0x36,0x45,0xbe,0x46,0x36,0x1b,0x3e,0xba,0x70,0xd9,0xbd,0x03,0xdf,0xbb,0xbd,0x88,0x2b,0x1e,0xbe,0x35,0xe5,0x08,0xbd,0x3b,0x88,0x0f,0xbe,0xf3,0xbd,0x52,0x3e,0xec,0xd3,0xf9,0x3d,0x2d,0x63,0x9c,0xbd,0x63,0x0b,0x43,0x3e,0xb4,0xc7,0xc2,0x3c,0x32,0x4a,0xb6,0xbd,0x44,0xd9,0x72,0x3d,0x99,0x96,0x05,0xbc,0xb9,0x46,0x55,0x3e,0xe7,0xc2,0x05,0x3e,0x03,0xcc,0x3d,0xbe,0x84,0x5a,0x02,0x3e,0x11,0xfc,0x39,0xbe,0xca,0x52,0x1f,0x3e,0x20,0x73,0x00,0x3e,0xce,0x79,0x88,0xbd,0x26,0xfe,0x9a,0xbd,0x2d,0x61,0xb2,0x3d,0x61,0xc9,0xf0,0xbd,0x00,0xc9,0xca,0x3c,0x66,0x65,0x95,0x39,0xd4,0x9b,0xe1,0xbc,0x6e,0x2f,0xb6,0xbd,0x45,0xf2,0xf1,0x3d,0x04,0x7c,0xe4,0xbd,0x15,0xbb,0x59,0xbe,0x4d,0x3e,0x22,0xbe,0x78,0x74,0xab,0x3d,0xfa,0xc6,0x03,0xbe,0xfc,0x9c,0xfa,0xbd,0x76,0x84,0x30,0xbe,0x71,0x9a,0xf1,0xbd,0xef,0xfb,0x8d,0xbd,0x44,0xc0,0x38,0x3e,0x59,0x17,0x7c,0x3d,0xe9,0xf3,0x38,0x3e,0x74,0xb2,0xde,0x3d,0x02,0x47,0x74,0x3d,0x8b,0xf4,0xe6,0x3d,0x87,0x3d,0xb4,0x3d,0x98,0x32,0xfa,0xbd,0x3b,0x11,0x10,0xbe,0x51,0x50,0x05,0x3e,0xf7,0x05,0xba,0xbd,0xef,0x69,0x0d,0xbe,0xd4,0xfb,0x24,0x3e,0x0f,0x1d,0xbb,0x3c,0x4b,0x40,0xdd,0x3d,0x88,0xcb,0x00,0x3e,0xe7,0xd2,0x7d,0xbd,0x88,0xe4,0xd9,0xbd,0x7d,0x50,0x5a,0xbd,0x70,0x03,0x0c,0xbd,0x47,0xa2,0x0d,0xbe,0x87,0x5c,0x6d,0x3d,0x80,0x27,0x68,0xbd,0x80,0x60,0xaf,0x3d,0xbb,0x12,0x24,0x3c,0x04,0x1e,0xb2,0xbd,0x69,0xeb,0x3e,0xbe,0xc9,0xf7,0x7b,0x3d,0x87,0xc3,0x96,0x3b,0x37,0x99,0xb8,0xbd,0xb7,0x3a,0x4a,0xbe,0x72,0x73,0x35,0xbe,0xfb,0x9a,0x5a,0xbe,0xb8,0x26,0x5b,0xbe,0xc1,0x5e,0x03,0x3d,0xa2,0xc5,0x06,0x3e,0x9b,0xad,0x95,0xbd,0x91,0xb7,0x5b,0xbc,0x44,0x02,0x0b,0xbe,0x82,0x93,0x04,0x3d,0xec,0xfd,0x8b,0xbc,0xf0,0x21,0x07,0x3e,0xee,0x14,0x36,0x3e,0x5e,0x7e,0x2a,0xbe,0xbe,0x43,0xb1,0x3d,0xa4,0xc3,0x4c,0x3e,0xe5,0x91,0xaf,0x3d,0xa3,0xdc,0x49,0xbe,0x33,0x56,0xc7,0x3c,0xea,0x16,0xe9,0x3d,0x23,0x3a,0xa7,0x3d,0x25,0x28,0xe1,0xbc,0xe0,0xd8,0x30,0x3e,0x96,0xe0,0x41,0xbc,0xd2,0x52,0x42,0x3e,0x4f,0xea,0x4f,0x3e,0x3c,0xd3,0xc9,0x3d,0xa6,0x34,0x9d,0x3d,0x1c,0xe7,0x1d,0x3e,0x9d,0x37,0x04,0xbe,0x15,0xd7,0x26,0xbe,0xf2,0x38,0x46,0xbe,0x60,0x29,0x25,0xbe,0x0f,0xf0,0x4a,0xbe,0xaa,0x7b,0xc3,0x3d,0xdf,0x95,0x1e,0x3d,0x22,0x21,0x7b,0x3d,0x5a,0xec,0x60,0x3d,0x32,0xca,0xe2,0x3d,0x61,0xcb,0x2a,0x3e,0x6c,0x22,0x6c,0x3d,0x2c,0x41,0xbc,0x3d,0xb2,0x78,0xf6,0x3d,0x17,0x7b,0x14,0xbe,0x02,0x06,0x8e,0x3d,0x50,0x27,0x06,0xbe,0x14,0x33,0x68,0x3d,0xbe,0x87,0x91,0xbd,0x22,0x16,0x23,0xbe,0x9a,0x9d,0x94,0x3d,0xd3,0x3d,0x03,0x3e,0x54,0xc1,0x48,0x3e,0xf9,0x56,0x17,0x3e,0xf7,0x26,0xe0,0xbc,0x82,0x2b,0x4a,0xbe,0x64,0x18,0x1a,0xbd,0xf5,0x60,0x96,0xbd,0x1c,0xfe,0x04,0x3e,0x3c,0x14,0x9c,0x3d,0x25,0x28,0xe4,0x3d,0x19,0x6b,0x98,0x3c,0x3e,0x4b,0x3f,0x3d,0x6b,0x40,0x83,0x3d,0xe7,0xc2,0x97,0xbd,0x7f,0x65,0xd1,0x3c,0xb3,0x0b,0xf7,0xbd,0x5f,0xef,0xfe,0xbd,0x7c,0x63,0x1c,0xbe,0xbc,0x85,0x55,0xbe,0xed,0x86,0xe2,0x3d,0xd1,0xe9,0x3d,0xbe,0x2d,0xbe,0x21,0xbd,0x8b,0x1d,0xe6,0x3d,0xa8,0x6f,0x62,0x3d,0x27,0x7c,0xbe,0xbd,0x75,0x77,0x2e,0xbe,0xc6,0xfb,0x43,0xbe,0xe2,0x31,0x1b,0x3e,0xf6,0x62,0x1c,0xbe,0xca,0xd6,0x3e,0x3e,0xf2,0x83,0x36,0x3e,0x99,0x38,0x22,0x3e,0xd2,0xd9,0xfe,0xbd,0xe7,0x05,0xd7,0xbd,0xe0,0x8d,0x50,0x3d,0x7f,0x04,0x53,0x3c,0x0f,0xb4,0xfd,0x3d,0x76,0xd7,0x2e,0xbe,0xdf,0xee,0x1f,0xbe,0x33,0x58,0xf3,0x3d,0xb7,0xc1,0x26,0xbe,0x7d,0x53,0x80,0x3d,0xb7,0xf9,0xc0,0x3a,0xc9,0x46,0x9a,0xbc,0x7d,0xf2,0x42,0xbd,0xf4,0x10,0x21,0x3c,0x7b,0x88,0x11,0xbd,0x12,0x46,0x99,0xbd,0x02,0x78,0x4f,0xbe,0x41,0x0f,0x97,0x3d,0xe0,0x9c,0x59,0x3d,0x2a,0x29,0x4e,0xbe,0x3e,0xac,0x00,0xbe,0x60,0x91,0x27,0x3e,0xe3,0xcb,0x09,0xbd,0x4b,0xc5,0x48,0xbe,0xb0,0x16,0xc6,0x3c,0x7d,0xd3,0x23,0x3e,0x5c,0x21,0x55,0x3d,0xfa,0x0c,0x28,0xbe,0x60,0x7c,0x2f,0x3e,0x04,0x71,0x18,0xbd,0x1c,0x66,0xe0,0x3d,0x3b,0xa6,0xf9,0xbc,0xf1,0x2f,0x0d,0xbe,0xa2,0x23,0xb7,0xbd,0x2c,0xf5,0x62,0xbd,0xf5,0x88,0x48,0xbe,0x79,0x7d,0xa2,0x3d,0xc1,0x69,0x9b,0x3c,0x22,0x2f,0x1d,0xbe,0x48,0xad,0x29,0xbe,0xdc,0x8a,0x39,0x3c,0x9f,0x64,0x07,0xbe,0xb6,0x8f,0x67,0xbb,0x28,0x9f,0x1c,0x3e,0x85,0xcc,0xde,0xbd,0xd1,0x34,0xea,0xbd,0xdf,0xb1,0xe9,0x3d,0x67,0xb8,0x1e,0x3e,0x40,0xf2,0xd6,0x3c,0x2f,0x50,0xc1,0x3c,0x7e,0x0f,0x82,0xbd,0xbe,0xf4,0xdf,0xbd,0x87,0x67,0x3a,0x3d,0x78,0xc0,0xec,0x3d,0x8f,0x47,0xc7,0xbd,0xe5,0x92,0x07,0x3e,0x42,0x5d,0x4b,0x3d,0x57,0xd3,0x48,0xbe,0x7c,0x9f,0x60,0x3c,0x47,0xe6,0x0b,0xbe,0xae,0x05,0xb2,0xbc,0xbe,0x89,0x6f,0xbc,0x1f,0xac,0x40,0xbe,0xbc,0x66,0x7d,0x3d,0x2c,0x08,0xf3,0x3d,0xeb,0x2d,0xa4,0x3d,0x8b,0xb5,0xda,0xbc,0x43,0x0c,0x4c,0x3e,0x71,0x6e,0x0a,0x3e,0xd8,0x89,0x79,0xbd,0xb1,0xce,0x0e,0x3c,0x89,0x6c,0x7c,0x3d,0xfe,0x77,0x8f,0xbd,0x51,0xa9,0x70,0xbd,0xdc,0xb1,0x1f,0x3e,0x96,0x48,0xd9,0x3d,0x01,0xc2,0x2a,0xbe,0x68,0x37,0x1a,0xbe,0x30,0xc2,0x0a,0x3e,0x1c,0x0e,0x70,0x3b,0x65,0x33,0x36,0x3e,0xac,0x84,0x1a,0x3e,0x53,0xdb,0xd2,0x3d,0x92,0x78,0x56,0xbd,0x8d,0x18,0x0c,0xbe,0x43,0x6f,0x53,0x3c,0x87,0x84,0xc8,0xbd,0x0a,0xde,0x3c,0xbe,0xd5,0x77,0xb8,0x3d,0x9c,0x14,0x91,0x3b,0xf6,0x1a,0x2b,0x3e,0xb1,0x48,0x87,0x3d,0xe9,0x66,0x33,0xbe,0xa9,0x13,0xde,0x3d,0x70,0xdb,0x29,0xbe,0x52,0x12,0x03,0x3e,0x9d,0x21,0x16,0xbe,0x78,0x3f,0x1f,0x3e,0x17,0x80,0x78,0x3d,0x33,0x25,0xac,0xbd,0x26,0x92,0x1b,0x3e,0x90,0xc0,0x97,0xbc,0x05,0xc4,0xd1,0x3d,0x1e,0x4f,0xb2,0xbb,0x24,0xb3,0x29,0xbd,0xed,0xc1,0xcc,0xbc,0x1b,0x5f,0x2e,0xbd,0x83,0xdc,0x2c,0xbe,0xa9,0xc4,0x96,0xbd,0x4b,0xf5,0x98,0xbd,0x7d,0x7d,0xce,0xbd,0xdf,0x41,0x38,0x3e,0x2e,0x3e,0x34,0x3e,0x51,0xe4,0xa4,0xbd,0x40,0x38,0xb2,0xbd,0xa6,0x9a,0x99,0xbc,0x76,0x14,0x44,0xbe,0x13,0xe6,0x41,0xbe,0x4a,0xdb,0x54,0x3d,0xfd,0x1e,0x93,0xbd,0xef,0x6e,0x9d,0xbd,0xb0,0xa6,0x16,0x3e,0x70,0xe7,0xc0,0xbd,0x71,0xd7,0x92,0xbd,0xdf,0x08,0x3c,0xbe,0x5b,0xab,0x96,0xbc,0x57,0x6f,0x0b,0xbe,0x45,0x1d,0x3c,0x3d,0x70,0xc1,0xdd,0xbd,0x03,0x4d,0x07,0xbe,0x24,0xf2,0x34,0x3c,0x44,0xf9,0x93,0xbd,0xd3,0xcd,0xa7,0xbd,0x24,0xb0,0xef,0xbc,0xcc,0x73,0x8f,0xbd,0x87,0x6e,0x39,0xbb,0x6e,0x18,0x93,0x3d,0x49,0xac,0xd9,0xbd,0xe2,0xb0,0xf2,0x3d,0x85,0xa2,0xe2,0xbd,0x31,0xa9,0x30,0x3e,0x4c,0x12,0x56,0x3e,0xd1,0x56,0x35,0x3e,0x4a,0xe8,0xb0,0xbd,0x7c,0xfb,0x96,0xbc,0x00,0x56,0x91,0xbd,0x69,0x7c,0x27,0xbd,0x8c,0xe1,0x05,0x3d,0x65,0x4c,0x2d,0x3e,0x3f,0x58,0x1a,0x3d,0x69,0xb9,0x1b,0xbe,0x50,0x43,0x02,0xbd,0x1b,0x39,0x2a,0xbe,0x10,0x36,0x47,0x3e,0x9b,0x10,0xbb,0x3d,0xd0,0xd1,0x2d,0xbd,0xf9,0x70,0x0e,0x3e,0xf0,0xfb,0x12,0x3d,0xfa,0x5f,0x92,0xbd,0x67,0xeb,0xe1,0xbc,0x49,0x4d,0x29,0xbd,0x67,0xf9,0x1d,0x3d,0x5d,0x4b,0x4c,0xbd,0xb1,0x91,0x2c,0xbe,0x66,0x32,0x8d,0x3d,0xd4,0xda,0x94,0x3d,0x6e,0xe9,0x68,0xbd,0x7f,0xfd,0x06,0x3e,0x17,0x9b,0x84,0xbd,0x30,0xb5,0xba,0x3d,0x48,0x19,0x57,0xbd,0xcd,0x6e,0x2b,0xbe,0x31,0x53,0xc5,0x3d,0xcd,0x3e,0xeb,0xbd,0x70,0xbf,0x06,0x3e,0x1d,0x7b,0x26,0x3e,0x48,0x27,0xd8,0x3c,0x03,0x18,0x32,0xbd,0x52,0x96,0x0a,0xbe,0xc4,0x03,0x58,0xbd,0xdf,0x78,0x17,0x3e,0x7d,0x62,0xf2,0xbd,0x89,0x90,0x28,0xbc,0xd4,0xed,0x88,0xbc,0xf2,0xf4,0xdf,0xbd,0x0c,0xc9,0xc8,0x3c,0x37,0x5a,0x05,0xbe,0x6c,0x25,0x16,0xbe,0x0e,0x3f,0x0e,0xbe,0x1c,0xf0,0x05,0x3e,0x44,0xa8,0x01,0xbd,0xc9,0xe8,0x09,0xbe,0x3b,0xcb,0x39,0xbe,0x2e,0x21,0x1b,0xbe,0x3e,0x40,0x2a,0xbe,0x72,0xdd,0xa7,0x3d,0xf0,0x54,0x31,0xb9,0xf8,0x95,0x47,0x3c,0x31,0xdc,0x10,0xbd,0x44,0xdc,0x36,0xbb,0x44,0x0a,0xc2,0xbc,0x17,0xbb,0x25,0x3d,0x80,0x6c,0x9f,0xbc,0x0e,0xbd,0x41,0xbe,0x4b,0x2e,0xc9,0x3d,0x9c,0x85,0x03,0xbe,0x39,0xd1,0x70,0x3c,0x6c,0x16,0xb6,0x3c,0x0f,0x7f,0x81,0x3d,0x4a,0x95,0x37,0x3e,0x71,0x70,0x16,0xbe,0xb8,0x11,0xa3,0x3b,0x88,0xdd,0x2d,0xbe,0x60,0xd8,0x8d,0xbd,0x85,0x27,0xba,0x3c,0xac,0xcc,0x63,0xbd,0x26,0x08,0x00,0x3e,0xf3,0x6d,0x38,0xbe,0x3f,0x95,0xf8,0x3d,0x9e,0x4d,0xe7,0xbd,0x4d,0xa0,0x05,0x3e,0xac,0x97,0x47,0xbc,0xce,0x68,0x3b,0xbd,0x2c,0x56,0x32,0x3d,0x36,0xa7,0x02,0xbe,0x8c,0x88,0x81,0x3d,0x2f,0x69,0xc7,0x3d,0xb6,0x43,0x7a,0xbd,0x45,0x34,0x55,0x3d,0x28,0x7b,0x90,0xbd,0xb9,0x0f,0x94,0x3d,0xa9,0x8d,0x77,0xbd,0x2b,0x55,0x06,0x3c,0x80,0xee,0x14,0xbe,0xf2,0xf7,0x40,0x3d,0x88,0xa2,0x42,0xbd,0xe2,0x37,0x3c,0xbe,0x14,0x35,0x88,0x3d,0x07,0xb7,0xc4,0x3b,0x24,0x81,0x6d,0x3c,0x4d,0xee,0x82,0xbd,0xaf,0xcd,0x47,0x3e,0x44,0x3d,0x9e,0x3d,0xeb,0x01,0xcb,0x3d,0x7d,0x46,0x10,0xbe,0xf5,0x7c,0x84,0xbd,0x70,0x27,0x15,0x3c,0xc2,0x91,0x97,0xbc,0xee,0x82,0x32,0xbe,0x07,0xee,0x2a,0x3e,0x2c,0xef,0x33,0x3e,0x41,0x1e,0x30,0xbe,0x82,0x82,0x8b,0x3d,0x75,0xae,0xf0,0xbd,0x4f,0xb1,0xc4,0xbd,0xb9,0x33,0x6e,0xbd,0x41,0xef,0x44,0x3e,0x62,0xcf,0x55,0xbc,0xea,0xf7,0xf8,0xbc,0x29,0x91,0x6b,0xbc,0x94,0xf3,0x9b,0xbc,0x4a,0xc5,0x41,0xbe,0xd6,0x8f,0x53,0xbe,0x9f,0x5c,0xe3,0xbd,0xf7,0x3b,0x12,0x3e,0x14,0xb6,0xf3,0x3d,0xf7,0x8c,0x19,0x3e,0xee,0xcd,0xd9,0xbd,0xd5,0xcf,0x21,0x3d,0x6c,0x72,0xe8,0xbd,0xe5,0xf7,0x31,0x3b,0x42,0xec,0x17,0xbe,0x66,0x7c,0xb3,0xbd,0x9c,0xad,0x6d,0xbb,0xd1,0xb5,0x06,0xbe,0x8d,0xd8,0x07,0x3e,0x5f,0x92,0xc9,0x3d,0x2d,0x61,0xff,0xbd,0xdd,0x48,0x09,0xbe,0xc7,0xee,0x1f,0x3e,0x6b,0x75,0x37,0x3e,0xd9,0x41,0x14,0x3e,0xeb,0xdc,0xfe,0x3d,0x68,0xd0,0x6d,0xbc,0x7f,0x9b,0x3d,0xbe,0xbe,0xf2,0x1f,0xbe,0x71,0x16,0x3d,0xbd,0x02,0x25,0x91,0x3d,0xcc,0x17,0x4b,0xb9,0x98,0xfd,0xf1,0x3d,0x9b,0x9e,0xb7,0x3c,0xd5,0x45,0x06,0xbe,0xb6,0xc3,0x48,0xbe,0x97,0x34,0xe0,0xbd,0xf1,0xaa,0xbb,0x3a,0x23,0xae,0x45,0x3e,0x33,0x2d,0xdf,0x3d,0x7c,0x63,0xfc,0x3d,0x72,0x40,0x3e,0xbe,0x2f,0xb4,0x1d,0xbe,0xb8,0xf9,0x06,0x3d,0xc6,0xb2,0x02,0x3d,0x03,0xd4,0x53,0xbe,0xad,0xa8,0x6d,0x3d,0xdc,0xdb,0x48,0xbd,0x17,0x76,0x30,0x3e,0x9d,0xd7,0xd2,0x3d,0x12,0xac,0xfa,0x3b,0xd9,0x13,0x4c,0xbe,0xd4,0xaa,0x3d,0xbe,0x13,0xe1,0xc6,0x3d,0x7c,0x56,0x5e,0xbd,0x04,0xeb,0x07,0x3e,0x9c,0xde,0x55,0xbd,0x24,0x2c,0xb2,0x3d,0xdf,0xe5,0x4a,0x3e,0x70,0x85,0x01,0xbe,0xcb,0xaf,0xb1,0xbd,0x11,0xeb,0x40,0x3e,0x5c,0x3d,0xa9,0xbb,0x81,0x14,0xe2,0x3b,0xff,0x56,0x44,0xbd,0x8f,0xd1,0xbd,0xbd,0xee,0xf7,0x8c,0xbd,0x09,0xa2,0x21,0xbe,0x57,0x10,0x2c,0x3e,0x0a,0x38,0x96,0x3a,0xa0,0x71,0xbd,0xbc,0x78,0x77,0x1e,0x3e,0x03,0x6f,0x30,0x3e,0xcb,0xba,0xe8,0xbc,0xcb,0xe2,0x97,0x3d,0x9b,0x60,0x4c,0x3e,0xf4,0xff,0x2b,0xbe,0x02,0xdb,0x15,0x3e,0xff,0x99,0xdc,0xbd,0x70,0xb3,0xd4,0x3d,0x60,0x39,0x66,0xbd,0xbd,0xde,0xcc,0xbd,0xa8,0x5e,0xc2,0xbd,0x95,0xc5,0x8d,0x3d,0x26,0xf5,0x0f,0xbe,0x85,0x21,0xd9,0xbc,0xe1,0x4c,0x56,0x3e,0xe7,0xe5,0xf4,0xbd,0x61,0x1f,0x00,0x3e,0x3a,0xc2,0xe5,0xbc,0x4b,0x84,0x10,0x3e,0x53,0x5a,0xa0,0x3b,0xf6,0x26,0x27,0x3e,0x18,0xe7,0xa9,0xb8,0x6a,0xee,0xca,0xbd,0xd3,0x84,0x9a,0x3d,0x36,0x2e,0x1f,0x3e,0xd7,0x94,0x7a,0x3d,0xe3,0x6d,0x09,0xbd,0x1a,0x9e,0x8c,0x3c,0x6b,0x06,0x91,0xbd,0xfb,0x36,0x17,0xbd,0x2a,0xed,0xb8,0xbc,0xaa,0xb3,0xba,0x3c,0x51,0xa9,0x1e,0x3e,0xf1,0x11,0xc9,0xbd,0x51,0x2d,0x00,0xbe,0x24,0xb6,0x30,0xbe,0xdc,0x19,0x86,0x3c,0x4c,0xa2,0xd7,0xbd,0x1d,0x92,0x27,0xbe,0x8d,0x65,0xbe,0xbc,0x76,0x0d,0xc9,0xbd,0xd6,0x5c,0x0c,0xbd,0xf9,0x15,0xf1,0xbc,0xc7,0xde,0x13,0x3e,0xa1,0xb1,0x05,0xbe,0xe9,0x36,0x83,0x3b,0x6d,0xd6,0x13,0x3e,0xff,0xd5,0xa2,0xbd,0xf5,0x65,0x0f,0xbe,0xba,0x03,0x05,0x3e,0x3a,0xb3,0xae,0x3c,0x67,0x9f,0xcd,0x3c,0x97,0x20,0x1c,0xbe,0x23,0x73,0xe4,0xbd,0x1c,0xdc,0xe5,0x3d,0xca,0x43,0x3a,0x3e,0x2b,0xbd,0x86,0xbb,0x11,0x6f,0xf2,0xbc,0x33,0x42,0x7f,0x3d,0x83,0xb5,0x38,0x3e,0x5c,0x89,0x2b,0x3e,0x91,0xb3,0x92,0xbc,0x22,0x6b,0x65,0x3d,0xe0,0xb4,0x0b,0x3d,0x3d,0x09,0x18,0x3e,0x51,0xcd,0xd6,0x3c,0xb7,0x0a,0x20,0x3e,0xa2,0x0b,0x45,0x3d,0x99,0xbb,0x44,0xbe,0x97,0xa4,0x32,0xbe,0xe3,0x64,0x4c,0xbb,0x0f,0xdc,0x16,0x3e,0xbd,0x15,0xf3,0xbc,0x75,0x3a,0x29,0x3e,0xd1,0x91,0xd1,0xbd,0x24,0x58,0x34,0x3e,0xb1,0x07,0xe5,0xbb,0x16,0x73,0x1f,0x3c,0xc9,0x44,0xb7,0xbd,0x1f,0xe0,0xdf,0xbd,0x78,0x0e,0x4a,0xbd,0xcd,0x45,0x21,0xbe,0x62,0xfd,0x13,0x3e,0x8c,0x9e,0x21,0x3e,0xf8,0x1c,0xcf,0xbd,0x33,0xb2,0x67,0xbd,0x49,0xba,0x08,0x3e,0xb8,0xb4,0x8f,0x3c,0xd4,0x56,0x23,0xbe,0x4e,0xad,0xf9,0x3d,0xd2,0x11,0xee,0x3d,0x3a,0xfb,0x12,0x3e,0x4e,0x29,0x01,0xbe,0xf7,0xf0,0xce,0xbd,0x3c,0xed,0xea,0x3d,0xc9,0x10,0x3b,0x3d,0x04,0x4e,0x01,0xbb,0x93,0x91,0x4b,0xbe,0x0b,0xfe,0x1e,0xbe,0x6d,0x2c,0x42,0x3d,0xb5,0x06,0x48,0xbe,0x36,0xda,0x09,0x3e,0x81,0xb4,0x07,0xbe,0xda,0xcd,0x08,0x3e,0xb5,0xcb,0x86,0x3c,0x35,0x9e,0x03,0x3e,0x72,0x72,0xe7,0xbd,0x23,0x50,0xc9,0xbd,0x4a,0xa0,0x42,0x3e,0xb5,0x1b,0x44,0x3e,0x27,0xc4,0x1b,0xbd,0x6d,0x99,0x89,0x3d,0x42,0x87,0x2e,0x3d,0x9a,0x79,0x14,0xbe,0x08,0xf6,0x39,0x3c,0xa5,0x82,0x35,0x3e,0x14,0xf4,0x3a,0xbe,0xb4,0x15,0x18,0x3e,0x76,0x0c,0xad,0xbd,0x16,0x03,0x44,0xbe,0x8d,0xa4,0xcd,0x3d,0x7f,0x41,0x0b,0xbe,0xe1,0x9b,0xb7,0xbd,0x34,0xfd,0x41,0xbd,0x08,0x1f,0x1e,0x3e,0x08,0x9b,0x38,0xbe,0x9d,0x33,0x09,0x3c,0x89,0xd0,0xba,0xbd,0xa9,0x19,0x69,0x3d,0x57,0x8d,0x44,0xbb,0x40,0x9c,0xd6,0x3d,0x5e,0xf3,0x1f,0x3e,0x7f,0xcd,0x3a,0xbe,0x5d,0x6b,0xae,0xbd,0xf6,0x3b,0x1c,0xbe,0xb8,0x59,0x30,0x3e,0xd8,0x4a,0x01,0x3d,0x78,0xdf,0x45,0x3e,0x35,0x5c,0xc3,0x3d,0xf1,0x3f,0x2a,0xbd,0xbd,0xc2,0xfe,0x3d,0x50,0x3a,0x89,0xbb,0x1d,0xee,0x20,0xbe,0x41,0x9c,0x3a,0x3e,0xd6,0x96,0x03,0x3e,0xe7,0x12,0x9c,0xbb,0xac,0x22,0xd9,0xbd,0x36,0xe9,0xff,0x3b,0xeb,0x81,0xa1,0x3d,0x43,0xfb,0x8b,0xbd,0xbc,0x29,0x4b,0x3d,0xe3,0x31,0x3b,0x3e,0x75,0x5f,0x07,0x3e,0x4a,0x48,0x36,0x3e,0x25,0xe2,0xd0,0x3c,0xc0,0x79,0x40,0x3e,0x22,0x03,0x0d,0xbe,0x93,0x29,0x0e,0xbe,0x4e,0xb7,0xa0,0x3d,0x13,0x33,0x35,0x3d,0xe4,0x54,0xf9,0xbd,0x47,0x19,0xcf,0xbc,0xcd,0x41,0x19,0x3e,0x37,0x8f,0x58,0xbd,0x8f,0x7b,0x45,0x3e,0x9c,0x88,0xc7,0xbd,0x55,0xb3,0x2c,0x3e,0xfa,0x09,0xf0,0xbd,0x89,0x21,0x0c,0xbd,0x75,0xc1,0x29,0xbe,0x90,0x97,0xde,0xbd,0x75,0xe8,0x42,0xbe,0x22,0x74,0xb1,0xbd,0x23,0x02,0x94,0xbd,0x9a,0xec,0x72,0x3d,0x3a,0x18,0x02,0x3e,0x93,0x29,0xbd,0xbd,0x29,0xd9,0x19,0xbe,0xfa,0x66,0x17,0x3e,0xc8,0xe0,0x3d,0xbd,0xc8,0xea,0x89,0xbc,0x5b,0xc3,0x14,0xbe,0x97,0xd3,0xc6,0xbd,0x2f,0xc6,0xef,0x3c,0xe6,0xc0,0xdf,0x3d,0x2c,0x22,0x35,0xbd,0x7c,0xef,0x09,0xbe,0x54,0xd1,0x5c,0xbe,0xfc,0x2f,0x45,0xbe,0x15,0x54,0x2e,0xbd,0x57,0x10,0x26,0xbe,0x7f,0xd1,0x4a,0x3d,0x79,0xc1,0x2c,0x3d,0x8e,0x94,0x24,0xbe,0xf8,0x4e,0xf5,0xbc,0xfe,0x2e,0x42,0xbe,0xf1,0x96,0x86,0x3b,0x5f,0xb4,0xa0,0xbb,0xc9,0x04,0x10,0xbe,0x73,0x5d,0x06,0x3e,0xdf,0x2c,0x3e,0x3e,0xf0,0xbe,0x31,0xbe,0xf0,0x35,0x27,0x3e,0x04,0xea,0x1d,0x3e,0xad,0x3f,0x42,0xbe,0x05,0x29,0xfb,0x3d,0xa6,0x58,0x27,0x3e,0x5c,0xce,0x12,0x3e,0x1b,0xc9,0x56,0xbe,0x38,0x3e,0x8e,0xbb,0x79,0xce,0x56,0x3d,0x06,0x62,0xe2,0x3b,0x8b,0xab,0x5c,0x3d,0x06,0x01,0x5f,0xbd,0xb8,0x86,0x41,0x3e,0x0e,0xfe,0x54,0xbc,0x65,0xbd,0x84,0xbd,0x08,0x3a,0x90,0xbc,0x0c,0x59,0x1c,0x3e,0xdd,0xaf,0xb8,0xbd,0x07,0xa3,0xa7,0xbc,0x9e,0xb7,0x06,0x3d,0x4c,0x5a,0x02,0x3e,0x87,0x99,0xe8,0x3d,0xcc,0x3f,0x9e,0xbd,0xdc,0xf9,0x68,0x3d,0x8f,0x7b,0x26,0x3e,0x75,0xfa,0x96,0xbd,0xdf,0x1e,0x95,0xbd,0xb0,0x7e,0x32,0x3e,0x93,0x2a,0x7a,0xbd,0x5a,0xe1,0x06,0xbd,0x57,0x2f,0x01,0xbe,0xd5,0xaf,0x28,0x3e,0xc0,0x51,0x1b,0xbd,0xa1,0x1b,0x3a,0x3e,0xf3,0x5e,0x51,0x3e,0x21,0x71,0xd6,0xbd,0xaa,0x5d,0xca,0xbc,0x11,0xb6,0x51,0x3e,0x7d,0xfc,0xb8,0x3d,0x04,0x80,0xf3,0x3d,0x96,0x2b,0x3e,0xbe,0xfc,0x44,0x33,0x3e,0x46,0x6d,0x20,0xbd,0xba,0xc8,0x44,0x3b,0x2e,0xd3,0x78,0xbc,0xf6,0xe4,0x91,0xbc,0x56,0xff,0x21,0x3e,0x54,0x0d,0x27,0x3e,0xd4,0x51,0x5d,0x3d,0x0c,0x0c,0xec,0x3d,0x52,0x2c,0xfa,0xbd,0x5c,0x93,0xd9,0xbd,0xb9,0xfe,0xa9,0xbd,0x23,0x5a,0xa1,0xbc,0xc8,0x65,0xba,0xbd,0x4a,0x46,0x16,0xbe,0xa8,0x9a,0x93,0xbd,0x24,0x6a,0x23,0xbe,0x61,0x0b,0xc6,0xbd,0xf0,0x3c,0xa5,0x3d,0x75,0x22,0x13,0xbe,0x2a,0xc4,0x1c,0x3e,0xd6,0x08,0x20,0x3e,0xea,0x74,0x14,0xbe,0x7b,0xd4,0x04,0x3e,0x07,0x9b,0x13,0x3d,0x19,0xcb,0x52,0xbd,0xff,0x29,0x24,0x3d,0x54,0x4d,0x1e,0x3e,0x01,0x82,0x7a,0xbd,0xe0,0x27,0xff,0xbd,0x03,0xd4,0x53,0x3d,0x9b,0x57,0x32,0x3e,0xb2,0x80,0x23,0x3d,0x3f,0x65,0x49,0xbe,0x4c,0xff,0x45,0xbe,0x1d,0xa2,0x69,0x3d,0x7e,0x1b,0x6f,0xbc,0x89,0x1d,0x59,0xbe,0x6f,0x5c,0x2e,0xbd,0xec,0x84,0x3a,0x3e,0xf1,0x14,0x47,0x3d,0x3a,0x00,0xb3,0x3b,0xe4,0x8c,0x12,0x3c,0x4c,0xb4,0x0a,0x3e,0x95,0x35,0xbd,0xbd,0x07,0x16,0xfe,0x3d,0xe4,0xd7,0xff,0x3d,0x6e,0x96,0x2f,0xbe,0xf3,0xf4,0x4e,0xbe,0xc7,0x63,0xd9,0xbd,0x32,0x53,0x07,0x3e,0x06,0x47,0xed,0x3b,0xad,0x4f,0x1b,0x3d,0x22,0x3c,0xd0,0xbb,0x3e,0x4d,0x10,0x3d,0xbd,0x32,0x20,0x3e,0xd3,0x6b,0x5e,0xbe,0xbf,0x6c,0x6e,0x3d,0x29,0xec,0xfe,0xbd,0x27,0xc2,0x4c,0xbe,0x19,0x17,0xc7,0xbd,0x31,0x68,0x86,0xbb,0x5e,0xb3,0xde,0x3d,0x6c,0x4c,0x56,0xbe,0x60,0x09,0xb4,0x3d,0x3a,0x96,0x16,0xbe,0x06,0x47,0x1a,0xbe,0xa8,0xe3,0xb9,0x3d,0x52,0x86,0x32,0x3c,0x51,0x54,0x46,0xbe,0xaa,0x19,0x61,0x3d,0x8c,0x4f,0x50,0x3d,0x9b,0x4c,0x47,0xbc,0x37,0x90,0x35,0x3e,0x89,0xad,0x3e,0x3e,0x99,0x6a,0xeb,0x3c,0xa0,0xfe,0x97,0xbd,0x7e,0x7b,0xde,0x3d,0x7e,0x5a,0x44,0x3e,0x28,0xb6,0x4f,0xbd,0xa9,0xe6,0xb3,0xbd,0x17,0xa4,0xc6,0x3d,0x7d,0x7a,0xdb,0x3d,0xec,0xc8,0x9d,0x3d,0xe5,0x72,0x4d,0x3e,0xd7,0x7d,0x98,0xbd,0x48,0x76,0xf1,0xbd,0xa0,0x03,0x6c,0xbd,0x82,0x63,0xec,0xbd,0x5f,0xe6,0x1e,0x3e,0x1d,0xe8,0x31,0x3d,0x99,0x29,0x1a,0x3e,0x84,0x04,0x0b,0xbe,0x1a,0x7b,0x0e,0x3e,0x28,0x13,0x79,0x3d,0x95,0xcb,0x1c,0xbe,0xb0,0xde,0xfc,0x3d,0x34,0x26,0xdf,0x3d,0x51,0xcc,0x63,0x3d,0x3c,0x63,0x3d,0xbe,0x0f,0xe6,0xcd,0xbd,0x0a,0x8d,0xc0,0xbd,0x42,0x26,0x19,0xbd,0xf9,0x1b,0x0d,0x3d,0x01,0x33,0x2c,0xbe,0x0b,0x42,0xfc,0x3c,0x3d,0x1e,0xd2,0x3d,0x17,0x7a,0xbd,0x3b,0x5a,0xda,0x12,0xbd,0xab,0x81,0x00,0x3c,0x5e,0xdc,0x14,0xbe,0x95,0xb7,0xcf,0x3d,0xc2,0x36,0x25,0x3e,0xc8,0x3f,0x3b,0x3b,0x8d,0x5b,0x10,0xbe,0x91,0xa9,0x81,0xbc,0x12,0x01,0x13,0xbe,0x47,0x25,0xec,0xbd,0xf6,0x65,0x41,0xbd,0xab,0x97,0xe1,0xbc,0xc1,0xc4,0xf0,0xbd,0xac,0xbe,0xb2,0x3d,0x53,0x3a,0x67,0x3b,0xb5,0xa0,0x85,0xbc,0xb1,0x40,0x79,0xbd,0xec,0x40,0x04,0x3c,0x4c,0x06,0x31,0xbe,0x0b,0xc0,0x74,0x3b,0x71,0x99,0x92,0xbd,0x35,0x2f,0x10,0x3e,0x03,0x27,0xf5,0xba,0xc5,0x8e,0xa5,0x3d,0x9f,0xf1,0xd5,0x3d,0x10,0x08,0x46,0xbe,0x24,0xc7,0x8e,0xbd,0xcf,0x1a,0x34,0x3e,0x9c,0x39,0xdd,0xbd,0x32,0x21,0x2a,0xbd,0x45,0x36,0x3c,0xbe,0xaf,0x99,0x04,0xbd,0x0d,0x6a,0x96,0x3d,0xed,0x16,0x22,0xbe,0xcd,0x1e,0x5c,0x3d,0xd4,0x79,0xc7,0xbb,0x1a,0x17,0x54,0xbe,0xaf,0x77,0xdf,0x3d,0x63,0x94,0x0a,0xbe,0xa7,0x49,0x54,0xbd,0x0c,0xd4,0x44,0xbe,0xae,0xe9,0xa3,0x3c,0x0a,0x5a,0x44,0x3e,0x8b,0xbd,0xe0,0x3d,0xea,0xe8,0x1f,0x3e,0xd1,0xad,0xe9,0x3d,0x56,0xf2,0x0c,0xbe,0x85,0xbc,0xa4,0x3c,0xb4,0xab,0x20,0xbe,0x17,0xc8,0xa1,0xbd,0xb7,0x1b,0xa8,0xbc,0x16,0x79,0xa8,0xbd,0xda,0x22,0xc5,0x3d,0xda,0xc0,0xf6,0x3d,0x0e,0x84,0x59,0x3d,0x0f,0x2c,0x06,0x3e,0x2f,0xb8,0x1f,0x3e,0x6a,0xec,0x0a,0x3d,0x7f,0xd5,0x9c,0xbd,0x8e,0x83,0xed,0x3d,0xd0,0xed,0xca,0x3d,0xd1,0xda,0x18,0x3e,0x6f,0xdd,0x06,0xbe,0x17,0xc5,0xb4,0x3d,0x7c,0x5e,0x27,0xbd,0x04,0x65,0x1b,0x3e,0xe9,0x0f,0x4f,0xbe,0x43,0x09,0x14,0x3e,0x85,0xaa,0x5c,0xbe,0xab,0x4e,0xf4,0xbd,0x00,0x93,0x00,0x3e,0xf5,0x43,0x24,0x3d,0xe8,0x73,0x9e,0xb9,0xf7,0x92,0xea,0xbd,0x26,0x69,0x1b,0xbe,0x04,0xc7,0x03,0x3e,0x49,0x0b,0xa7,0xbc,0xe6,0x9a,0x57,0xbe,0xdf,0x1b,0x01,0x3d,0x3f,0xce,0x3f,0x3e,0xad,0x7f,0xad,0x3d,0x4f,0xb7,0xa9,0xbc,0xa7,0xcb,0x85,0xbd,0x0f,0x4b,0x09,0x3d,0xd6,0xbd,0x3a,0xbd,0x72,0x60,0xde,0x3d,0xac,0x44,0xa1,0x3d,0x60,0xef,0x47,0xbe,0x02,0x56,0x54,0xbe,0x73,0xa6,0x4a,0xbe,0xfb,0x0b,0x20,0xbe,0xd6,0x88,0x92,0x3d,0x10,0x75,0x0b,0x3d,0x70,0xda,0x76,0x3d,0x75,0x2d,0x2e,0xbe,0xfc,0x36,0x28,0xbe,0xcd,0xf3,0x45,0xbe,0xd6,0x05,0xf8,0x3d,0x06,0xb8,0x48,0x3d,0x39,0xf8,0x0a,0xbe,0x2e,0xb9,0x02,0x3e,0x99,0xf0,0xa2,0x3d,0xe7,0x57,0x27,0xbe,0x6c,0x48,0x97,0xbc,0x47,0x16,0x31,0x3e,0xd2,0xcc,0xbf,0x3b,0xa3,0x23,0x98,0xbc,0xbd,0x5a,0x0e,0xbe,0xec,0x3a,0x9a,0x3d,0x6d,0xa0,0xd3,0x3c,0xb0,0xe9,0x14,0x3e,0x30,0x1e,0xf2,0xb8,0x31,0x5c,0xaf,0x3c,0x61,0x83,0x35,0xbe,0x6f,0xfe,0x40,0x3e,0x26,0xcf,0x44,0xbe,0xf5,0x1d,0xd3,0xbb,0x89,0x05,0xf2,0x3d,0x74,0x5b,0x52,0x3d,0xab,0x28,0x0e,0xbe,0xd3,0x07,0xca,0x3d,0x78,0xb8,0xca,0xbd,0xd6,0xf5,0x01,0xbe,0x1e,0xeb,0x07,0xbe,0x46,0xeb,0x4e,0xbe,0x46,0xef,0xa7,0xbd,0x29,0x8a,0xe3,0xbd,0xf6,0xff,0x69,0xbb,0x80,0x63,0x0d,0xbe,0xfd,0x67,0x4b,0x3d,0x6e,0x9e,0x02,0xbe,0xc5,0xd4,0x41,0xbe,0xd6,0xa9,0xaf,0xbd,0xe8,0x1e,0x46,0x3e,0xd3,0xf6,0x96,0xbb,0x0a,0xcb,0xff,0x3d,0xa8,0xe5,0x02,0xbe,0x4b,0x56,0x12,0x3e,0x60,0xc3,0xc1,0x3d,0x1a,0x70,0x4b,0xbe,0xa2,0x0a,0x46,0x3e,0x48,0xaf,0xd1,0x3d,0x84,0x6d,0x9b,0x3d,0x73,0x89,0x4f,0xbe,0x49,0x40,0x09,0x3e,0x6c,0xf7,0xf3,0x3c,0x86,0xf2,0x6c,0xbb,0x0f,0xcb,0x9e,0x3d,0xdb,0x0a,0x3c,0xbd,0x99,0xaa,0x0d,0x3e,0xb1,0x17,0x1b,0xbe,0xe1,0x18,0x7d,0x3d,0xc4,0x0e,0x04,0x3e,0xc6,0x88,0xbe,0xbd,0x0b,0xd0,0x07,0x3e,0x8f,0xb6,0x1f,0x3e,0x84,0x79,0xe3,0x37,0x25,0x6d,0x04,0x3e,0x7f,0xeb,0x38,0xbe,0xe4,0x68,0x95,0x3d,0x2b,0xe6,0x39,0x3e,0x2f,0x8f,0x80,0x3d,0x2c,0x9e,0x1d,0xbe,0x8a,0x1b,0xc2,0x3c,0xc5,0x6a,0xa3,0x3d,0xf2,0x1a,0x7b,0x3c,0x12,0x22,0x3e,0xbe,0x9e,0x2f,0x62,0x3d,0x68,0xb7,0xfe,0x3d,0x66,0xb2,0x1e,0xbe,0x1a,0x8d,0x6e,0xbd,0xb4,0x64,0x07,0xbe,0x7a,0xfd,0x2a,0xbe,0x55,0x2b,0x32,0xbe,0x68,0x40,0x4a,0xbe,0xf9,0xe2,0xa8,0x3d,0x9c,0xa6,0x3a,0x3e,0x7a,0x6f,0x2c,0x3b,0xcc,0x20,0x7c,0xbd,0x82,0x5e,0x9d,0xbd,0xa1,0xdf,0xb4,0xbd,0x93,0x3c,0x4e,0x3a,0x19,0xfa,0xd9,0xbd,0xbd,0x1a,0xd4,0xbd,0x6f,0xdc,0x0f,0x3e,0x26,0xd3,0x9c,0xbc,0x37,0xb7,0x08,0x3e,0x06,0x64,0xd3,0x3d,0x4b,0x1b,0x30,0xbe,0x92,0x16,0xee,0x3d,0xd7,0xfb,0x07,0xbe,0xc5,0x4a,0x3d,0xbd,0x4f,0x50,0xeb,0x3d,0xc8,0x66,0xc1,0xbd,0xe2,0x4f,0x31,0x3e,0x72,0xbc,0x1c,0x3e,0x6a,0xdf,0x51,0x3e,0x82,0x9d,0x5e,0x3d,0x71,0x7b,0xee,0xbd,0x52,0x54,0x68,0x3d,0xf0,0xd2,0x1e,0xbe,0x07,0xf3,0x6c,0xbd,0x88,0x2e,0xc6,0xbd,0x88,0x1a,0x6d,0x3d,0xfd,0x06,0x37,0xbe,0x07,0xce,0x9c,0x3a,0xbc,0x6b,0x88,0xbd,0x76,0xa8,0x49,0x3e,0xe7,0x5f,0x0e,0xbd,0x2e,0x1d,0x40,0xbe,0x65,0x68,0xf1,0x3d,0x99,0x69,0xbb,0x3d,0x31,0x2d,0x25,0x3e,0x2b,0x55,0xf5,0x3d,0x2c,0xcc,0x79,0x3d,0x19,0x7f,0x3a,0x3e,0x97,0x76,0x62,0xbd,0x15,0xb5,0x39,0x3e,0x4d,0x78,0xbe,0xbd,0xe4,0xb4,0xc8,0xbb,0xbc,0x15,0x0a,0xbe,0x75,0x83,0x39,0x3d,0x44,0x3f,0x27,0x3e,0x27,0x85,0x29,0x3d,0x0c,0x8b,0x09,0xbe,0x30,0xbc,0x56,0xbd,0x26,0xb8,0x03,0x3e,0x2c,0xbd,0x27,0x3e,0x89,0x56,0x38,0xbe,0x2d,0x75,0x84,0xbd,0xd9,0x06,0x55,0x3e,0x1a,0x28,0xe0,0x3d,0x64,0x7d,0x83,0xbd,0xfd,0x59,0x61,0xbd,0xdd,0x36,0x0f,0x3e,0x64,0xa2,0x9b,0xbc,0x54,0xeb,0x27,0xbe,0x0c,0x57,0x9a,0x3c,0xbb,0xa3,0xcd,0xbd,0x0d,0x86,0x98,0xbd,0xcc,0x7d,0xa6,0x3c,0x39,0xef,0xe7,0xbc,0xab,0x80,0x02,0xbe,0x9a,0xe3,0xa2,0x3d,0x5b,0x04,0x36,0x3e,0xe2,0xc6,0xd9,0x3d,0x6d,0xbc,0xef,0xbc,0x16,0xf0,0x49,0x3c,0xa8,0xa3,0x8a,0x3d,0xe8,0x85,0x1c,0x3e,0x6e,0xd5,0x36,0xbe,0xc6,0xa4,0xe5,0xbd,0xeb,0x0c,0xbc,0xbd,0xc9,0x3b,0xcf,0xbd,0x3e,0xa9,0x0b,0xbe,0x95,0xd7,0x17,0x3e,0xf6,0x64,0xb7,0x3d,0x75,0x12,0x24,0x3e,0xd1,0x4b,0x04,0x3c,0xbf,0x02,0x9a,0x3d,0xc8,0x65,0x30,0x3b,0xdb,0x6b,0x6e,0xbd,0x89,0x2f,0x5b,0xbd,0x37,0xb0,0xda,0xbd,0xf8,0x48,0xc6,0xbd,0x18,0x22,0xf1,0xbd,0x81,0xa9,0xd5,0x3d,0xb2,0xec,0x0c,0xbe,0x4a,0x29,0x70,0x3d,0x3c,0x4a,0xf7,0xbc,0x22,0x11,0xea,0xbd,0x88,0x0a,0x2d,0xbe,0x7f,0xe5,0xda,0x3d,0x60,0x77,0xee,0xbd,0x3a,0x58,0xf2,0xbd,0x7a,0x18,0x17,0x3e,0x9c,0x1f,0x3c,0xbe,0x1d,0x61,0xee,0x3d,0xe4,0xd5,0x24,0xbd,0x52,0xff,0x33,0xbc,0x96,0xc4,0x22,0x3e,0x6b,0xd5,0x45,0xbe,0xea,0xef,0x0b,0x3e,0x68,0x19,0x11,0xbb,0x9e,0xba,0x11,0x3e,0xcb,0xe1,0xae,0xbc,0x55,0x48,0x31,0x3e,0x43,0xb6,0x38,0xbe,0x77,0x0e,0xb5,0xbd,0x4a,0x18,0xa4,0x3d,0x41,0xfc,0x0c,0x3e,0x2a,0xed,0xcd,0xbc,0x2e,0x7d,0x2f,0x3e,0xd8,0xfe,0xdc,0x3d,0x82,0x1d,0x8f,0xbd,0xef,0x70,0xb2,0x3b,0x61,0xf6,0xae,0xbb,0x5d,0x16,0x82,0x3d,0x63,0x0d,0x5d,0xbe,0x82,0x9c,0xb2,0xbd,0x12,0x99,0x2f,0x3e,0xa0,0x61,0x9a,0x3d,0x6a,0xff,0xff,0xff,0x04,0x00,0x00,0x00,0x0c,0x00,0x00,0x00,0xff,0xff,0xff,0xff,0x3e,0x00,0x00,0x00,0x10,0x00,0x00,0x00,0x82,0xff,0xff,0xff,0x04,0x00,0x00,0x00,0x0c,0x00,0x00,0x00,0xff,0xff,0xff,0xff,0x1f,0x00,0x00,0x00,0x10,0x00,0x00,0x00,0x9a,0xff,0xff,0xff,0x04,0x00,0x00,0x00,0x0c,0x00,0x00,0x00,0xff,0xff,0xff,0xff,0x1d,0x00,0x00,0x00,0x20,0x00,0x00,0x00,0xb2,0xff,0xff,0xff,0x04,0x00,0x00,0x00,0x40,0x00,0x00,0x00,0x38,0x77,0x50,0x3c,0x5f,0xa6,0x41,0x3c,0xac,0x56,0x02,0x3c,0x31,0x41,0xa3,0xba,0x4a,0x3b,0xe6,0x3b,0x99,0x93,0xf9,0xbb,0x98,0xe6,0x2c,0x3c,0x0d,0x15,0x09,0xbb,0xd6,0x72,0x44,0x3c,0x4d,0xf9,0x2f,0xbc,0xbc,0x49,0x12,0xbc,0xbe,0xfa,0x30,0x3c,0x7b,0xba,0x34,0xbc,0x4d,0xed,0x4e,0xbc,0xab,0x30,0x42,0xbc,0x20,0xaf,0x39,0x39,0x00,0x00,0x06,0x00,0x08,0x00,0x04,0x00,0x06,0x00,0x00,0x00,0x04,0x00,0x00,0x00,0x80,0x00,0x00,0x00,0xff,0xf7,0x3e,0xbb,0x81,0xa5,0x0b,0xbc,0xac,0x3d,0x3a,0x3c,0x74,0x9c,0xd6,0xba,0x03,0x9f,0x53,0xbc,0x9d,0xd7,0xd3,0xbb,0x7b,0x60,0x09,0xba,0xd8,0x05,0x21,0xbc,0xad,0xe4,0x5e,0x3b,0x0d,0xed,0x59,0xbc,0x44,0x17,0xf0,0x3b,0xd4,0x99,0x37,0xbc,0xd6,0x7a,0x3e,0xbb,0x26,0xbe,0x1b,0x3c,0xd9,0x83,0x5d,0x3c,0xe3,0x12,0x5a,0xbc,0x37,0x71,0x1b,0xbc,0x0c,0xce,0xf7,0x39,0x94,0x17,0x5e,0x3c,0x9a,0x8d,0x46,0xbc,0x71,0x3c,0xd2,0x39,0x5d,0xea,0x47,0xbc,0x9c,0x06,0x4f,0xbc,0x1d,0x58,0x0d,0x3c,0xb6,0x88,0x68,0xbc,0xd5,0x0c,0x56,0x3c,0x41,0xaf,0x27,0xbc,0x55,0x95,0x42,0xbc,0x45,0xe1,0x0e,0xbc,0x9a,0x26,0x16,0x3c,0x47,0xf0,0x38,0x3c,0x7c,0x2f,0x69,0xbc,0x70,0xf3,0xff,0xff,0x74,0xf3,0xff,0xff,0x0f,0x00,0x00,0x00,0x4d,0x4c,0x49,0x52,0x20,0x43,0x6f,0x6e,0x76,0x65,0x72,0x74,0x65,0x64,0x2e,0x00,0x01,0x00,0x00,0x00,0x14,0x00,0x00,0x00,0x00,0x00,0x0e,0x00,0x18,0x00,0x14,0x00,0x10,0x00,0x0c,0x00,0x08,0x00,0x04,0x00,0x0e,0x00,0x00,0x00,0x14,0x00,0x00,0x00,0x1c,0x00,0x00,0x00,0xac,0x02,0x00,0x00,0xb0,0x02,0x00,0x00,0xb4,0x02,0x00,0x00,0x04,0x00,0x00,0x00,0x6d,0x61,0x69,0x6e,0x00,0x00,0x00,0x00,0x0b,0x00,0x00,0x00,0x64,0x02,0x00,0x00,0x00,0x02,0x00,0x00,0xc8,0x01,0x00,0x00,0x8c,0x01,0x00,0x00,0x38,0x01,0x00,0x00,0x10,0x01,0x00,0x00,0xe0,0x00,0x00,0x00,0x98,0x00,0x00,0x00,0x70,0x00,0x00,0x00,0x3c,0x00,0x00,0x00,0x04,0x00,0x00,0x00,0x36,0xfe,0xff,0xff,0x14,0x00,0x00,0x00,0x00,0x00,0x00,0x08,0x10,0x00,0x00,0x00,0x14,0x00,0x00,0x00,0x05,0x00,0x00,0x00,0x10,0xf4,0xff,0xff,0x01,0x00,0x00,0x00,0x16,0x00,0x00,0x00,0x03,0x00,0x00,0x00,0x15,0x00,0x00,0x00,0x08,0x00,0x00,0x00,0x09,0x00,0x00,0x00,0x6a,0xfe,0xff,0xff,0x14,0x00,0x00,0x00,0x00,0x00,0x00,0x1b,0x10,0x00,0x00,0x00,0x14,0x00,0x00,0x00,0x04,0x00,0x00,0x00,0x44,0xf4,0xff,0xff,0x01,0x00,0x00,0x00,0x15,0x00,0x00,0x00,0x02,0x00,0x00,0x00,0x14,0x00,0x00,0x00,0x0a,0x00,0x00,0x00,0xca,0xfe,0xff,0xff,0x0c,0x00,0x00,0x00,0x10,0x00,0x00,0x00,0x02,0x00,0x00,0x00,0x01,0x00,0x00,0x00,0x14,0x00,0x00,0x00,0x02,0x00,0x00,0x00,0x13,0x00,0x00,0x00,0x03,0x00,0x00,0x00,0xbe,0xfe,0xff,0xff,0x14,0x00,0x00,0x00,0x00,0x00,0x00,0x01,0x20,0x00,0x00,0x00,0x24,0x00,0x00,0x00,0x01,0x00,0x00,0x00,0xb0,0xfe,0xff,0xff,0x00,0x00,0x00,0x01,0x01,0x00,0x00,0x00,0x01,0x00,0x00,0x00,0x00,0x00,0x00,0x01,0x01,0x00,0x00,0x00,0x13,0x00,0x00,0x00,0x03,0x00,0x00,0x00,0x12,0x00,0x00,0x00,0x06,0x00,0x00,0x00,0x01,0x00,0x00,0x00,0xa2,0xfe,0xff,0xff,0x10,0x00,0x00,0x00,0x00,0x00,0x00,0x34,0x0c,0x00,0x00,0x00,0x10,0x00,0x00,0x00,0xd8,0xf4,0xff,0xff,0x01,0x00,0x00,0x00,0x12,0x00,0x00,0x00,0x02,0x00,0x00,0x00,0x11,0x00,0x00,0x00,0x0b,0x00,0x00,0x00,0x5e,0xff,0xff,0xff,0x0c,0x00,0x00,0x00,0x10,0x00,0x00,0x00,0x02,0x00,0x00,0x00,0x01,0x00,0x00,0x00,0x11,0x00,0x00,0x00,0x02,0x00,0x00,0x00,0x10,0x00,0x00,0x00,0x04,0x00,0x00,0x00,0x52,0xff,0xff,0xff,0x24,0x00,0x00,0x00,0x00,0x00,0x00,0x05,0x34,0x00,0x00,0x00,0x38,0x00,0x00,0x00,0x03,0x00,0x00,0x00,0x00,0x00,0x0e,0x00,0x18,0x00,0x17,0x00,0x10,0x00,0x0c,0x00,0x08,0x00,0x04,0x00,0x0e,0x00,0x00,0x00,0x01,0x00,0x00,0x00,0x02,0x00,0x00,0x00,0x01,0x00,0x00,0x00,0x02,0x00,0x00,0x00,0x00,0x00,0x00,0x01,0x01,0x00,0x00,0x00,0x10,0x00,0x00,0x00,0x01,0x00,0x00,0x00,0x0f,0x00,0x00,0x00,0x42,0xff,0xff,0xff,0x10,0x00,0x00,0x00,0x00,0x00,0x00,0x34,0x0c,0x00,0x00,0x00,0x10,0x00,0x00,0x00,0x78,0xf5,0xff,0xff,0x01,0x00,0x00,0x00,0x0f,0x00,0x00,0x00,0x02,0x00,0x00,0x00,0x0e,0x00,0x00,0x00,0x0a,0x00,0x00,0x00,0x00,0x00,0x0a,0x00,0x10,0x00,0x0c,0x00,0x08,0x00,0x04,0x00,0x0a,0x00,0x00,0x00,0x0c,0x00,0x00,0x00,0x10,0x00,0x00,0x00,0x02,0x00,0x00,0x00,0x01,0x00,0x00,0x00,0x0e,0x00,0x00,0x00,0x02,0x00,0x00,0x00,0x0d,0x00,0x00,0x00,0x05,0x00,0x00,0x00,0x00,0x00,0x0e,0x00,0x18,0x00,0x14,0x00,0x10,0x00,0x0c,0x00,0x0b,0x00,0x04,0x00,0x0e,0x00,0x00,0x00,0x20,0x00,0x00,0x00,0x00,0x00,0x00,0x01,0x2c,0x00,0x00,0x00,0x30,0x00,0x00,0x00,0x01,0x00,0x00,0x00,0x0c,0x00,0x14,0x00,0x13,0x00,0x0c,0x00,0x08,0x00,0x07,0x00,0x0c,0x00,0x00,0x00,0x00,0x00,0x00,0x01,0x01,0x00,0x00,0x00,0x01,0x00,0x00,0x00,0x00,0x00,0x00,0x01,0x01,0x00,0x00,0x00,0x0d,0x00,0x00,0x00,0x03,0x00,0x00,0x00,0x0c,0x00,0x00,0x00,0x07,0x00,0x00,0x00,0x02,0x00,0x00,0x00,0x00,0x00,0x0e,0x00,0x14,0x00,0x00,0x00,0x10,0x00,0x0c,0x00,0x0b,0x00,0x04,0x00,0x0e,0x00,0x00,0x00,0x10,0x00,0x00,0x00,0x00,0x00,0x00,0x34,0x0c,0x00,0x00,0x00,0x10,0x00,0x00,0x00,0x44,0xf6,0xff,0xff,0x01,0x00,0x00,0x00,0x0c,0x00,0x00,0x00,0x02,0x00,0x00,0x00,0x00,0x00,0x00,0x00,0x0b,0x00,0x00,0x00,0x01,0x00,0x00,0x00,0x16,0x00,0x00,0x00,0x01,0x00,0x00,0x00,0x00,0x00,0x00,0x00,0x17,0x00,0x00,0x00,0x64,0x09,0x00,0x00,0x10,0x09,0x00,0x00,0xbc,0x08,0x00,0x00,0x7c,0x08,0x00,0x00,0x24,0x08,0x00,0x00,0xe4,0x07,0x00,0x00,0x9c,0x07,0x00,0x00,0x54,0x07,0x00,0x00,0x14,0x07,0x00,0x00,0xd8,0x06,0x00,0x00,0x9c,0x06,0x00,0x00,0x5c,0x06,0x00,0x00,0xdc,0x05,0x00,0x00,0x04,0x05,0x00,0x00,0x58,0x04,0x00,0x00,0xd4,0x03,0x00,0x00,0x5c,0x03,0x00,0x00,0xe4,0x02,0x00,0x00,0x64,0x02,0x00,0x00,0x84,0x01,0x00,0x00,0xd0,0x00,0x00,0x00,0x60,0x00,0x00,0x00,0x04,0x00,0x00,0x00,0x0e,0xf7,0xff,0xff,0x00,0x00,0x00,0x01,0x14,0x00,0x00,0x00,0x1c,0x00,0x00,0x00,0x1c,0x00,0x00,0x00,0x17,0x00,0x00,0x00,0x34,0x00,0x00,0x00,0x02,0x00,0x00,0x00,0xff,0xff,0xff,0xff,0x0f,0x00,0x00,0x00,0xf4,0xf6,0xff,0xff,0x1b,0x00,0x00,0x00,0x53,0x74,0x61,0x74,0x65,0x66,0x75,0x6c,0x50,0x61,0x72,0x74,0x69,0x74,0x69,0x6f,0x6e,0x65,0x64,0x43,0x61,0x6c,0x6c,0x5f,0x31,0x3a,0x30,0x00,0x02,0x00,0x00,0x00,0x01,0x00,0x00,0x00,0x0f,0x00,0x00,0x00,0x66,0xf7,0xff,0xff,0x00,0x00,0x00,0x01,0x14,0x00,0x00,0x00,0x1c,0x00,0x00,0x00,0x1c,0x00,0x00,0x00,0x16,0x00,0x00,0x00,0x48,0x00,0x00,0x00,0x02,0x00,0x00,0x00,0xff,0xff,0xff,0xff,0x20,0x00,0x00,0x00,0x4c,0xf7,0xff,0xff,0x2c,0x00,0x00,0x00,0x73,0x65,0x71,0x75,0x65,0x6e,0x74,0x69,0x61,0x6c,0x5f,0x31,0x2f,0x67,0x6c,0x6f,0x62,0x61,0x6c,0x5f,0x61,0x76,0x65,0x72,0x61,0x67,0x65,0x5f,0x70,0x6f,0x6f,0x6c,0x69,0x6e,0x67,0x31,0x64,0x5f,0x31,0x2f,0x4d,0x65,0x61,0x6e,0x00,0x00,0x00,0x00,0x02,0x00,0x00,0x00,0x01,0x00,0x00,0x00,0x20,0x00,0x00,0x00,0xd2,0xf7,0xff,0xff,0x00,0x00,0x00,0x01,0x14,0x00,0x00,0x00,0x20,0x00,0x00,0x00,0x20,0x00,0x00,0x00,0x15,0x00,0x00,0x00,0x88,0x00,0x00,0x00,0x03,0x00,0x00,0x00,0xff,0xff,0xff,0xff,0x1d,0x00,0x00,0x00,0x20,0x00,0x00,0x00,0xbc,0xf7,0xff,0xff,0x69,0x00,0x00,0x00,0x73,0x65,0x71,0x75,0x65,0x6e,0x74,0x69,0x61,0x6c,0x5f,0x31,0x2f,0x63,0x6f,0x6e,0x76,0x31,0x64,0x5f,0x31,0x5f,0x32,0x2f,0x52,0x65,0x6c,0x75,0x3b,0x73,0x65,0x71,0x75,0x65,0x6e,0x74,0x69,0x61,0x6c,0x5f,0x31,0x2f,0x63,0x6f,0x6e,0x76,0x31,0x64,0x5f,0x31,0x5f,0x32,0x2f,0x42,0x69,0x61,0x73,0x41,0x64,0x64,0x3b,0x73,0x65,0x71,0x75,0x65,0x6e,0x74,0x69,0x61,0x6c,0x5f,0x31,0x2f,0x63,0x6f,0x6e,0x76,0x31,0x64,0x5f,0x31,0x5f,0x32,0x2f,0x63,0x6f,0x6e,0x76,0x6f,0x6c,0x75,0x74,0x69,0x6f,0x6e,0x2f,0x53,0x71,0x75,0x65,0x65,0x7a,0x65,0x3b,0x00,0x00,0x00,0x03,0x00,0x00,0x00,0x01,0x00,0x00,0x00,0x1d,0x00,0x00,0x00,0x20,0x00,0x00,0x00,0x82,0xf8,0xff,0xff,0x00,0x00,0x00,0x01,0x14,0x00,0x00,0x00,0x24,0x00,0x00,0x00,0x24,0x00,0x00,0x00,0x14,0x00,0x00,0x00,0xb0,0x00,0x00,0x00,0x04,0x00,0x00,0x00,0xff,0xff,0xff,0xff,0x01,0x00,0x00,0x00,0x1d,0x00,0x00,0x00,0x20,0x00,0x00,0x00,0x70,0xf8,0xff,0xff,0x8d,0x00,0x00,0x00,0x73,0x65,0x71,0x75,0x65,0x6e,0x74,0x69,0x61,0x6c,0x5f,0x31,0x2f,0x63,0x6f,0x6e,0x76,0x31,0x64,0x5f,0x31,0x5f,0x32,0x2f,0x52,0x65,0x6c,0x75,0x3b,0x73,0x65,0x71,0x75,0x65,0x6e,0x74,0x69,0x61,0x6c,0x5f,0x31,0x2f,0x63,0x6f,0x6e,0x76,0x31,0x64,0x5f,0x31,0x5f,0x32,0x2f,0x42,0x69,0x61,0x73,0x41,0x64,0x64,0x3b,0x73,0x65,0x71,0x75,0x65,0x6e,0x74,0x69,0x61,0x6c,0x5f,0x31,0x2f,0x63,0x6f,0x6e,0x76,0x31,0x64,0x5f,0x31,0x5f,0x32,0x2f,0x63,0x6f,0x6e,0x76,0x6f,0x6c,0x75,0x74,0x69,0x6f,0x6e,0x2f,0x53,0x71,0x75,0x65,0x65,0x7a,0x65,0x3b,0x3b,0x73,0x65,0x71,0x75,0x65,0x6e,0x74,0x69,0x61,0x6c,0x5f,0x31,0x2f,0x63,0x6f,0x6e,0x76,0x31,0x64,0x5f,0x31,0x5f,0x32,0x2f,0x63,0x6f,0x6e,0x76,0x6f,0x6c,0x75,0x74,0x69,0x6f,0x6e,0x00,0x00,0x00,0x04,0x00,0x00,0x00,0x01,0x00,0x00,0x00,0x01,0x00,0x00,0x00,0x1d,0x00,0x00,0x00,0x20,0x00,0x00,0x00,0x5e,0xf9,0xff,0xff,0x00,0x00,0x00,0x01,0x14,0x00,0x00,0x00,0x24,0x00,0x00,0x00,0x24,0x00,0x00,0x00,0x13,0x00,0x00,0x00,0x50,0x00,0x00,0x00,0x04,0x00,0x00,0x00,0xff,0xff,0xff,0xff,0x01,0x00,0x00,0x00,0x1f,0x00,0x00,0x00,0x10,0x00,0x00,0x00,0x4c,0xf9,0xff,0xff,0x2e,0x00,0x00,0x00,0x73,0x65,0x71,0x75,0x65,0x6e,0x74,0x69,0x61,0x6c,0x5f,0x31,0x2f,0x63,0x6f,0x6e,0x76,0x31,0x64,0x5f,0x31,0x5f,0x32,0x2f,0x63,0x6f,0x6e,0x76,0x6f,0x6c,0x75,0x74,0x69,0x6f,0x6e,0x2f,0x45,0x78,0x70,0x61,0x6e,0x64,0x44,0x69,0x6d,0x73,0x00,0x00,0x04,0x00,0x00,0x00,0x01,0x00,0x00,0x00,0x01,0x00,0x00,0x00,0x1f,0x00,0x00,0x00,0x10,0x00,0x00,0x00,0xda,0xf9,0xff,0xff,0x00,0x00,0x00,0x01,0x14,0x00,0x00,0x00,0x20,0x00,0x00,0x00,0x20,0x00,0x00,0x00,0x12,0x00,0x00,0x00,0x4c,0x00,0x00,0x00,0x03,0x00,0x00,0x00,0xff,0xff,0xff,0xff,0x1f,0x00,0x00,0x00,0x10,0x00,0x00,0x00,0xc4,0xf9,0xff,0xff,0x2e,0x00,0x00,0x00,0x73,0x65,0x71,0x75,0x65,0x6e,0x74,0x69,0x61,0x6c,0x5f,0x31,0x2f,0x6d,0x61,0x78,0x5f,0x70,0x6f,0x6f,0x6c,0x69,0x6e,0x67,0x31,0x64,0x5f,0x31,0x2f,0x4d,0x61,0x78,0x50,0x6f,0x6f,0x6c,0x31,0x64,0x2f,0x53,0x71,0x75,0x65,0x65,0x7a,0x65,0x00,0x00,0x03,0x00,0x00,0x00,0x01,0x00,0x00,0x00,0x1f,0x00,0x00,0x00,0x10,0x00,0x00,0x00,0x4e,0xfa,0xff,0xff,0x00,0x00,0x00,0x01,0x14,0x00,0x00,0x00,0x24,0x00,0x00,0x00,0x24,0x00,0x00,0x00,0x11,0x00,0x00,0x00,0x48,0x00,0x00,0x00,0x04,0x00,0x00,0x00,0xff,0xff,0xff,0xff,0x01,0x00,0x00,0x00,0x1f,0x00,0x00,0x00,0x10,0x00,0x00,0x00,0x3c,0xfa,0xff,0xff,0x26,0x00,0x00,0x00,0x73,0x65,0x71,0x75,0x65,0x6e,0x74,0x69,0x61,0x6c,0x5f,0x31,0x2f,0x6d,0x61,0x78,0x5f,0x70,0x6f,0x6f,0x6c,0x69,0x6e,0x67,0x31,0x64,0x5f,0x31,0x2f,0x4d,0x61,0x78,0x50,0x6f,0x6f,0x6c,0x31,0x64,0x00,0x00,0x04,0x00,0x00,0x00,0x01,0x00,0x00,0x00,0x01,0x00,0x00,0x00,0x1f,0x00,0x00,0x00,0x10,0x00,0x00,0x00,0xc2,0xfa,0xff,0xff,0x00,0x00,0x00,0x01,0x14,0x00,0x00,0x00,0x24,0x00,0x00,0x00,0x24,0x00,0x00,0x00,0x10,0x00,0x00,0x00,0x54,0x00,0x00,0x00,0x04,0x00,0x00,0x00,0xff,0xff,0xff,0xff,0x01,0x00,0x00,0x00,0x3e,0x00,0x00,0x00,0x10,0x00,0x00,0x00,0xb0,0xfa,0xff,0xff,0x31,0x00,0x00,0x00,0x73,0x65,0x71,0x75,0x65,0x6e,0x74,0x69,0x61,0x6c,0x5f,0x31,0x2f,0x6d,0x61,0x78,0x5f,0x70,0x6f,0x6f,0x6c,0x69,0x6e,0x67,0x31,0x64,0x5f,0x31,0x2f,0x4d,0x61,0x78,0x50,0x6f,0x6f,0x6c,0x31,0x64,0x2f,0x45,0x78,0x70,0x61,0x6e,0x64,0x44,0x69,0x6d,0x73,0x00,0x00,0x00,0x04,0x00,0x00,0x00,0x01,0x00,0x00,0x00,0x01,0x00,0x00,0x00,0x3e,0x00,0x00,0x00,0x10,0x00,0x00,0x00,0x42,0xfb,0xff,0xff,0x00,0x00,0x00,0x01,0x14,0x00,0x00,0x00,0x20,0x00,0x00,0x00,0x20,0x00,0x00,0x00,0x0f,0x00,0x00,0x00,0x80,0x00,0x00,0x00,0x03,0x00,0x00,0x00,0xff,0xff,0xff,0xff,0x3e,0x00,0x00,0x00,0x10,0x00,0x00,0x00,0x2c,0xfb,0xff,0xff,0x63,0x00,0x00,0x00,0x73,0x65,0x71,0x75,0x65,0x6e,0x74,0x69,0x61,0x6c,0x5f,0x31,0x2f,0x63,0x6f,0x6e,0x76,0x31,0x64,0x5f,0x31,0x2f,0x52,0x65,0x6c,0x75,0x3b,0x73,0x65,0x71,0x75,0x65,0x6e,0x74,0x69,0x61,0x6c,0x5f,0x31,0x2f,0x63,0x6f,0x6e,0x76,0x31,0x64,0x5f,0x31,0x2f,0x42,0x69,0x61,0x73,0x41,0x64,0x64,0x3b,0x73,0x65,0x71,0x75,0x65,0x6e,0x74,0x69,0x61,0x6c,0x5f,0x31,0x2f,0x63,0x6f,0x6e,0x76,0x31,0x64,0x5f,0x31,0x2f,0x63,0x6f,0x6e,0x76,0x6f,0x6c,0x75,0x74,0x69,0x6f,0x6e,0x2f,0x53,0x71,0x75,0x65,0x65,0x7a,0x65,0x3b,0x00,0x03,0x00,0x00,0x00,0x01,0x00,0x00,0x00,0x3e,0x00,0x00,0x00,0x10,0x00,0x00,0x00,0xea,0xfb,0xff,0xff,0x00,0x00,0x00,0x01,0x14,0x00,0x00,0x00,0x24,0x00,0x00,0x00,0x24,0x00,0x00,0x00,0x0e,0x00,0x00,0x00,0xa8,0x00,0x00,0x00,0x04,0x00,0x00,0x00,0xff,0xff,0xff,0xff,0x01,0x00,0x00,0x00,0x3e,0x00,0x00,0x00,0x10,0x00,0x00,0x00,0xd8,0xfb,0xff,0xff,0x85,0x00,0x00,0x00,0x73,0x65,0x71,0x75,0x65,0x6e,0x74,0x69,0x61,0x6c,0x5f,0x31,0x2f,0x63,0x6f,0x6e,0x76,0x31,0x64,0x5f,0x31,0x2f,0x52,0x65,0x6c,0x75,0x3b,0x73,0x65,0x71,0x75,0x65,0x6e,0x74,0x69,0x61,0x6c,0x5f,0x31,0x2f,0x63,0x6f,0x6e,0x76,0x31,0x64,0x5f,0x31,0x2f,0x42,0x69,0x61,0x73,0x41,0x64,0x64,0x3b,0x73,0x65,0x71,0x75,0x65,0x6e,0x74,0x69,0x61,0x6c,0x5f,0x31,0x2f,0x63,0x6f,0x6e,0x76,0x31,0x64,0x5f,0x31,0x2f,0x63,0x6f,0x6e,0x76,0x6f,0x6c,0x75,0x74,0x69,0x6f,0x6e,0x2f,0x53,0x71,0x75,0x65,0x65,0x7a,0x65,0x3b,0x3b,0x73,0x65,0x71,0x75,0x65,0x6e,0x74,0x69,0x61,0x6c,0x5f,0x31,0x2f,0x63,0x6f,0x6e,0x76,0x31,0x64,0x5f,0x31,0x2f,0x63,0x6f,0x6e,0x76,0x6f,0x6c,0x75,0x74,0x69,0x6f,0x6e,0x00,0x00,0x00,0x04,0x00,0x00,0x00,0x01,0x00,0x00,0x00,0x01,0x00,0x00,0x00,0x3e,0x00,0x00,0x00,0x10,0x00,0x00,0x00,0xbe,0xfc,0xff,0xff,0x00,0x00,0x00,0x01,0x14,0x00,0x00,0x00,0x24,0x00,0x00,0x00,0x24,0x00,0x00,0x00,0x0d,0x00,0x00,0x00,0x50,0x00,0x00,0x00,0x04,0x00,0x00,0x00,0xff,0xff,0xff,0xff,0x01,0x00,0x00,0x00,0x40,0x00,0x00,0x00,0x06,0x00,0x00,0x00,0xac,0xfc,0xff,0xff,0x2c,0x00,0x00,0x00,0x73,0x65,0x71,0x75,0x65,0x6e,0x74,0x69,0x61,0x6c,0x5f,0x31,0x2f,0x63,0x6f,0x6e,0x76,0x31,0x64,0x5f,0x31,0x2f,0x63,0x6f,0x6e,0x76,0x6f,0x6c,0x75,0x74,0x69,0x6f,0x6e,0x2f,0x45,0x78,0x70,0x61,0x6e,0x64,0x44,0x69,0x6d,0x73,0x00,0x00,0x00,0x00,0x04,0x00,0x00,0x00,0x01,0x00,0x00,0x00,0x01,0x00,0x00,0x00,0x40,0x00,0x00,0x00,0x06,0x00,0x00,0x00,0x16,0xfe,0xff,0xff,0x00,0x00,0x00,0x01,0x14,0x00,0x00,0x00,0x14,0x00,0x00,0x00,0x0c,0x00,0x00,0x00,0x00,0x00,0x00,0x02,0x20,0x00,0x00,0x00,0x14,0xfd,0xff,0xff,0x10,0x00,0x00,0x00,0x61,0x72,0x69,0x74,0x68,0x2e,0x63,0x6f,0x6e,0x73,0x74,0x61,0x6e,0x74,0x31,0x30,0x00,0x00,0x00,0x00,0x00,0x00,0x00,0x00,0x52,0xfe,0xff,0xff,0x00,0x00,0x00,0x01,0x14,0x00,0x00,0x00,0x14,0x00,0x00,0x00,0x0b,0x00,0x00,0x00,0x00,0x00,0x00,0x02,0x1c,0x00,0x00,0x00,0x50,0xfd,0xff,0xff,0x0f,0x00,0x00,0x00,0x61,0x72,0x69,0x74,0x68,0x2e,0x63,0x6f,0x6e,0x73,0x74,0x61,0x6e,0x74,0x39,0x00,0x00,0x00,0x00,0x00,0xfe,0xfd,0xff,0xff,0x00,0x00,0x00,0x01,0x10,0x00,0x00,0x00,0x10,0x00,0x00,0x00,0x0a,0x00,0x00,0x00,0x1c,0x00,0x00,0x00,0x84,0xfd,0xff,0xff,0x0f,0x00,0x00,0x00,0x61,0x72,0x69,0x74,0x68,0x2e,0x63,0x6f,0x6e,0x73,0x74,0x61,0x6e,0x74,0x38,0x00,0x01,0x00,0x00,0x00,0x0f,0x00,0x00,0x00,0x36,0xfe,0xff,0xff,0x00,0x00,0x00,0x01,0x10,0x00,0x00,0x00,0x10,0x00,0x00,0x00,0x09,0x00,0x00,0x00,0x1c,0x00,0x00,0x00,0xbc,0xfd,0xff,0xff,0x0f,0x00,0x00,0x00,0x61,0x72,0x69,0x74,0x68,0x2e,0x63,0x6f,0x6e,0x73,0x74,0x61,0x6e,0x74,0x37,0x00,0x02,0x00,0x00,0x00,0x0f,0x00,0x00,0x00,0x20,0x00,0x00,0x00,0x72,0xfe,0xff,0xff,0x00,0x00,0x00,0x01,0x10,0x00,0x00,0x00,0x10,0x00,0x00,0x00,0x08,0x00,0x00,0x00,0x1c,0x00,0x00,0x00,0xf8,0xfd,0xff,0xff,0x0f,0x00,0x00,0x00,0x61,0x72,0x69,0x74,0x68,0x2e,0x63,0x6f,0x6e,0x73,0x74,0x61,0x6e,0x74,0x36,0x00,0x04,0x00,0x00,0x00,0x10,0x00,0x00,0x00,0x01,0x00,0x00,0x00,0x03,0x00,0x00,0x00,0x06,0x00,0x00,0x00,0xb6,0xfe,0xff,0xff,0x00,0x00,0x00,0x01,0x10,0x00,0x00,0x00,0x10,0x00,0x00,0x00,0x07,0x00,0x00,0x00,0x1c,0x00,0x00,0x00,0x3c,0xfe,0xff,0xff,0x0f,0x00,0x00,0x00,0x61,0x72,0x69,0x74,0x68,0x2e,0x63,0x6f,0x6e,0x73,0x74,0x61,0x6e,0x74,0x35,0x00,0x04,0x00,0x00,0x00,0x20,0x00,0x00,0x00,0x01,0x00,0x00,0x00,0x03,0x00,0x00,0x00,0x10,0x00,0x00,0x00,0x86,0xff,0xff,0xff,0x00,0x00,0x00,0x01,0x14,0x00,0x00,0x00,0x14,0x00,0x00,0x00,0x06,0x00,0x00,0x00,0x00,0x00,0x00,0x02,0x1c,0x00,0x00,0x00,0x84,0xfe,0xff,0xff,0x0f,0x00,0x00,0x00,0x61,0x72,0x69,0x74,0x68,0x2e,0x63,0x6f,0x6e,0x73,0x74,0x61,0x6e,0x74,0x34,0x00,0x01,0x00,0x00,0x00,0x03,0x00,0x00,0x00,0xc2,0xff,0xff,0xff,0x00,0x00,0x00,0x01,0x14,0x00,0x00,0x00,0x14,0x00,0x00,0x00,0x05,0x00,0x00,0x00,0x00,0x00,0x00,0x02,0x1c,0x00,0x00,0x00,0xc0,0xfe,0xff,0xff,0x0f,0x00,0x00,0x00,0x61,0x72,0x69,0x74,0x68,0x2e,0x63,0x6f,0x6e,0x73,0x74,0x61,0x6e,0x74,0x33,0x00,0x01,0x00,0x00,0x00,0x03,0x00,0x00,0x00,0x00,0x00,0x16,0x00,0x1c,0x00,0x18,0x00,0x17,0x00,0x10,0x00,0x0c,0x00,0x08,0x00,0x00,0x00,0x00,0x00,0x00,0x00,0x07,0x00,0x16,0x00,0x00,0x00,0x00,0x00,0x00,0x01,0x14,0x00,0x00,0x00,0x14,0x00,0x00,0x00,0x04,0x00,0x00,0x00,0x00,0x00,0x00,0x02,0x1c,0x00,0x00,0x00,0x14,0xff,0xff,0xff,0x0f,0x00,0x00,0x00,0x61,0x72,0x69,0x74,0x68,0x2e,0x63,0x6f,0x6e,0x73,0x74,0x61,0x6e,0x74,0x32,0x00,0x01,0x00,0x00,0x00,0x03,0x00,0x00,0x00,0xc6,0xff,0xff,0xff,0x00,0x00,0x00,0x01,0x10,0x00,0x00,0x00,0x10,0x00,0x00,0x00,0x03,0x00,0x00,0x00,0x1c,0x00,0x00,0x00,0x4c,0xff,0xff,0xff,0x0f,0x00,0x00,0x00,0x61,0x72,0x69,0x74,0x68,0x2e,0x63,0x6f,0x6e,0x73,0x74,0x61,0x6e,0x74,0x31,0x00,0x01,0x00,0x00,0x00,0x10,0x00,0x00,0x00,0x00,0x00,0x16,0x00,0x18,0x00,0x14,0x00,0x00,0x00,0x10,0x00,0x0c,0x00,0x08,0x00,0x00,0x00,0x00,0x00,0x00,0x00,0x07,0x00,0x16,0x00,0x00,0x00,0x00,0x00,0x00,0x01,0x10,0x00,0x00,0x00,0x10,0x00,0x00,0x00,0x02,0x00,0x00,0x00,0x1c,0x00,0x00,0x00,0x9c,0xff,0xff,0xff,0x0e,0x00,0x00,0x00,0x61,0x72,0x69,0x74,0x68,0x2e,0x63,0x6f,0x6e,0x73,0x74,0x61,0x6e,0x74,0x00,0x00,0x01,0x00,0x00,0x00,0x20,0x00,0x00,0x00,0x00,0x00,0x16,0x00,0x1c,0x00,0x18,0x00,0x00,0x00,0x14,0x00,0x10,0x00,0x0c,0x00,0x00,0x00,0x00,0x00,0x08,0x00,0x07,0x00,0x16,0x00,0x00,0x00,0x00,0x00,0x00,0x01,0x14,0x00,0x00,0x00,0x24,0x00,0x00,0x00,0x24,0x00,0x00,0x00,0x01,0x00,0x00,0x00,0x40,0x00,0x00,0x00,0x03,0x00,0x00,0x00,0xff,0xff,0xff,0xff,0x40,0x00,0x00,0x00,0x06,0x00,0x00,0x00,0x04,0x00,0x04,0x00,0x04,0x00,0x00,0x00,0x1e,0x00,0x00,0x00,0x73,0x65,0x72,0x76,0x69,0x6e,0x67,0x5f,0x64,0x65,0x66,0x61,0x75,0x6c,0x74,0x5f,0x6b,0x65,0x72,0x61,0x73,0x5f,0x74,0x65,0x6e,0x73,0x6f,0x72,0x3a,0x30,0x00,0x00,0x03,0x00,0x00,0x00,0x01,0x00,0x00,0x00,0x40,0x00,0x00,0x00,0x06,0x00,0x00,0x00,0x06,0x00,0x00,0x00,0x60,0x00,0x00,0x00,0x44,0x00,0x00,0x00,0x34,0x00,0x00,0x00,0x24,0x00,0x00,0x00,0x14,0x00,0x00,0x00,0x04,0x00,0x00,0x00,0xc4,0xff,0xff,0xff,0x09,0x00,0x00,0x00,0x00,0x00,0x00,0x09,0xd0,0xff,0xff,0xff,0x28,0x00,0x00,0x00,0x00,0x00,0x00,0x28,0xdc,0xff,0xff,0xff,0x11,0x00,0x00,0x00,0x00,0x00,0x00,0x11,0xe8,0xff,0xff,0xff,0x16,0x00,0x00,0x00,0x00,0x00,0x00,0x16,0xf4,0xff,0xff,0xff,0x03,0x00,0x00,0x00,0x00,0x00,0x00,0x03,0x0c,0x00,0x0c,0x00,0x0b,0x00,0x00,0x00,0x00,0x00,0x04,0x00,0x0c,0x00,0x00,0x00,0x46,0x00,0x00,0x00,0x00,0x00,0x00,0x46};
#endif
