#ifndef _MODELDATA_H_
#define _MODELDATA_H_
const unsigned char model[] = {0x1c,0x00,0x00,0x00,0x54,0x46,0x4c,0x33,0x14,0x00,0x20,0x00,0x1c,0x00,0x18,0x00,0x14,0x00,0x10,0x00,0x0c,0x00,0x00,0x00,0x08,0x00,0x04,0x00,0x14,0x00,0x00,0x00,0x1c,0x00,0x00,0x00,0x8c,0x00,0x00,0x00,0xdc,0x00,0x00,0x00,0x10,0x25,0x00,0x00,0x20,0x25,0x00,0x00,0xcc,0x36,0x00,0x00,0x03,0x00,0x00,0x00,0x01,0x00,0x00,0x00,0x04,0x00,0x00,0x00,0x3a,0xd7,0xff,0xff,0x0c,0x00,0x00,0x00,0x1c,0x00,0x00,0x00,0x3c,0x00,0x00,0x00,0x0f,0x00,0x00,0x00,0x73,0x65,0x72,0x76,0x69,0x6e,0x67,0x5f,0x64,0x65,0x66,0x61,0x75,0x6c,0x74,0x00,0x01,0x00,0x00,0x00,0x04,0x00,0x00,0x00,0x30,0xd9,0xff,0xff,0x21,0x00,0x00,0x00,0x04,0x00,0x00,0x00,0x08,0x00,0x00,0x00,0x6f,0x75,0x74,0x70,0x75,0x74,0x5f,0x30,0x00,0x00,0x00,0x00,0x01,0x00,0x00,0x00,0x04,0x00,0x00,0x00,0x8a,0xd9,0xff,0xff,0x04,0x00,0x00,0x00,0x0c,0x00,0x00,0x00,0x6b,0x65,0x72,0x61,0x73,0x5f,0x74,0x65,0x6e,0x73,0x6f,0x72,0x00,0x00,0x00,0x00,0x02,0x00,0x00,0x00,0x2c,0x00,0x00,0x00,0x04,0x00,0x00,0x00,0x7c,0xd9,0xff,0xff,0x24,0x00,0x00,0x00,0x04,0x00,0x00,0x00,0x13,0x00,0x00,0x00,0x43,0x4f,0x4e,0x56,0x45,0x52,0x53,0x49,0x4f,0x4e,0x5f,0x4d,0x45,0x54,0x41,0x44,0x41,0x54,0x41,0x00,0xa0,0xd9,0xff,0xff,0x23,0x00,0x00,0x00,0x04,0x00,0x00,0x00,0x13,0x00,0x00,0x00,0x6d,0x69,0x6e,0x5f,0x72,0x75,0x6e,0x74,0x69,0x6d,0x65,0x5f,0x76,0x65,0x72,0x73,0x69,0x6f,0x6e,0x00,0x25,0x00,0x00,0x00,0x30,0x24,0x00,0x00,0x28,0x24,0x00,0x00,0x0c,0x24,0x00,0x00,0xf0,0x23,0x00,0x00,0xd4,0x23,0x00,0x00,0xc4,0x0b,0x00,0x00,0x34,0x07,0x00,0x00,0xa4,0x02,0x00,0x00,0x8c,0x02,0x00,0x00,0x74,0x02,0x00,0x00,0x5c,0x02,0x00,0x00,0x44,0x02,0x00,0x00,0xf4,0x01,0x00,0x00,0x64,0x01,0x00,0x00,0x4c,0x01,0x00,0x00,0x38,0x01,0x00,0x00,0x24,0x01,0x00,0x00,0x1c,0x01,0x00,0x00,0x14,0x01,0x00,0x00,0x0c,0x01,0x00,0x00,0x04,0x01,0x00,0x00,0xfc,0x00,0x00,0x00,0xf4,0x00,0x00,0x00,0xec,0x00,0x00,0x00,0xe4,0x00,0x00,0x00,0xdc,0x00,0x00,0x00,0xd4,0x00,0x00,0x00,0xcc,0x00,0x00,0x00,0xc4,0x00,0x00,0x00,0xbc,0x00,0x00,0x00,0xb4,0x00,0x00,0x00,0xac,0x00,0x00,0x00,0xa4,0x00,0x00,0x00,0x9c,0x00,0x00,0x00,0x94,0x00,0x00,0x00,0x74,0x00,0x00,0x00,0x04,0x00,0x00,0x00,0x92,0xda,0xff,0xff,0x04,0x00,0x00,0x00,0x60,0x00,0x00,0x00,0x10,0x00,0x00,0x00,0x00,0x00,0x00,0x00,0x08,0x00,0x0e,0x00,0x08,0x00,0x04,0x00,0x08,0x00,0x00,0x00,0x10,0x00,0x00,0x00,0x24,0x00,0x00,0x00,0x00,0x00,0x06,0x00,0x08,0x00,0x04,0x00,0x06,0x00,0x00,0x00,0x04,0x00,0x00,0x00,0x00,0x00,0x00,0x00,0x0c,0x00,0x18,0x00,0x14,0x00,0x10,0x00,0x0c,0x00,0x04,0x00,0x0c,0x00,0x00,0x00,0x29,0xe8,0xba,0xf2,0xcf,0x26,0xf1,0x52,0x02,0x00,0x00,0x00,0x02,0x00,0x00,0x00,0x04,0x00,0x00,0x00,0x06,0x00,0x00,0x00,0x32,0x2e,0x31,0x39,0x2e,0x30,0x00,0x00,0xfe,0xda,0xff,0xff,0x04,0x00,0x00,0x00,0x10,0x00,0x00,0x00,0x31,0x2e,0x31,0x30,0x2e,0x30,0x00,0x00,0x00,0x00,0x00,0x00,0x00,0x00,0x00,0x00,0x60,0xcb,0xff,0xff,0x64,0xcb,0xff,0xff,0x68,0xcb,0xff,0xff,0x6c,0xcb,0xff,0xff,0x70,0xcb,0xff,0xff,0x74,0xcb,0xff,0xff,0x78,0xcb,0xff,0xff,0x7c,0xcb,0xff,0xff,0x80,0xcb,0xff,0xff,0x84,0xcb,0xff,0xff,0x88,0xcb,0xff,0xff,0x8c,0xcb,0xff,0xff,0x90,0xcb,0xff,0xff,0x94,0xcb,0xff,0xff,0x98,0xcb,0xff,0xff,0x9c,0xcb,0xff,0xff,0xa0,0xcb,0xff,0xff,0xa4,0xcb,0xff,0xff,0x62,0xdb,0xff,0xff,0x04,0x00,0x00,0x00,0x04,0x00,0x00,0x00,0xfd,0xff,0xff,0xff,0x72,0xdb,0xff,0xff,0x04,0x00,0x00,0x00,0x04,0x00,0x00,0x00,0x01,0x00,0x00,0x00,0x82,0xdb,0xff,0xff,0x04,0x00,0x00,0x00,0x08,0x00,0x00,0x00,0x01,0x00,0x00,0x00,0x01,0x00,0x00,0x00,0x96,0xdb,0xff,0xff,0x04,0x00,0x00,0x00,0x80,0x00,0x00,0x00,0x00,0x00,0x00,0x00,0x00,0x00,0x00,0x00,0x00,0x00,0x00,0x00,0x00,0x00,0x00,0x00,0x00,0x00,0x00,0x00,0x00,0x00,0x00,0x00,0x00,0x00,0x00,0x00,0x00,0x00,0x00,0x00,0x00,0x00,0x00,0x00,0x00,0x00,0x00,0x00,0x00,0x00,0x00,0x00,0x00,0x00,0x00,0x00,0x00,0x00,0x00,0x00,0x00,0x00,0x00,0x00,0x00,0x00,0x00,0x00,0x00,0x00,0x00,0x00,0x00,0x00,0x00,0x00,0x00,0x00,0x00,0x00,0x00,0x00,0x00,0x00,0x00,0x00,0x00,0x00,0x00,0x00,0x00,0x00,0x00,0x00,0x00,0x00,0x00,0x00,0x00,0x00,0x00,0x00,0x00,0x00,0x00,0x00,0x00,0x00,0x00,0x00,0x00,0x00,0x00,0x00,0x00,0x00,0x00,0x00,0x00,0x00,0x00,0x00,0x00,0x00,0x00,0x00,0x00,0x00,0x00,0x00,0x00,0x00,0x00,0x00,0x00,0x00,0x22,0xdc,0xff,0xff,0x04,0x00,0x00,0x00,0x40,0x00,0x00,0x00,0x00,0x00,0x00,0x00,0x00,0x00,0x00,0x00,0x00,0x00,0x00,0x00,0x00,0x00,0x00,0x00,0x00,0x00,0x00,0x00,0x00,0x00,0x00,0x00,0x00,0x00,0x00,0x00,0x00,0x00,0x00,0x00,0x00,0x00,0x00,0x00,0x00,0x00,0x00,0x00,0x00,0x00,0x00,0x00,0x00,0x00,0x00,0x00,0x00,0x00,0x00,0x00,0x00,0x00,0x00,0x00,0x00,0x00,0x00,0x00,0x00,0x00,0x00,0x00,0x6e,0xdc,0xff,0xff,0x04,0x00,0x00,0x00,0x08,0x00,0x00,0x00,0x00,0x00,0x00,0x00,0x00,0x00,0x00,0x00,0x82,0xdc,0xff,0xff,0x04,0x00,0x00,0x00,0x08,0x00,0x00,0x00,0x00,0x00,0x00,0x00,0x04,0x00,0x00,0x00,0x96,0xdc,0xff,0xff,0x04,0x00,0x00,0x00,0x08,0x00,0x00,0x00,0x00,0x00,0x00,0x00,0x06,0x00,0x00,0x00,0xaa,0xdc,0xff,0xff,0x04,0x00,0x00,0x00,0x08,0x00,0x00,0x00,0x00,0x00,0x00,0x00,0x09,0x00,0x00,0x00,0xbe,0xdc,0xff,0xff,0x04,0x00,0x00,0x00,0x80,0x04,0x00,0x00,0xb3,0xe1,0x71,0xbe,0x9a,0xf5,0x0f,0x3e,0x73,0x81,0xa2,0x3e,0x00,0x9a,0x3d,0x3a,0x20,0xe1,0x13,0xbd,0x04,0x98,0xc0,0x3d,0xee,0xdb,0x69,0xbe,0xb8,0x6b,0x38,0xbd,0xe0,0x9e,0x19,0xbc,0x12,0x36,0xa3,0xbe,0x46,0x04,0x3e,0x3e,0x4c,0x40,0x9e,0x3d,0x4d,0x67,0xaf,0x3e,0x3c,0xa2,0xab,0xbd,0x7c,0x21,0xb4,0xbe,0x90,0xdd,0xba,0xbe,0xd5,0xfb,0x90,0x3e,0x53,0x95,0xc3,0x3e,0x6a,0x04,0x7d,0x3e,0x9b,0x85,0xb1,0x3e,0xd0,0xa3,0x90,0xbe,0x14,0x02,0xd8,0x3d,0xcc,0x63,0x07,0xbe,0x90,0x97,0xbc,0xbd,0x6c,0x7b,0xf7,0x3d,0xa0,0xdb,0x01,0xbd,0x11,0x7e,0xb1,0xbe,0x00,0x67,0x40,0xbd,0x47,0x13,0xb5,0x3e,0xcd,0x02,0x70,0xbe,0xf6,0xd7,0x20,0x3e,0x00,0xac,0x18,0x3c,0xc4,0xff,0x8e,0xbe,0x12,0x39,0x54,0x3e,0xb9,0x02,0x2e,0xbe,0x8a,0x94,0x11,0x3e,0xd1,0x6e,0x71,0xbe,0xf0,0x4c,0xb7,0xbe,0xd6,0x3a,0x37,0x3e,0xab,0x15,0x79,0xbe,0x7a,0xfc,0x2f,0x3e,0x00,0xba,0x71,0xbd,0xa5,0x7a,0x9c,0x3e,0xe0,0xf3,0x50,0x3d,0x22,0xc7,0xbd,0xbe,0x34,0xa4,0xf2,0x3d,0x34,0x15,0x9e,0xbd,0x18,0xc4,0x90,0xbe,0xac,0xdd,0xf4,0x3d,0x70,0xcb,0xad,0x3d,0x59,0x82,0xa9,0x3e,0x5c,0xdc,0xf0,0x3d,0x24,0x35,0xec,0xbd,0xa8,0x59,0x71,0xbe,0xaf,0x27,0xa0,0x3e,0x16,0xf0,0x17,0x3e,0xa3,0xe9,0xa9,0xbe,0xfe,0x5e,0x5d,0xbe,0x26,0x1b,0x26,0xbe,0x08,0xfd,0x12,0xbd,0xd3,0xe8,0xac,0x3e,0xc4,0x87,0xa2,0xbe,0xc8,0xe0,0x9c,0xbe,0x09,0x74,0x1e,0xbe,0x32,0x47,0x50,0x3e,0xb8,0xe3,0x69,0xbd,0xe2,0x8c,0x60,0xbe,0x80,0xcb,0xe8,0xbc,0xd9,0x2c,0x4b,0xbe,0x23,0xa9,0x2c,0xbe,0xfa,0x11,0x59,0x3e,0x48,0x08,0x07,0xbd,0xa8,0xbd,0x8e,0xbd,0xf1,0xf6,0xa7,0x3e,0x64,0x57,0x8a,0xbd,0x3e,0x4a,0xac,0xbe,0x21,0x7b,0xb7,0x3e,0x61,0x35,0x7c,0xbe,0x30,0xa1,0xc1,0xbc,0x41,0x6c,0xbd,0x3e,0x00,0x1e,0xcd,0x3c,0x35,0x9b,0x99,0x3e,0xfc,0x4a,0x0a,0xbe,0x40,0x60,0x6f,0x3d,0x4d,0xdb,0x87,0x3e,0x20,0x41,0xbf,0x3c,0x60,0xb1,0xd1,0xbc,0x18,0x8b,0x5f,0xbe,0xf2,0x57,0x01,0x3e,0x60,0xf7,0x84,0xbd,0x6e,0x80,0x11,0x3e,0x08,0x38,0x5e,0x3d,0x40,0x9a,0xb3,0x3d,0xbf,0x30,0x41,0xbe,0xa6,0x43,0x1c,0x3e,0x5e,0x34,0x57,0xbe,0x02,0xd0,0x41,0xbe,0xa4,0x32,0xa2,0x3d,0xfa,0x11,0x50,0x3e,0x0b,0xe3,0x86,0xbe,0xb4,0x8c,0xc3,0xbe,0x80,0xf5,0x7b,0x3c,0xf2,0xc8,0xa8,0xbe,0xa6,0x99,0x5b,0x3e,0x9d,0x5a,0x91,0x3e,0x7c,0xe8,0x92,0x3d,0x24,0xbb,0x8f,0xbe,0xf0,0xca,0xc5,0x3c,0x3b,0x88,0xba,0xbe,0x9e,0x0c,0x2e,0x3e,0xfd,0x70,0xa0,0x3e,0xa4,0x45,0xf1,0xbd,0xc0,0x59,0x38,0xbd,0x2e,0x44,0x13,0x3e,0x4c,0x3d,0x9a,0x3d,0x50,0x41,0x8d,0xbc,0x00,0x96,0xf1,0xbc,0x6d,0x41,0xc0,0x3e,0x48,0x38,0xdc,0xbd,0xbc,0xbe,0xf1,0x3d,0x6a,0x9b,0x23,0x3e,0xc0,0xcd,0x28,0xbd,0x00,0x8a,0xa6,0xbb,0x16,0x45,0xb4,0xbe,0x9d,0xf0,0xc2,0x3e,0x56,0x4d,0x7d,0x3e,0x68,0xef,0x8d,0xbe,0x66,0xb3,0x93,0xbe,0xe8,0x18,0xa9,0xbd,0x80,0xdc,0x87,0xbe,0xe8,0xdf,0x55,0xbd,0x82,0x0b,0x10,0x3e,0x0e,0x3d,0x76,0x3e,0xa0,0xc8,0x35,0x3d,0x96,0x08,0x4a,0x3e,0x2c,0xcb,0x86,0xbe,0x4c,0x0b,0xd2,0xbd,0x9a,0x0f,0x46,0x3e,0x6a,0x26,0x77,0xbe,0x60,0xf8,0x97,0xbc,0x00,0x66,0x14,0xbb,0x3a,0xef,0x76,0x3e,0x88,0x0a,0x82,0xbe,0xdd,0x03,0x2a,0xbe,0xa4,0xd6,0x9e,0xbd,0x4d,0xa9,0x98,0x3e,0x00,0x10,0xe2,0xb8,0xb4,0x19,0x40,0xbe,0x8d,0x2c,0xbc,0x3e,0xb6,0x43,0x70,0x3e,0xb0,0xbd,0xb0,0x3d,0x00,0x33,0x4e,0xbe,0x97,0xa0,0x5f,0xbe,0xbe,0x06,0xc0,0xbe,0x2c,0xc3,0x8c,0xbd,0xd0,0xbd,0xc9,0x3c,0x45,0x45,0x92,0x3e,0x44,0xf7,0x82,0xbe,0x28,0xd0,0x61,0xbd,0x18,0x64,0x93,0x3d,0x1b,0x59,0xa5,0x3e,0x70,0x82,0xe0,0x3d,0xfc,0xb6,0x96,0xbe,0x1d,0x15,0xb8,0x3e,0x88,0x06,0x74,0xbe,0x88,0x09,0x86,0xbe,0x3a,0x80,0xaa,0xbe,0xdc,0xf1,0xbb,0x3d,0x16,0x7b,0x22,0x3e,0x3b,0x29,0x69,0xbe,0x4d,0x42,0x10,0xbe,0x10,0xba,0x58,0xbe,0x00,0x57,0x06,0x3b,0x12,0x3a,0x76,0xbe,0x35,0x64,0xaa,0xbe,0x79,0xff,0x44,0xbe,0xd8,0xfb,0x23,0x3d,0x6c,0xfe,0xdb,0xbd,0x04,0xb6,0xba,0xbe,0x74,0x62,0x46,0xbe,0xc9,0xc0,0xbf,0xbe,0xe0,0xfb,0x22,0xbc,0x18,0x3c,0xf4,0xbd,0xd8,0x54,0xd7,0xbd,0x95,0xc4,0xad,0x3e,0x60,0x62,0x37,0x3c,0xc0,0x65,0x25,0xbc,0x20,0xc6,0x21,0xbe,0x38,0x45,0x86,0xbe,0xc2,0x27,0x11,0xbe,0x79,0x84,0xc0,0x3e,0x40,0xfa,0x68,0xbe,0xf4,0xda,0x86,0xbe,0xae,0x59,0x7c,0x3e,0x05,0x7b,0x5c,0xbe,0xaa,0xde,0x16,0x3e,0x46,0xf2,0x53,0x3e,0xa7,0x7a,0x54,0xbe,0x14,0xf6,0xf0,0x3d,0x46,0xea,0x09,0x3e,0x50,0xaf,0xe4,0x3d,0xf0,0x57,0xb7,0x3c,0xc9,0xa8,0x82,0x3e,0x4b,0x20,0x3d,0xbe,0x20,0x94,0xa2,0xbe,0x05,0x0e,0x91,0x3e,0xda,0x35,0x60,0x3e,0x38,0x7d,0x1f,0x3d,0xf6,0x8c,0xbf,0xbe,0x01,0x50,0x88,0x3e,0x23,0xb0,0x9a,0xbe,0x95,0xdc,0x80,0xbe,0x9b,0x95,0xbc,0x3e,0x0c,0xd9,0xae,0x3d,0x40,0x87,0xc5,0x3c,0x03,0x0f,0x9d,0xbe,0x00,0x18,0xc0,0x3d,0xfc,0x7a,0xbf,0xbe,0x44,0xca,0x8f,0xbe,0x00,0xed,0x98,0xbd,0x74,0x63,0xff,0xbd,0x32,0xef,0x74,0x3e,0x13,0x8b,0x4b,0xbe,0x49,0x8c,0x80,0x3e,0x90,0x37,0xec,0xbc,0x18,0xe9,0x64,0x3d,0xd6,0xfc,0x08,0x3e,0x9e,0x6a,0x3b,0x3e,0xf8,0x28,0x1e,0x3d,0xb1,0x00,0xbe,0xbe,0xaa,0x5d,0x4d,0x3e,0x12,0x42,0x43,0x3e,0x02,0x99,0x82,0xbe,0x8d,0x43,0x30,0xbe,0x07,0x48,0x2f,0xbe,0xa0,0x2a,0x4a,0x3c,0x6e,0x78,0x1f,0x3e,0x7c,0x7a,0xb2,0xbe,0x00,0xa8,0x90,0xb9,0xa5,0xb8,0x1b,0xbe,0xcb,0x3c,0x72,0xbe,0x44,0xca,0xfc,0xbd,0xc4,0x69,0xd6,0xbd,0x7d,0x2b,0x71,0xbe,0x3a,0x21,0x2a,0xbe,0x3e,0xf5,0xa9,0xbe,0xe6,0xdb,0xa9,0xbe,0xa0,0x9e,0xac,0x3d,0x58,0x99,0x61,0xbd,0x73,0x10,0x9e,0x3e,0xd5,0xc0,0xa0,0xbe,0x5f,0x59,0x89,0x3e,0x4e,0x8a,0x1c,0x3e,0xbd,0x7c,0x99,0xbe,0x84,0xa1,0xf9,0xbd,0xd9,0xe6,0xb3,0x3e,0xc5,0x24,0x96,0x3e,0xa3,0x39,0x89,0x3e,0x13,0xc5,0x89,0x3e,0x4c,0x3f,0x73,0xbe,0x5c,0x11,0x01,0xbe,0x9f,0x5c,0x0c,0xbe,0x08,0x0b,0x2e,0x3d,0xe0,0x99,0x4f,0xbd,0xb3,0xb4,0x96,0x3e,0x64,0x56,0x98,0xbe,0x83,0x39,0x18,0xbe,0xd2,0x75,0x6c,0x3e,0x7e,0xab,0x55,0x3e,0x77,0xad,0x99,0x3e,0xac,0x31,0xed,0x3d,0xeb,0xba,0x1f,0xbe,0x3f,0x0a,0x89,0xbe,0x8f,0xec,0x86,0xbe,0xe1,0xf4,0x40,0xbe,0x17,0xd4,0x25,0xbe,0xe8,0x15,0xca,0x3d,0xa6,0xc9,0x06,0x3e,0x39,0x32,0xa6,0x3e,0x21,0x4e,0x94,0x3e,0xdc,0x08,0x9e,0xbe,0x6a,0xbc,0xa6,0xbe,0xe5,0x13,0xbd,0x3e,0xde,0x12,0x7e,0xbe,0x65,0x5d,0x66,0xbe,0x16,0x28,0x54,0x3e,0xad,0x61,0x27,0xbe,0x69,0x09,0x84,0xbe,0x4a,0xe1,0xff,0xff,0x04,0x00,0x00,0x00,0x80,0x04,0x00,0x00,0x2e,0x0d,0x99,0x3e,0xdc,0xa0,0xc9,0x3d,0x8a,0xf6,0xab,0xbd,0x74,0x9e,0x90,0x3e,0x9c,0x99,0x3b,0x3e,0x44,0x7c,0x71,0x3e,0x9c,0xbd,0x2b,0x3e,0xc0,0x3b,0x39,0xbd,0xfc,0x2f,0x4b,0xbe,0x84,0x53,0x80,0x3d,0x68,0x63,0x97,0x3d,0x64,0x1f,0x63,0x3e,0x70,0xc1,0xa8,0xbc,0x24,0xd3,0x72,0xbe,0x1a,0x6d,0x89,0xbd,0xa8,0x6d,0x83,0x3d,0x86,0xe6,0x36,0xbe,0xe4,0x0d,0x73,0x3e,0x13,0xa0,0x30,0xbe,0xae,0x8b,0x1a,0x3e,0xec,0x5f,0xd9,0x3d,0xe8,0xb7,0x49,0xbe,0x84,0x68,0xf1,0x3d,0xe0,0xf1,0xdc,0xbc,0x54,0x5d,0xcf,0x3d,0x08,0x41,0x5c,0x3e,0xe0,0xf3,0xe0,0x3d,0x80,0x32,0xc7,0xbb,0x14,0x8f,0x7d,0xbe,0x00,0xec,0x6b,0x3c,0xdc,0x09,0x90,0xbd,0x4c,0xab,0xbe,0x3d,0x4c,0x21,0x2b,0xbe,0x30,0x0b,0x8e,0x3c,0xe8,0x1f,0x7a,0x3e,0xa0,0x0a,0x62,0x3e,0xd0,0x64,0x15,0x3e,0x68,0xc1,0x22,0xbd,0x7f,0xa0,0x50,0xbe,0x02,0xbc,0x05,0x3e,0x22,0x55,0x20,0x3e,0xf0,0xa1,0x1b,0xbd,0xf8,0x34,0x50,0x3e,0xb4,0x84,0xc7,0xbd,0x00,0xb3,0x62,0xbe,0xe9,0x69,0x95,0xbe,0x68,0x0e,0x63,0x3d,0xe0,0xb9,0x68,0x3d,0x5d,0x9a,0x26,0xbe,0xe8,0x35,0x95,0xbe,0x80,0x8f,0x47,0x3e,0xc0,0x6c,0xc2,0xbc,0x69,0x88,0x1f,0xbe,0x62,0x28,0x8e,0xbd,0xa8,0x59,0xf6,0xbd,0x54,0x1f,0xb2,0x3d,0x58,0xc7,0x6e,0x3d,0xa0,0x91,0x21,0x3e,0xa4,0x99,0x79,0xbd,0x28,0x0d,0x07,0xbe,0xf4,0xa1,0xf8,0xbd,0x1c,0xbc,0x5e,0xbe,0x50,0xe1,0x33,0x3d,0x70,0x41,0xf8,0x3c,0x20,0x6a,0x6c,0xbe,0x2c,0xad,0x6a,0x3e,0xb8,0xce,0x4c,0xbd,0x06,0xbc,0x8d,0x3e,0x80,0x0a,0x12,0xbd,0xd1,0x4c,0x13,0xbe,0x8e,0xa4,0x87,0x3e,0x17,0x66,0x7d,0xbe,0xa8,0x87,0x31,0x3e,0x0f,0x2a,0x2b,0xbe,0xe2,0x37,0x89,0x3e,0x20,0x88,0x90,0x3c,0xb8,0x89,0x29,0x3d,0x6c,0xe6,0x57,0xbd,0x54,0xb6,0x1e,0x3e,0x43,0xe0,0x32,0xbe,0x38,0x9b,0x8e,0x3d,0xa8,0x94,0x2e,0xbd,0xee,0xc0,0x77,0xbe,0x36,0xdc,0x90,0x3e,0xce,0x51,0x22,0x3e,0x21,0x63,0x12,0xbe,0x8c,0x7b,0x93,0x3d,0xa2,0x26,0x95,0x3e,0x80,0x40,0xab,0x3c,0x10,0x47,0x4b,0x3e,0x36,0xed,0x85,0x3e,0x06,0x48,0x8f,0xbd,0x30,0x9b,0x88,0xbe,0x40,0x7f,0x49,0x3d,0xb2,0xad,0x80,0xbd,0xcc,0xef,0xa2,0x3d,0x16,0x0a,0xdc,0xbd,0xa8,0x80,0x87,0xbe,0x78,0x9a,0xee,0xbd,0x90,0x6c,0x64,0xbe,0x1e,0x01,0x09,0xbe,0xe0,0x58,0x81,0x3c,0x54,0x06,0x95,0x3e,0x60,0x35,0xc2,0x3d,0xdb,0x00,0x93,0xbe,0x48,0x7c,0xc8,0x3d,0xf0,0x15,0x2d,0x3e,0x58,0x83,0x3c,0xbe,0xcc,0x37,0x6c,0xbd,0x64,0xbc,0x49,0x3e,0x44,0x77,0x65,0xbe,0x60,0x75,0xfe,0x3c,0x68,0xa7,0x87,0xbe,0x5a,0xa8,0xa1,0xbd,0xd6,0xae,0x8e,0x3e,0x84,0xa4,0xac,0x3d,0x7c,0x11,0xd0,0xbd,0x34,0x04,0x65,0xbe,0x24,0xc3,0x53,0xbd,0x30,0xe4,0xb6,0xbd,0xec,0xe2,0x82,0x3d,0x5c,0x63,0xcf,0x3d,0x12,0x07,0x92,0xbd,0xf0,0xbb,0x5e,0x3d,0xc0,0xa4,0x3d,0x3d,0xa0,0x74,0xed,0x3c,0x70,0x97,0xd6,0x3d,0x8e,0xe2,0x43,0x3e,0xfc,0x66,0x20,0x3e,0x34,0x62,0x08,0x3e,0x68,0xb8,0x57,0x3e,0x06,0x18,0x3b,0x3e,0x12,0xdb,0x96,0x3e,0x20,0x31,0xc6,0x3c,0x20,0xf2,0x13,0x3e,0x78,0x73,0xf6,0x3d,0xce,0x7e,0x5b,0xbe,0x49,0x90,0x87,0xbe,0x0c,0x9c,0xc6,0x3d,0x02,0x48,0xd5,0xbd,0x33,0x9c,0x6d,0xbe,0xd6,0x80,0xd1,0xbd,0xae,0x43,0x28,0x3e,0xda,0x0e,0x35,0xbe,0xc8,0x2e,0x03,0xbd,0x1a,0xba,0xb3,0xbd,0x34,0x09,0x6c,0x3e,0xcf,0x48,0x0b,0xbe,0x80,0xf6,0xf5,0xbb,0x7c,0x83,0x1b,0x3e,0x9e,0x2f,0x5a,0xbe,0x5c,0xd2,0xc1,0x3d,0xa8,0x56,0xd8,0x3d,0x98,0xb4,0xad,0x3d,0x0a,0x29,0x85,0x3e,0xac,0x62,0x4c,0x3e,0xf0,0x68,0xd8,0xbd,0x05,0x53,0x0b,0xbe,0xac,0x7d,0x6c,0xbd,0x40,0xe5,0x97,0xbb,0x9c,0xd6,0x84,0x3e,0xb0,0x64,0x23,0xbe,0x04,0xd7,0xa3,0xbd,0x94,0x57,0x6b,0x3e,0x94,0x66,0xe0,0x3d,0xe4,0x4d,0x37,0xbe,0xf3,0x93,0x5c,0xbe,0xd0,0xb8,0x61,0x3d,0xa8,0x27,0xec,0x3d,0x6e,0x00,0x8c,0xbd,0x50,0xa3,0x43,0xbe,0x98,0x32,0x50,0x3e,0x45,0xbf,0x34,0xbe,0x93,0xcc,0x18,0xbe,0x32,0x2f,0x85,0x3e,0x3e,0x3e,0x65,0xbe,0x32,0xf7,0x61,0xbe,0x60,0x48,0x20,0x3c,0x64,0xbb,0x96,0x3d,0xae,0xa3,0xd9,0xbd,0x94,0x26,0x40,0x3e,0x90,0x8e,0xa4,0x3c,0x26,0xde,0xd6,0xbd,0x55,0x82,0x8c,0xbe,0x97,0x2b,0x82,0xbe,0x74,0xb4,0x63,0x3e,0xb7,0x2a,0x91,0xbe,0x66,0xec,0x8e,0x3e,0x5c,0x70,0x01,0xbe,0x47,0x4e,0x0d,0xbe,0x58,0xfc,0xbf,0x3d,0xb0,0xf9,0x59,0x3e,0xfe,0xf5,0x04,0xbe,0x19,0xbc,0x57,0xbe,0x3c,0x18,0x34,0x3e,0x20,0x28,0x0d,0xbd,0x73,0x77,0x83,0xbe,0xe2,0xd4,0x0c,0x3e,0x58,0x19,0x8e,0x3e,0xec,0x63,0x73,0x3e,0x84,0xa4,0x08,0x3e,0x6f,0xa1,0x02,0xbe,0x88,0x2b,0x66,0x3d,0x4c,0xdc,0x4c,0x3e,0xe0,0xa4,0x49,0x3e,0xb7,0x4a,0x03,0xbe,0xd2,0xb4,0x24,0x3e,0xca,0xdb,0xc1,0xbd,0xc8,0xe7,0x5b,0x3d,0x50,0x85,0xf1,0x3d,0x18,0xa5,0x2a,0x3e,0xda,0x79,0x91,0xbe,0xf0,0xd5,0xc2,0x3c,0x30,0xd7,0x9d,0x3c,0x38,0xf2,0x1e,0xbe,0x88,0x5f,0x80,0x3e,0xd0,0x90,0xa4,0xbc,0x00,0xc8,0xd6,0x3a,0x88,0x72,0xd9,0xbd,0x28,0x0d,0x83,0xbe,0xd0,0x49,0x80,0x3e,0x8a,0x06,0x8e,0xbe,0x00,0xc1,0x90,0xba,0x79,0xd2,0x77,0xbe,0x0e,0x5f,0xae,0xbd,0xb0,0x9e,0x65,0x3e,0x78,0xab,0x4e,0xbd,0xf4,0xfd,0x5f,0x3e,0x00,0xb6,0x35,0xbd,0xa6,0xd1,0x8d,0x3e,0xa8,0x93,0x64,0x3d,0x8c,0x6a,0x81,0x3e,0xa0,0xba,0xba,0x3d,0x54,0x15,0xbc,0xbd,0xf7,0x1e,0x07,0xbe,0xc8,0xd6,0x1f,0xbd,0x4c,0x54,0x08,0x3e,0xcc,0xea,0x3b,0x3e,0x06,0xe4,0xcb,0xbd,0x58,0x0a,0x22,0x3e,0x1a,0x55,0x19,0xbe,0xf8,0xeb,0x6f,0x3e,0x49,0x40,0x80,0xbe,0xa8,0x91,0x73,0x3e,0x24,0x9b,0xb2,0x3d,0x06,0x59,0x8b,0xbe,0xa8,0xaa,0xc2,0x3d,0xa0,0x3b,0x72,0x3e,0xb8,0xf1,0x42,0x3d,0x9a,0xa6,0x8a,0xbe,0x74,0xd3,0x51,0x3e,0x38,0x32,0xee,0x3d,0x7e,0xc2,0x77,0xbe,0x32,0xc9,0x7d,0xbe,0xbd,0x94,0x84,0xbe,0x50,0x39,0x5d,0xbe,0x78,0x21,0x8b,0xbe,0xc5,0x0f,0x97,0xbe,0x7d,0x95,0x2a,0xbe,0xbc,0x3c,0x5d,0x3e,0x10,0x6a,0x8e,0xbe,0x58,0xce,0x84,0x3d,0x10,0x90,0xed,0x3c,0xfe,0xc3,0x99,0x3e,0x96,0xa6,0x6f,0xbe,0x10,0x16,0x50,0xbe,0xdc,0x6d,0x85,0x3e,0x88,0xb6,0x96,0x3e,0x80,0x04,0x79,0x3e,0x50,0x8f,0xbf,0x3c,0x22,0xb2,0x8b,0x3e,0xf4,0xc6,0x86,0xbe,0x00,0xd7,0x41,0xbe,0x40,0x0b,0x98,0x3e,0x6c,0x8d,0x83,0xbe,0xa1,0xf7,0x4e,0xbe,0xb0,0x8c,0xc3,0xbc,0x3c,0x12,0xf8,0x3d,0x60,0x0b,0x2b,0x3d,0x40,0x6a,0x79,0x3e,0x40,0xb8,0x73,0x3e,0x8c,0x82,0x3c,0xbe,0x67,0xa3,0x07,0xbe,0xd0,0x55,0x82,0x3d,0xb6,0x9d,0x95,0xbe,0x96,0xb5,0x8b,0xbe,0x64,0x42,0xf7,0x3d,0xb4,0xad,0x78,0x3e,0xd6,0xe5,0xff,0xff,0x04,0x00,0x00,0x00,0x00,0x18,0x00,0x00,0x72,0x4a,0x0b,0x3e,0xe6,0x80,0x1d,0xbe,0x0c,0x26,0x21,0xbd,0xb8,0xd6,0x2a,0x3d,0x70,0x21,0xb2,0x3c,0x78,0xc1,0xd3,0x3c,0x9a,0x78,0x2c,0xbe,0xa8,0xfc,0x31,0xbe,0x82,0x7a,0x19,0xbe,0xf3,0x24,0x31,0xbe,0x6a,0x16,0x12,0x3e,0x54,0x7f,0x07,0x3d,0xda,0x7a,0x06,0xbe,0x6c,0xe2,0x1c,0x3e,0x00,0xce,0x2e,0xbe,0x94,0x57,0xdf,0x3d,0xd0,0x4c,0x4a,0xbe,0x80,0xd5,0xc4,0x3d,0x0c,0xf2,0x91,0x3d,0xf0,0x70,0x07,0x3d,0x6f,0x30,0x27,0xbe,0x7c,0x4c,0x36,0x3e,0xd2,0x02,0x4d,0x3e,0xaa,0x97,0x49,0xbe,0xe8,0xac,0x0e,0x3e,0x86,0xd7,0x14,0x3e,0x40,0xc9,0x68,0x3c,0x44,0x29,0xf2,0x3d,0x55,0x89,0xbd,0xbd,0x5c,0xf6,0x90,0x3d,0x78,0x96,0x28,0xbe,0x14,0xe4,0x93,0xbd,0xa4,0x6f,0x06,0xbd,0x74,0x67,0x15,0x3e,0x9c,0x50,0x30,0xbe,0x32,0x2e,0x33,0x3e,0x58,0xdb,0x65,0x3d,0xc7,0x33,0xe2,0xbd,0x00,0x56,0x63,0x3d,0x93,0x4d,0xea,0xbd,0x4a,0xda,0x1a,0xbe,0xe4,0x62,0xf7,0x3d,0xd2,0xf8,0x19,0x3e,0xf0,0x14,0x7c,0xbd,0xc4,0x72,0xb7,0xbd,0xbe,0xc1,0x15,0x3e,0xfa,0xdc,0x36,0xbe,0xd4,0xc7,0x94,0xbd,0xe6,0x43,0x04,0xbe,0x8f,0x7b,0xb2,0xbd,0x90,0x36,0x37,0x3e,0xa0,0xa9,0x14,0x3e,0x98,0xa1,0xd8,0x3d,0x40,0x91,0x29,0xbc,0x9a,0xc5,0x21,0x3e,0xa0,0xf3,0x99,0x3d,0x60,0xff,0x5b,0x3d,0x2e,0x65,0x4a,0x3e,0x28,0x7b,0x1e,0x3e,0xfd,0x54,0xa5,0xbd,0xd4,0xf0,0x83,0x3d,0x3b,0x14,0x2f,0xbe,0xc0,0x90,0x8a,0x3b,0x6a,0xa5,0x1c,0x3e,0x84,0xa7,0xb4,0x3d,0x60,0x0b,0xff,0x3d,0xfc,0x2d,0x97,0x3d,0xb2,0x01,0x4a,0x3e,0x82,0x3e,0xd4,0xbd,0x9c,0x95,0xa1,0x3d,0xac,0x25,0x21,0x3e,0x40,0x1d,0x05,0xbe,0xc0,0x1c,0xe1,0x3b,0x90,0xc2,0x57,0xbc,0xe0,0xa4,0x8b,0x3d,0xd0,0x2a,0xfa,0x3d,0xa8,0x7c,0x00,0x3e,0xc8,0xd0,0xcc,0x3d,0x5b,0x7e,0x35,0xbe,0xc0,0xf1,0x57,0x3b,0x6a,0x07,0x1f,0xbe,0x7a,0x79,0x02,0x3e,0xe4,0x96,0xe7,0x3d,0xce,0x1d,0x1f,0x3e,0x36,0xd1,0x4f,0xbe,0x60,0x20,0x0f,0x3e,0xf7,0x2b,0xe4,0xbd,0x2a,0x36,0x2c,0x3e,0x90,0x16,0x66,0x3d,0x05,0xe8,0xab,0xbd,0x56,0x29,0xed,0xbd,0xd8,0x41,0xf1,0xbd,0x28,0x11,0xa9,0xbc,0xd4,0x04,0x06,0xbd,0xed,0x2f,0xfc,0xbd,0x86,0xd0,0x1b,0xbe,0xd8,0x09,0xae,0x3d,0xb8,0xe2,0xd5,0x3d,0x28,0x3a,0x1d,0x3e,0x69,0x16,0xf3,0xbd,0x8d,0xf6,0xcb,0xbd,0x10,0xc9,0x16,0xbe,0xec,0x1d,0x34,0x3e,0xbe,0x76,0x83,0xbd,0x70,0x37,0xe0,0x3d,0x48,0x26,0x0e,0x3d,0xf0,0x92,0x4b,0xbd,0x3c,0xda,0xc6,0x3d,0x54,0xf9,0xf9,0x3d,0x64,0xa3,0x49,0x3e,0xd8,0x1b,0x43,0x3e,0xe4,0xbb,0x19,0x3e,0x4c,0xc1,0x0b,0xbd,0xf8,0xdc,0xc6,0xbc,0xb4,0xd6,0x11,0x3e,0x6c,0x1c,0x4d,0x3e,0x40,0xb6,0xda,0xbc,0x2b,0x57,0xcf,0xbd,0x68,0x48,0x2d,0xbd,0x68,0xa9,0xfd,0xbc,0x38,0x49,0xb3,0xbc,0x54,0xfa,0xa8,0x3d,0x30,0xd0,0xf6,0x3c,0x09,0x5e,0xa9,0xbd,0x38,0x3c,0xd1,0x3d,0x10,0x0e,0xdd,0x3c,0x70,0xe2,0x28,0xbe,0xb4,0x46,0x80,0xbd,0x3c,0xde,0x95,0xbd,0x64,0xbe,0x1d,0xbe,0x78,0x95,0x7e,0x3d,0x20,0x06,0xe4,0xbd,0x16,0x7c,0x30,0xbe,0xc4,0x74,0xaa,0x3d,0x60,0xc7,0x36,0xbd,0x38,0x39,0xe1,0xbc,0xd8,0xf4,0x36,0x3d,0x3c,0x99,0x02,0xbd,0xa0,0x87,0xeb,0x3c,0x40,0x1a,0x01,0xbd,0xac,0xfc,0x15,0xbe,0xd4,0x70,0x8a,0x3d,0x1c,0xbe,0x39,0xbe,0x1d,0xde,0x36,0xbe,0x90,0x8d,0x3d,0x3d,0xc6,0xea,0x0b,0x3e,0x48,0x64,0x23,0x3e,0x80,0x03,0x26,0x3b,0x21,0x63,0xf6,0xbd,0xa8,0x7b,0x0e,0x3e,0xcb,0x90,0xd4,0xbd,0x84,0x0f,0x9b,0x3d,0x13,0xb0,0xe7,0xbd,0xa2,0x59,0x1b,0x3e,0xf8,0x50,0xfb,0xbc,0x40,0x2c,0xec,0x3d,0xa4,0x83,0x6d,0xbd,0xf2,0x65,0x45,0xbe,0x38,0xf5,0xb2,0x3d,0x70,0xbd,0x8c,0x3d,0x9e,0xaf,0x15,0xbe,0x34,0x48,0xdc,0x3d,0x68,0xfb,0xde,0xbc,0x90,0x42,0xe7,0xbd,0x80,0x07,0xb6,0x3d,0x28,0x93,0x60,0x3d,0x0d,0x3a,0xd1,0xbd,0x00,0x8a,0x6f,0xba,0xfc,0x13,0xb3,0x3d,0x1f,0x2a,0x21,0xbe,0xe7,0xc0,0x10,0xbe,0xa8,0xd2,0x33,0x3e,0x40,0x40,0x7e,0x3d,0x94,0x7e,0x30,0xbd,0x1a,0xdb,0x45,0x3e,0xb5,0xdc,0xb7,0xbd,0x0a,0xef,0x97,0xbd,0xd0,0xf2,0x38,0x3e,0x30,0x8d,0x13,0xbc,0x2b,0xce,0xa3,0xbd,0x28,0xed,0x4c,0xbe,0x2a,0x4d,0x4c,0x3e,0x4c,0xc1,0xfb,0x3d,0x4c,0x55,0x33,0x3e,0xe4,0xfc,0x1e,0x3e,0x41,0xb5,0xc3,0xbd,0x1e,0x43,0x33,0xbe,0x7c,0x5d,0xa6,0xbd,0x28,0xab,0x09,0x3e,0xf0,0x40,0xb9,0x3d,0x1e,0xfd,0x27,0xbe,0x2e,0x71,0x02,0x3e,0xf0,0x11,0x01,0xbd,0x00,0xf8,0x30,0x3e,0xac,0x0c,0x9d,0x3d,0xe4,0x95,0x1e,0xbd,0xa0,0xc4,0xd6,0xbc,0x14,0xbd,0x58,0xbd,0x9c,0xcf,0x85,0x3d,0x14,0x55,0xea,0xbd,0x24,0x1d,0x08,0xbe,0xf0,0x41,0x05,0xbd,0x06,0xcb,0x46,0x3e,0x94,0xf3,0x99,0xbd,0x80,0xbf,0x80,0x3b,0x34,0xe0,0xb8,0x3d,0x88,0xcb,0xb8,0x3d,0x52,0x02,0x48,0x3e,0xc4,0x93,0x4b,0xbe,0xa0,0xd2,0x99,0xbc,0x20,0x9b,0xe7,0xbc,0xa4,0x59,0x43,0xbe,0xa8,0xb0,0x9e,0x3d,0x84,0xf8,0xb7,0x3d,0x2c,0x7c,0x29,0x3d,0x81,0x76,0xf3,0xbd,0x16,0xf6,0x3b,0x3e,0x80,0x15,0x95,0x3c,0x7a,0x1c,0x80,0xbd,0x8b,0x46,0x2b,0xbe,0xd0,0x16,0x3f,0x3e,0x80,0x6a,0xe9,0xba,0x1c,0x53,0xee,0x3d,0x59,0x99,0x2e,0xbe,0x60,0x36,0xd6,0x3c,0xb0,0x6c,0x3e,0x3d,0xf8,0x3b,0x95,0x3c,0x4b,0x02,0xdc,0xbd,0xcc,0x33,0xab,0x3d,0x1c,0xd9,0x1c,0x3d,0x08,0xa7,0x1c,0x3e,0x88,0x59,0x01,0x3d,0xfc,0x1c,0x0d,0x3e,0x00,0x26,0x8f,0xba,0x9f,0x81,0x36,0xbe,0xa0,0xba,0x7b,0xbc,0x21,0xa6,0xca,0xbd,0xc0,0x0d,0x01,0xbd,0x82,0x5d,0x83,0xbd,0xe4,0x9a,0xe0,0xbd,0xf1,0x67,0x0c,0xbe,0xe4,0xfd,0xfb,0xbd,0xa0,0x47,0x35,0x3d,0xec,0xf0,0x58,0xbd,0x18,0xa9,0xe7,0x3c,0x62,0x7e,0x10,0x3e,0x68,0x9d,0x24,0x3e,0x93,0x84,0xa6,0xbd,0xc2,0x91,0x2e,0xbe,0x16,0xc5,0x9a,0xbd,0x2a,0xe2,0x81,0xbd,0xbc,0xfa,0xed,0x3d,0x02,0x8d,0x41,0xbe,0x00,0x27,0x34,0xbb,0x90,0xba,0xb8,0x3c,0x34,0xc0,0x83,0x3d,0xe4,0xd0,0xca,0x3d,0x00,0xb4,0xe8,0x39,0x50,0x07,0x27,0x3d,0xa6,0xfa,0x02,0x3e,0xf8,0x4c,0x1a,0xbe,0xd0,0xf2,0x73,0x3d,0x44,0xec,0x45,0xbd,0x74,0x7d,0x39,0x3e,0x10,0x83,0x94,0x3d,0xb6,0xa7,0x4a,0xbe,0x14,0xc5,0x01,0xbe,0x40,0xb5,0x32,0xbe,0x10,0xff,0xd1,0x3d,0x78,0x2d,0x16,0x3e,0x74,0x71,0x12,0x3e,0x86,0x28,0x14,0xbe,0x06,0xc4,0x1f,0x3e,0xbc,0xa2,0xdd,0x3d,0xf2,0x34,0xb6,0xbd,0x90,0x10,0xb3,0x3d,0xdc,0x22,0x77,0xbd,0xa8,0x07,0xca,0x3d,0x77,0x9f,0xb0,0xbd,0x67,0x34,0xf0,0xbd,0x72,0xc4,0x1b,0x3e,0x50,0x7a,0x41,0xbd,0x00,0x14,0x0f,0xbe,0x80,0xb3,0x06,0x3e,0x10,0xfb,0x2e,0x3c,0x58,0xcb,0x1f,0x3d,0x2a,0xcf,0xd9,0xbd,0xf2,0xd8,0x21,0x3e,0x22,0xb3,0x28,0x3e,0xf0,0x9b,0xea,0x3d,0xc0,0xd6,0x1b,0xbe,0xb0,0x63,0x41,0xbc,0x48,0xec,0x81,0xbc,0x04,0xdc,0x14,0xbe,0x00,0x78,0xdb,0xbb,0xa8,0x2d,0xb6,0x3d,0x54,0x65,0xe2,0xbd,0x60,0x41,0xb7,0x3d,0x98,0x40,0x18,0x3d,0x54,0x86,0x48,0x3e,0x00,0x24,0x63,0xb9,0x2e,0x49,0xdb,0xbd,0x76,0x3e,0x28,0x3e,0xa8,0xa1,0x4b,0x3e,0xba,0x2b,0xe7,0xbd,0x90,0xfa,0xb7,0xbd,0x42,0xce,0x10,0x3e,0x84,0xb9,0xf9,0xbd,0x58,0xf4,0x4e,0x3e,0x5e,0xa5,0x0e,0x3e,0x10,0x73,0x1c,0x3e,0x58,0x1d,0xc2,0x3d,0x1a,0x0f,0x41,0x3e,0x99,0x18,0xc0,0xbd,0x40,0x3b,0x74,0x3c,0xec,0x00,0xa2,0xbd,0x60,0x05,0x61,0x3d,0x90,0xc0,0xd2,0xbc,0xd4,0xf9,0x0f,0xbd,0x80,0x41,0x17,0x3b,0x80,0x7a,0x6a,0x3b,0x80,0x97,0xd5,0x3b,0xc8,0x00,0x08,0x3e,0xa1,0x4f,0x06,0xbe,0x88,0x41,0x5a,0xbd,0x08,0xa5,0xd8,0xbc,0xd8,0xec,0x45,0xbe,0xab,0x86,0x0a,0xbe,0xca,0xc1,0x92,0xbd,0x98,0x80,0x48,0xbd,0x73,0x4f,0x50,0xbe,0x44,0x12,0x4a,0xbd,0xf4,0x8e,0xf9,0x3d,0x18,0x00,0x0d,0x3d,0x40,0x62,0x4f,0xbb,0xf4,0xe9,0xad,0xbd,0xa8,0x76,0xce,0xbd,0xa8,0xa9,0x03,0x3e,0xc4,0xe7,0x16,0xbd,0x58,0x4e,0x56,0x3d,0x72,0x78,0x12,0xbe,0xe0,0x99,0xcf,0xbc,0x36,0xf0,0x37,0x3e,0xf8,0x3d,0x9d,0xbd,0xf6,0x6b,0xf4,0xbd,0x2c,0x28,0x0f,0x3e,0x40,0xab,0x1e,0xbc,0xe8,0xd1,0xc8,0xbc,0x40,0x3d,0x29,0xbe,0x44,0x22,0xa5,0x3d,0x58,0x00,0xc8,0xbc,0xac,0x6f,0x29,0x3e,0x6c,0xef,0x86,0x3d,0xa0,0x62,0xbe,0x3d,0x66,0x7a,0x93,0xbd,0xbc,0x87,0x14,0x3e,0x21,0x74,0xb3,0xbd,0x24,0xee,0x6d,0xbd,0xc7,0x6f,0x0b,0xbe,0x0e,0x58,0x2d,0xbe,0x1e,0x9a,0x4c,0x3e,0x5a,0xaa,0x0e,0xbe,0x38,0x2d,0x2b,0x3d,0x5e,0xa7,0x0f,0xbe,0x40,0x5c,0x67,0xbc,0xb4,0x04,0x2a,0x3e,0x28,0x71,0x11,0x3d,0xa8,0x37,0x6b,0x3d,0x8c,0x41,0xd0,0x3d,0x5d,0xee,0xdc,0xbd,0x88,0x8a,0xa5,0x3c,0x8a,0x91,0x32,0x3e,0x32,0xe2,0x32,0xbe,0xe8,0xf0,0x24,0x3e,0x44,0xc5,0x2b,0x3e,0xf0,0x8b,0x85,0x3d,0xe2,0x1e,0xaa,0xbd,0x40,0xe6,0x30,0xbb,0xec,0xae,0xdd,0x3d,0xc1,0xa6,0x3c,0xbe,0x9a,0xb1,0x1a,0xbe,0x32,0x5a,0x4d,0x3e,0x9c,0xc5,0x50,0x3e,0x78,0x2a,0xc6,0x3d,0xbc,0xce,0x56,0xbd,0xd8,0x04,0xdf,0x3d,0x1b,0x54,0x1d,0xbe,0xa4,0x4c,0x35,0xbe,0x4c,0x4c,0x89,0x3d,0xa0,0x2e,0xdc,0x3c,0x58,0xdd,0xf6,0x3c,0x02,0xce,0x3c,0xbe,0x49,0xa6,0xbf,0xbd,0x34,0x17,0x06,0x3d,0x80,0x3c,0x37,0xbd,0xc1,0xdd,0xae,0xbd,0x62,0xc2,0x0c,0xbe,0x72,0x77,0x34,0x3e,0x30,0x6a,0x0b,0xbe,0xe6,0xfb,0x39,0x3e,0xca,0x48,0x4b,0x3e,0x9c,0xff,0x24,0x3d,0xfc,0x90,0x35,0xbe,0x21,0xdb,0x2d,0xbe,0x4a,0xc4,0x3f,0x3e,0x84,0x90,0x14,0xbe,0xa2,0x0f,0x50,0xbe,0xde,0x62,0x33,0x3e,0x84,0xce,0xdb,0x3d,0xb7,0xa3,0xfd,0xbd,0x6d,0x79,0xd3,0xbd,0xc2,0xda,0x16,0xbe,0xc8,0x1e,0x17,0xbe,0x69,0xec,0xcf,0xbd,0x0c,0x63,0x13,0xbe,0x60,0x45,0xe8,0xbc,0xf0,0xc0,0x29,0x3e,0x04,0xb9,0x2c,0xbe,0x2a,0x2c,0x33,0xbe,0xf0,0x60,0x43,0xbc,0x20,0xe5,0x9b,0xbb,0xfc,0xb9,0x49,0x3e,0x78,0x31,0x4f,0x3e,0xa0,0xc3,0xc6,0xbb,0x1e,0xd3,0x92,0xbd,0x6a,0xb8,0x16,0x3e,0x60,0xd9,0x19,0x3c,0x00,0x0d,0xd7,0x3d,0xfa,0x66,0x3c,0x3e,0x00,0x43,0xaf,0x3d,0xc8,0xe7,0xa4,0x3d,0xbc,0xfd,0x07,0xbe,0x56,0xc4,0x0b,0x3e,0x97,0x52,0xd3,0xbd,0x8f,0xfb,0x2d,0xbe,0x02,0x37,0x41,0x3e,0x64,0xfc,0xaa,0x3d,0x0c,0xd6,0x29,0xbe,0xc6,0x30,0x11,0x3e,0x7c,0xba,0xb7,0x3d,0x1e,0x81,0x39,0x3e,0xdc,0x8f,0x2d,0xbe,0x40,0xae,0x46,0x3e,0x96,0x78,0x4a,0x3e,0x3c,0xf6,0x06,0xbe,0xe8,0xa6,0x3d,0xbe,0xe4,0x59,0xee,0xbd,0xc2,0xcc,0x05,0x3e,0x58,0x27,0xc5,0x3c,0x5c,0x11,0x0b,0x3e,0x58,0x69,0x03,0xbd,0x30,0x03,0x37,0xbc,0xae,0x6d,0x36,0xbe,0xe6,0xfd,0x3a,0x3e,0x0f,0xb1,0xd9,0xbd,0x62,0x34,0x1b,0x3e,0xa4,0x05,0x11,0xbd,0x9a,0xd9,0x07,0xbe,0x86,0xd4,0x39,0x3e,0x90,0x51,0x7c,0xbd,0x0f,0x6b,0xb8,0xbd,0xc0,0x21,0x0c,0x3e,0x6a,0x98,0x33,0x3e,0x14,0x3d,0x07,0x3e,0x18,0x53,0x39,0x3e,0x30,0x30,0x84,0x3d,0xac,0xef,0x33,0x3d,0xcc,0xec,0x8c,0x3d,0xe0,0x52,0x36,0xbe,0x28,0x3b,0x7c,0x3d,0x5c,0xf6,0xdb,0x3d,0xe0,0x10,0x5b,0x3d,0x63,0xe9,0x2f,0xbe,0xc0,0x71,0x08,0xbe,0x86,0x8f,0x04,0x3e,0xb4,0x67,0x0e,0x3e,0x8e,0x4d,0xdf,0xbd,0x80,0xda,0x0d,0xbb,0x82,0xcf,0xd6,0xbd,0xe3,0x17,0x3e,0xbe,0x38,0x65,0x88,0x3d,0xec,0x1e,0x48,0xbd,0x84,0x05,0xdc,0x3d,0xed,0xd6,0x4f,0xbe,0x58,0x1e,0x9e,0x3c,0xd0,0xc9,0x30,0x3c,0x3b,0xa9,0x20,0xbe,0x3a,0xae,0x1e,0x3e,0xa4,0x16,0x11,0x3d,0xfc,0xb1,0xcd,0xbd,0x38,0x63,0x93,0xbc,0x98,0x02,0x47,0x3e,0x78,0x5b,0x4b,0xbd,0x5d,0x1b,0xfb,0xbd,0x45,0x73,0xe8,0xbd,0x00,0x2c,0xb0,0xbb,0xf6,0x48,0xbb,0xbd,0x4a,0xb9,0xc1,0xbd,0xa3,0xa4,0x3c,0xbe,0xaf,0x75,0xbe,0xbd,0xa6,0xdf,0x02,0xbe,0xed,0x3c,0xdd,0xbd,0x48,0xed,0xf9,0xbc,0x00,0x6d,0x3c,0x3e,0x48,0x40,0x02,0x3e,0x28,0xc1,0x91,0x3d,0x00,0xe5,0x78,0x3b,0x14,0xf6,0xb4,0x3d,0x80,0x00,0xe4,0x3c,0x38,0x98,0xd4,0xbd,0x61,0x76,0x12,0xbe,0x6a,0xb8,0x2c,0x3e,0x22,0x34,0x8f,0xbd,0x00,0x04,0x2f,0x3e,0x72,0xe5,0x38,0xbe,0x68,0xa1,0x00,0xbd,0x4c,0xf7,0xef,0x3d,0xe8,0xa8,0xce,0x3c,0xbc,0xd8,0x35,0xbe,0x8c,0xac,0x0f,0xbe,0x8f,0xd3,0x3c,0xbe,0x90,0xc5,0x49,0x3e,0xe0,0xf2,0x9d,0xbd,0x86,0x57,0x08,0xbe,0x4c,0x7c,0x01,0xbe,0xcb,0xfc,0x20,0xbe,0x76,0x98,0x28,0x3e,0x90,0xe5,0x22,0x3c,0xf4,0x25,0x06,0x3e,0x18,0xab,0x84,0xbc,0xb0,0xa6,0x0f,0x3e,0x40,0x9b,0x7e,0x3b,0x42,0x0c,0x4a,0x3e,0x76,0xdc,0x22,0xbe,0xdc,0xd7,0xb6,0x3d,0xe8,0x4c,0x1e,0x3e,0xe0,0x4e,0x2a,0x3e,0xee,0x0a,0x37,0x3e,0x76,0xb2,0x0b,0x3e,0xdd,0x25,0x49,0xbe,0xd2,0xe9,0x07,0x3e,0x8c,0x80,0x80,0x3d,0x2c,0x03,0x7e,0xbd,0x7b,0x80,0x01,0xbe,0xf7,0x73,0xa5,0xbd,0x10,0x20,0xd0,0x3c,0xd8,0xdd,0x39,0x3d,0xb6,0xc5,0x1a,0x3e,0x00,0x0b,0x2c,0xbe,0x28,0x07,0xcd,0x3d,0xb4,0x10,0x1e,0xbe,0xf6,0x4a,0x0a,0x3e,0x74,0xb3,0x35,0x3d,0x57,0x8f,0x0b,0xbe,0xca,0x43,0x06,0xbe,0x13,0x92,0xc0,0xbd,0xae,0x02,0x0a,0x3e,0xc8,0x0b,0x9e,0x3d,0x10,0x99,0x99,0xbc,0x4c,0x8f,0x99,0x3d,0xc0,0x29,0xab,0xbd,0xa8,0x6c,0xce,0x3d,0x60,0x1f,0x93,0x3d,0x80,0x46,0x1b,0xbc,0x84,0x74,0xb9,0x3d,0xd8,0x2d,0xdd,0x3d,0xe2,0xfd,0x36,0xbe,0x18,0xc4,0x0f,0x3e,0x28,0x32,0x5c,0x3d,0x6a,0xbb,0x48,0x3e,0xba,0x8c,0xf3,0xbd,0xa0,0x1b,0x95,0x3d,0x80,0xff,0x18,0xbd,0xf4,0x85,0xc3,0x3d,0xa8,0xd3,0x42,0xbe,0x92,0x0c,0x82,0xbd,0x80,0xdb,0x95,0xbc,0x7c,0x37,0x12,0x3e,0x10,0x3f,0x3f,0xbe,0xc4,0x07,0x02,0x3e,0x30,0xcb,0x39,0xbe,0x00,0x68,0x6b,0xbc,0x30,0xc0,0xb0,0xbc,0x84,0x9f,0x8d,0x3d,0x96,0xeb,0xed,0xbd,0x33,0xea,0xf9,0xbd,0x68,0x8b,0x86,0x3d,0xc0,0xb5,0x85,0x3d,0x7b,0x61,0x3b,0xbe,0xd8,0x25,0xc7,0xbd,0x62,0x5a,0x22,0xbe,0x67,0x52,0x00,0xbe,0x26,0xd3,0x42,0xbe,0x0c,0xde,0x29,0x3e,0x2c,0xbe,0x46,0x3e,0x60,0x47,0x13,0xbc,0x70,0xd4,0xfb,0xbc,0xec,0xb9,0x13,0xbd,0x26,0x01,0x3b,0xbe,0x00,0xa7,0xf6,0xbd,0x15,0x88,0xf3,0xbd,0xd8,0x42,0x67,0xbd,0xa0,0x90,0xb8,0x3b,0xac,0x30,0x26,0x3d,0x26,0x71,0xc4,0xbd,0xd7,0xd1,0xad,0xbd,0x5e,0x6a,0x07,0xbe,0xdd,0x13,0x2e,0xbe,0x00,0x67,0x5c,0xbc,0x9a,0xdc,0xf8,0xbd,0xba,0x52,0x1e,0xbe,0xd6,0x3e,0x8c,0xbd,0xc8,0x12,0x58,0x3d,0x64,0x1e,0xd9,0x3d,0xe0,0x81,0xe3,0x3b,0x90,0xd9,0xcc,0x3d,0xe2,0xc8,0x91,0xbd,0xc0,0x6d,0x02,0x3b,0x8a,0x68,0x1e,0x3e,0x42,0xd3,0x8e,0xbd,0x5a,0x68,0x3a,0x3e,0xf0,0xa8,0x23,0xbd,0xfc,0x37,0x87,0x3d,0x88,0x20,0xb5,0x3c,0x94,0x40,0x25,0xbd,0x19,0x0e,0x04,0xbe,0x74,0x22,0x14,0xbe,0x20,0xab,0x56,0x3c,0x7c,0x9f,0x24,0x3e,0x3c,0xb9,0xdd,0x3d,0xca,0x1b,0x00,0x3e,0x68,0x3a,0x50,0x3e,0x0e,0xf7,0x28,0x3e,0x54,0xd1,0x36,0x3e,0xbe,0x02,0x32,0x3e,0xd0,0x87,0xdb,0x3d,0xca,0x0b,0x3e,0x3e,0xa0,0x70,0x35,0x3c,0xd8,0x8f,0x85,0xbd,0xc3,0x19,0x2c,0xbe,0xa2,0xba,0x4e,0x3e,0x56,0x5e,0x11,0x3e,0x48,0x84,0x21,0x3e,0x86,0x51,0x2e,0x3e,0x21,0x05,0xd2,0xbd,0xdc,0x97,0x02,0xbe,0x24,0x55,0x45,0x3e,0x30,0xad,0x49,0x3d,0x18,0x40,0x7e,0x3d,0xf8,0xe5,0x30,0xbd,0xa3,0xcd,0x41,0xbe,0xec,0xa9,0x1e,0x3e,0x12,0x8b,0x1f,0x3e,0xce,0x79,0x0b,0xbe,0xc6,0x9b,0x0e,0x3e,0x3c,0x00,0x4b,0xbe,0x80,0x89,0x9c,0xba,0x00,0xaa,0x77,0x3c,0x41,0x45,0xd9,0xbd,0xff,0xd8,0xcd,0xbd,0x80,0x84,0x37,0xbd,0x05,0xd9,0xb3,0xbd,0xb8,0x0e,0x93,0xbc,0x46,0x8f,0x35,0xbe,0x44,0x4d,0x63,0xbd,0xd8,0x21,0xda,0x3c,0x3c,0xd9,0xdb,0x3d,0x0c,0x3e,0x83,0x3d,0x30,0x14,0xef,0xbc,0xd9,0xaa,0x21,0xbe,0xc0,0xc9,0x3b,0x3e,0xf0,0x49,0x2d,0x3d,0x6d,0x7f,0x04,0xbe,0x08,0x97,0x69,0x3d,0xc4,0xbe,0xfb,0x3d,0x00,0xd9,0xc2,0x3d,0x4e,0x4e,0x94,0xbd,0x3d,0x87,0x1e,0xbe,0x80,0x5b,0x34,0xbd,0x69,0xca,0xe5,0xbd,0x9a,0xb1,0x2d,0x3e,0x1d,0x32,0xd2,0xbd,0x85,0x00,0xf3,0xbd,0xcd,0xc5,0xfe,0xbd,0xa8,0x39,0xad,0xbc,0x80,0x4c,0x8a,0xbb,0xb8,0x8b,0x1c,0xbe,0xa8,0xa2,0x71,0xbd,0x90,0x0e,0x98,0xbc,0xdf,0x3e,0x44,0xbe,0x80,0xb0,0xfc,0x3d,0xee,0x4a,0xb0,0xbd,0x32,0x09,0x13,0x3e,0x9c,0x85,0xac,0x3d,0xe8,0x11,0xf8,0xbd,0xc6,0x01,0x4d,0xbe,0x70,0x92,0x30,0x3e,0xe4,0x90,0x3e,0x3e,0x1c,0xe8,0x1c,0xbd,0x57,0x74,0xd6,0xbd,0xe8,0x02,0xbf,0x3d,0xd8,0x1b,0x47,0x3e,0xd0,0x36,0xec,0x3d,0x50,0x63,0x6a,0xbd,0xd1,0x8e,0xfd,0xbd,0x30,0x89,0xa2,0xbc,0xec,0x3e,0x51,0xbd,0xb2,0xec,0x8d,0xbd,0x8a,0x7a,0x08,0xbe,0x30,0xc9,0xac,0xbc,0xc8,0xba,0xa1,0x3d,0x10,0x73,0xb1,0x3d,0x07,0xee,0x47,0xbe,0x92,0x38,0x1b,0x3e,0xbf,0x5a,0x32,0xbe,0xf0,0x00,0x29,0xbd,0x14,0xd0,0xf6,0xbd,0x7a,0xc2,0x94,0xbd,0xac,0x9f,0x29,0x3e,0xdc,0x27,0x99,0xbd,0x35,0xb7,0x14,0xbe,0xb8,0xaf,0x5d,0x3d,0x08,0x3d,0x9d,0x3d,0xd0,0x77,0xe0,0x3c,0x52,0x9a,0x3b,0x3e,0x92,0xc1,0x0f,0x3e,0x88,0x5d,0xc3,0x3d,0xe6,0xcb,0xec,0xbd,0xcc,0x9d,0xeb,0x3d,0xc0,0xb5,0xda,0x3d,0xcc,0x33,0x0e,0xbe,0x78,0x5e,0x83,0xbc,0x80,0xa6,0x06,0x3e,0x20,0x7d,0x4e,0xbe,0x2c,0x4a,0x21,0x3e,0x60,0xa3,0xe8,0xbc,0x48,0xf6,0x5d,0x3d,0x74,0x22,0x30,0xbe,0x4c,0x91,0x17,0xbd,0x8c,0xea,0xba,0x3d,0x00,0x6a,0xea,0x3d,0xb0,0x39,0x62,0x3c,0x3d,0xc3,0x0b,0xbe,0x60,0x4e,0xe5,0xbb,0x16,0xbf,0x1b,0x3e,0xdc,0xf8,0x06,0xbd,0x07,0x6f,0xea,0xbd,0x40,0x50,0x75,0xbc,0x72,0x34,0x3f,0x3e,0x08,0xff,0x23,0x3d,0xf8,0x8c,0xc6,0xbc,0x1a,0xdd,0x49,0x3e,0xc8,0x3a,0x0b,0x3d,0x38,0x58,0x4a,0x3e,0xc5,0x68,0xac,0xbd,0xa0,0xbb,0xd1,0x3d,0x68,0x74,0xd7,0x3d,0x84,0xcf,0xc7,0x3d,0xf4,0x44,0x8d,0xbd,0xf0,0x0c,0x11,0x3d,0x33,0xec,0xed,0xbd,0x50,0xb0,0x3f,0xbe,0x1a,0xb0,0xe7,0xbd,0x2c,0x36,0x2c,0x3e,0x07,0xa8,0x26,0xbe,0x45,0x97,0x4d,0xbe,0xc5,0x7a,0x3b,0xbe,0x42,0xa7,0x3b,0x3e,0x38,0xf8,0x04,0x3e,0xa6,0xa0,0x2c,0xbe,0xe0,0x17,0xa0,0x3d,0x80,0xd2,0x43,0x3d,0x1e,0xde,0x22,0x3e,0x12,0x51,0x2b,0x3e,0x18,0x73,0xa6,0xbd,0x36,0x57,0x24,0xbe,0x54,0x54,0x1c,0x3e,0xe0,0xd1,0xe2,0x3c,0xc8,0x74,0x76,0xbd,0xfe,0x39,0xa6,0xbd,0x2c,0xb8,0xe2,0x3d,0x5a,0x08,0xf4,0xbd,0x08,0xd2,0x04,0xbd,0xe2,0x2e,0x44,0x3e,0x80,0x92,0x77,0xbc,0xce,0x50,0xee,0xbd,0x2b,0x38,0x4f,0xbe,0x74,0xd8,0x33,0xbd,0xf0,0x95,0x1a,0x3c,0x28,0xae,0xaa,0x3d,0xec,0x68,0x11,0xbe,0xee,0x28,0x43,0x3e,0x20,0xc2,0xc3,0x3b,0xc0,0xb5,0x36,0x3e,0xe6,0x1a,0x3a,0x3e,0xa0,0x29,0x21,0x3d,0x1a,0x60,0x2b,0x3e,0xd0,0xda,0x94,0xbc,0x1c,0xe5,0x27,0x3e,0x1c,0x0d,0x36,0xbd,0x00,0x5f,0x34,0x3e,0x40,0xbb,0xce,0x3d,0x70,0x2e,0xfc,0xbc,0x2c,0xca,0x2d,0x3e,0x34,0x49,0x38,0x3e,0x1c,0x20,0x8d,0xbd,0x14,0xc7,0x9a,0x3d,0x30,0xd1,0x26,0x3e,0x68,0x81,0x75,0x3d,0xc8,0x1f,0xb3,0xbc,0xc0,0x91,0x4c,0xbe,0xf8,0xf1,0x06,0xbd,0x7c,0xed,0x97,0x3d,0x38,0x1f,0x1d,0x3d,0xcc,0xe2,0xce,0x3d,0xe4,0x78,0x48,0xbd,0x96,0x62,0xa6,0xbd,0xa7,0x4d,0x01,0xbe,0xd4,0x9a,0x2c,0x3e,0x0e,0xbb,0x0a,0x3e,0x20,0x6f,0x42,0x3e,0x66,0x55,0xa5,0xbd,0x50,0xce,0x8b,0xbd,0x18,0x94,0xe3,0xbc,0xd8,0x17,0xc8,0x3c,0x76,0xdf,0xaf,0xbd,0x52,0x09,0x47,0x3e,0x58,0xee,0x0c,0xbe,0xd0,0x89,0x96,0xbc,0x34,0xcf,0x0c,0xbd,0xe0,0xc4,0x91,0x3d,0xfc,0x30,0xb0,0x3d,0x80,0xd3,0x7b,0x3d,0x20,0xe9,0xe4,0x3b,0xe8,0xe2,0xf6,0x3d,0xa8,0xfb,0xa7,0x3c,0x3f,0xa1,0x2d,0xbe,0xba,0x61,0xfe,0xbd,0x96,0x12,0x4d,0x3e,0x88,0xa8,0x74,0xbd,0x1e,0x59,0x3a,0xbe,0x18,0xdf,0x9f,0x3c,0xfa,0x9a,0x38,0x3e,0x40,0x8b,0x18,0xbd,0xe8,0x4f,0x1f,0x3e,0x34,0x39,0x21,0xbe,0xe6,0x69,0x2f,0xbe,0xf0,0x03,0x6b,0x3c,0x0d,0x41,0xbb,0xbd,0xf4,0xd1,0x22,0xbd,0x66,0xad,0x3c,0x3e,0x64,0xf9,0x26,0x3d,0xbe,0xf8,0x23,0x3e,0x65,0xad,0xf9,0xbd,0x18,0x61,0x3c,0xbd,0x50,0x34,0x32,0x3c,0x10,0x95,0xd2,0x3d,0x24,0xda,0x4f,0x3e,0x48,0x8e,0x42,0xbe,0xde,0xe0,0x01,0x3e,0xb8,0xb6,0x4b,0x3d,0x60,0x0e,0x40,0x3c,0xdc,0x25,0x6e,0xbd,0x17,0x24,0x25,0xbe,0xa0,0xd8,0xf0,0x3c,0x51,0x1a,0x33,0xbe,0x5c,0xda,0x4a,0xbd,0x88,0x80,0x4f,0x3e,0xd8,0x68,0xaf,0x3d,0x0b,0xd3,0x30,0xbe,0xb0,0x7a,0x60,0xbc,0x7b,0x29,0x10,0xbe,0x2a,0x4d,0x03,0x3e,0x30,0x69,0x66,0x3d,0xfe,0x9f,0x1d,0x3e,0x2c,0x03,0x87,0x3d,0x28,0xa4,0xd3,0xbc,0x80,0x58,0xbf,0xbc,0xec,0x86,0x96,0x3d,0xa0,0x2c,0xa1,0xbc,0xe0,0x05,0x2b,0xbd,0xa8,0xf5,0xc2,0x3d,0x8a,0x68,0x04,0x3e,0xbc,0xa9,0x91,0x3d,0x38,0xf3,0xdc,0xbc,0x80,0x10,0x44,0x3d,0x44,0x27,0x0a,0x3e,0x20,0x92,0xcb,0x3c,0x96,0x33,0x18,0xbe,0x6c,0x21,0x45,0xbe,0x04,0xdc,0x13,0xbe,0x20,0xc2,0xde,0x3b,0x16,0x87,0x8f,0xbd,0x36,0x22,0x41,0x3e,0x98,0xe6,0xc3,0x3d,0x03,0x6d,0xfc,0xbd,0x8e,0x44,0x15,0x3e,0x48,0xfe,0xab,0x3c,0xdf,0x66,0xcb,0xbd,0xe0,0x41,0x7b,0xbd,0x74,0x71,0xe7,0x3d,0x6e,0x08,0x24,0x3e,0x4a,0x71,0x44,0xbe,0xb8,0x66,0xa4,0x3d,0x7c,0x73,0xf6,0xbd,0x96,0xb5,0x06,0x3e,0xae,0x67,0x41,0xbe,0x4e,0x1b,0x1a,0xbe,0x68,0x04,0xa9,0x3d,0x00,0xac,0x25,0xbe,0xd8,0xf6,0xa9,0x3d,0x9a,0xd0,0x2d,0xbe,0x14,0xcb,0x74,0xbd,0x6c,0xf1,0x94,0xbd,0x0e,0x4c,0x81,0xbd,0x00,0x8d,0x28,0xbc,0x8c,0x8c,0xfd,0xbd,0xb9,0x40,0x1a,0xbe,0xe7,0x4c,0x37,0xbe,0xe0,0x70,0xfb,0x3b,0x28,0x3f,0x06,0x3d,0x92,0x81,0x36,0xbe,0x44,0x4c,0xb5,0x3d,0x00,0xb7,0x46,0x3b,0x52,0xc6,0x48,0x3e,0xe9,0xfe,0xe1,0xbd,0x40,0x55,0xa3,0x3d,0x02,0x36,0x2c,0xbe,0x76,0x5d,0x01,0x3e,0x48,0x1b,0xf4,0x3d,0xb8,0x3b,0x1e,0x3d,0x5a,0x44,0x0a,0x3e,0x70,0xcf,0x6c,0xbc,0x40,0x71,0x16,0x3e,0x30,0xef,0xf2,0x3d,0x84,0x13,0x49,0xbd,0xc4,0xd4,0x17,0x3d,0x5a,0x81,0x04,0xbe,0x5c,0x1f,0x59,0xbd,0xe0,0x07,0xb8,0x3b,0x84,0xa4,0xe7,0xbd,0xd4,0xbb,0x4a,0xbe,0x24,0x95,0xa2,0x3d,0xdd,0x3d,0x31,0xbe,0x9c,0x9f,0x00,0xbe,0x70,0xc9,0x9d,0x3d,0x2a,0x3f,0x40,0xbe,0x59,0xd2,0x2a,0xbe,0x88,0xe2,0xd0,0xbd,0xf4,0x9e,0x96,0x3d,0x72,0x1b,0x2c,0x3e,0x04,0x1a,0xe0,0x3d,0x50,0x73,0xa9,0x3d,0x50,0x74,0x69,0x3c,0xea,0x58,0xd4,0xbd,0x23,0x54,0xd6,0xbd,0xa8,0x0a,0xb7,0x3d,0x9a,0x55,0xa5,0xbd,0xda,0x1b,0x00,0xbe,0xf0,0xa5,0xb5,0xbc,0x48,0x0a,0x5d,0x3d,0x04,0xda,0x4e,0xbe,0xb8,0x8e,0xe5,0xbc,0x64,0x96,0x93,0x3d,0x04,0x48,0xfd,0x3d,0x70,0x0e,0x6b,0x3d,0x00,0xc0,0xfc,0x3a,0xc0,0x4d,0xc4,0xbb,0xa4,0x02,0xe6,0x3d,0x0e,0xb2,0x2a,0x3e,0x60,0x2e,0xb0,0x3d,0x75,0x94,0xaa,0xbd,0xdc,0xd5,0x2e,0x3e,0x30,0x0a,0x36,0xbc,0x15,0xdd,0x11,0xbe,0x98,0xb5,0xd4,0x3d,0x90,0x6f,0xea,0xbc,0xd8,0xf5,0x49,0x3e,0x85,0xdf,0x47,0xbe,0xff,0x5a,0x26,0xbe,0x2a,0xd5,0x39,0x3e,0x66,0x9a,0x06,0x3e,0xec,0x29,0x80,0xbd,0xd0,0x25,0xcf,0x3c,0xd8,0x22,0x95,0xbd,0x11,0x9e,0x45,0xbe,0x50,0x26,0x75,0x3d,0x6c,0x9c,0x34,0xbd,0xbc,0xab,0x5d,0xbd,0xfb,0x92,0x1c,0xbe,0xe0,0x3e,0x76,0xbc,0xcc,0x9c,0xb5,0x3d,0xa4,0x16,0xa1,0xbd,0xfc,0x31,0xbe,0x3d,0x06,0xc6,0x2a,0xbe,0xa0,0x72,0xc7,0x3d,0x38,0xab,0xab,0xbc,0x6a,0x6a,0x29,0x3e,0x74,0x57,0xa9,0x3d,0xd4,0x37,0x79,0xbd,0x88,0x8f,0xbb,0x3d,0x34,0x25,0x07,0xbd,0xe7,0x49,0xfc,0xbd,0x88,0x06,0x24,0xbd,0x98,0x0e,0xf9,0xbc,0xc9,0x9e,0x0d,0xbe,0x10,0xb7,0x8a,0xbc,0x4e,0xea,0xca,0xbd,0x10,0x66,0xa4,0xbd,0x1a,0x70,0x0d,0x3e,0x50,0x13,0x2a,0xbe,0xae,0x06,0xef,0xbd,0x0a,0x17,0x20,0xbe,0x1d,0xce,0x45,0xbe,0xbe,0x60,0x4a,0x3e,0xfc,0x07,0x1c,0xbd,0x40,0x44,0x76,0xbd,0x14,0x3f,0xb3,0x3d,0x80,0xd9,0x8c,0xbc,0xc8,0x1d,0xb7,0x3d,0xf0,0x37,0x4f,0x3d,0x0c,0x75,0x23,0xbd,0xa4,0x8b,0x0a,0xbe,0xa6,0xf2,0x46,0xbe,0xc0,0x48,0xc7,0xbc,0xf2,0xbe,0x16,0x3e,0xd2,0xfb,0x41,0xbe,0x6e,0x35,0x0d,0x3e,0x1e,0x55,0x45,0xbe,0x62,0x02,0xaa,0xbd,0xa4,0xd0,0x1a,0x3d,0xba,0x17,0x80,0xbd,0x54,0x72,0x37,0xbd,0x5d,0x2b,0xe0,0xbd,0xe2,0x42,0x34,0x3e,0x70,0xc8,0x29,0x3e,0x48,0x67,0x46,0x3e,0xd2,0x1d,0xcc,0xbd,0x74,0xa9,0xf7,0x3d,0xb4,0xbc,0xd5,0x3d,0xcd,0xc5,0xd9,0xbd,0x5c,0xec,0x45,0x3e,0x90,0x84,0x32,0xbc,0xcc,0x33,0x1b,0x3e,0x12,0x1c,0x4b,0x3e,0x80,0x3d,0xf3,0xbc,0xd4,0xe3,0x09,0x3e,0x1d,0x48,0x22,0xbe,0x24,0x64,0x3d,0x3e,0xd4,0x01,0x0b,0x3d,0x9a,0xa4,0x3e,0x3e,0xf8,0xfe,0x61,0x3d,0x01,0xef,0xed,0xbd,0x24,0x7a,0x41,0x3e,0x87,0x22,0xbe,0xbd,0x30,0xf4,0x8b,0xbc,0x5e,0xb8,0xf9,0xbd,0x27,0x03,0xb2,0xbd,0x48,0xc0,0x9f,0xbc,0x3b,0xfa,0x12,0xbe,0xaa,0xb7,0x35,0x3e,0x84,0x06,0x90,0x3d,0x9c,0x0e,0xc2,0x3d,0xa2,0x83,0x49,0x3e,0x6e,0x66,0x21,0xbe,0x0e,0x2f,0x36,0x3e,0x24,0xe5,0x0f,0x3e,0xb0,0x91,0x61,0xbc,0xa0,0x51,0x04,0x3e,0xb2,0x73,0x0f,0x3e,0x15,0x7f,0x0d,0xbe,0x90,0x10,0x66,0xbc,0x52,0x86,0x3e,0x3e,0xc0,0xc1,0x44,0x3b,0x80,0xcb,0x28,0xbb,0x20,0x4b,0x8f,0x3d,0xc0,0x8e,0xb1,0xbb,0x66,0x7c,0xb3,0xbd,0x00,0x68,0xeb,0x3d,0x28,0x71,0xc8,0x3d,0x76,0x6e,0x3a,0x3e,0xf8,0x85,0x03,0x3d,0xe8,0x4a,0xd4,0x3d,0x2e,0x4d,0x0a,0xbe,0xf8,0xbd,0x40,0x3d,0x76,0x22,0x3e,0x3e,0x1a,0x27,0x2e,0x3e,0x5a,0x9a,0x47,0x3e,0x94,0x5d,0xbb,0x3d,0x00,0x6d,0x55,0x3d,0x7c,0x6c,0xce,0x3d,0x78,0x1d,0x7a,0x3d,0xe6,0x87,0x1f,0xbe,0xd0,0x9b,0x31,0x3c,0x7a,0x71,0x99,0xbd,0x5a,0x40,0x47,0x3e,0x4e,0xbe,0x09,0x3e,0x7c,0xcd,0xd9,0x3d,0x00,0x15,0xc1,0x3d,0x3a,0x0d,0x2e,0x3e,0x34,0x05,0x75,0xbd,0x8f,0xa7,0xf7,0xbd,0x3c,0xab,0xa4,0xbd,0xb4,0xf9,0x71,0xbd,0xd9,0x3c,0xa6,0xbd,0x06,0x24,0x02,0xbe,0x08,0x1b,0x0f,0xbd,0x28,0xaa,0xde,0xbd,0x90,0x76,0x08,0x3e,0xdc,0x36,0x14,0x3d,0x2c,0xaa,0x06,0x3d,0x50,0xfd,0xb9,0x3d,0xd0,0xe9,0x98,0x3c,0xe2,0x88,0x19,0xbe,0xbe,0xa9,0x2d,0x3e,0x72,0xd4,0x07,0xbe,0x94,0x01,0x36,0x3d,0x1a,0xf2,0x06,0xbe,0x88,0xe3,0x79,0x3d,0x92,0x67,0x03,0x3e,0x53,0x55,0xd2,0xbd,0x74,0xe4,0xdd,0x3d,0x88,0x33,0x3e,0x3d,0x2c,0xe9,0x61,0xbd,0x20,0xf1,0x80,0xbc,0xd4,0x75,0x4e,0xbe,0x80,0xe8,0x87,0x3b,0x80,0xea,0x53,0x3c,0x48,0x4e,0xec,0x3d,0x24,0x01,0xae,0x3d,0x0a,0x07,0x20,0x3e,0x65,0x79,0xc3,0xbd,0xa8,0xf4,0x03,0x3d,0xb6,0x95,0x45,0xbe,0x32,0x13,0x25,0x3e,0x98,0x60,0x38,0xbd,0x4a,0xdd,0x4b,0xbe,0x06,0x78,0x13,0xbe,0x0c,0xec,0xc7,0xbd,0xb8,0xb5,0xb3,0x3c,0x38,0xa6,0x2b,0xbd,0x55,0x35,0xab,0xbd,0xd2,0x82,0x11,0xbe,0xa0,0x87,0x24,0x3e,0xd8,0xd1,0x1b,0x3d,0xf4,0xb5,0x27,0x3e,0xa0,0x9d,0x8d,0x3b,0x60,0xaa,0xc1,0x3c,0x94,0xbc,0x43,0x3e,0x0c,0xb0,0x0f,0xbd,0x56,0xd3,0x50,0xbe,0xd0,0x22,0x20,0x3e,0x3d,0xa8,0x44,0xbe,0x61,0xff,0x50,0xbe,0xac,0xfd,0xd4,0x3d,0x16,0x7b,0x24,0x3e,0x18,0x7f,0x1c,0x3d,0xd4,0x43,0x3f,0xbd,0x4d,0x77,0x23,0xbe,0x10,0x1d,0x63,0x3c,0xa8,0x39,0x31,0x3d,0xa4,0xbb,0x36,0xbe,0xd0,0x6c,0x8b,0x3d,0x20,0x37,0xc4,0xbd,0x72,0x39,0x40,0x3e,0xd4,0x9a,0x04,0xbe,0x8d,0x90,0x1e,0xbe,0x60,0xa1,0x04,0xbe,0x49,0x5e,0xa2,0xbd,0x9c,0x85,0x40,0x3e,0x28,0xec,0x36,0x3e,0xc4,0x01,0x10,0x3e,0x9e,0x34,0x24,0x3e,0x72,0x76,0x44,0x3e,0xe9,0x2d,0x4f,0xbe,0x3a,0x0b,0x4c,0x3e,0x40,0x58,0xa9,0xbb,0x70,0x1f,0x6e,0x3d,0x94,0xc5,0x8d,0x3d,0x92,0x8e,0x1f,0x3e,0x2c,0x29,0x8d,0xbd,0x20,0xb5,0x00,0xbc,0x84,0x80,0xa9,0x3d,0x0e,0xc4,0x14,0x3e,0x39,0xe5,0x39,0xbe,0x71,0x75,0x1d,0xbe,0xbc,0x87,0x47,0x3e,0x98,0x8c,0x4f,0x3d,0xe0,0x5a,0x0f,0xbd,0x78,0x04,0xa2,0x3d,0xf0,0x18,0x00,0x3e,0xa4,0x00,0xf5,0xbd,0x72,0xd8,0x93,0xbd,0xb0,0x17,0x50,0x3c,0x14,0x50,0x06,0x3e,0x10,0x0a,0x3c,0x3e,0x26,0xc9,0x20,0x3e,0x69,0xa5,0x14,0xbe,0x40,0x1a,0x59,0x3d,0xb1,0x71,0x34,0xbe,0x2c,0xa9,0x4c,0x3e,0x58,0xfa,0x2a,0xbd,0x60,0x6b,0xf4,0x3b,0x40,0x99,0x46,0x3e,0x6c,0xef,0x96,0x3d,0x94,0x6a,0xb8,0x3d,0x18,0x3b,0x19,0xbd,0x41,0xa6,0xd4,0xbd,0x81,0xad,0xe5,0xbd,0xa0,0x0a,0x66,0x3d,0x4a,0x4a,0x2d,0xbe,0xb2,0xae,0x32,0x3e,0x2e,0x63,0xad,0xbd,0x68,0x04,0xc9,0x3c,0x44,0x69,0x0b,0xbd,0x68,0xb3,0x3e,0xbd,0x74,0x9b,0xa0,0x3d,0x2c,0xbf,0xa3,0x3d,0x10,0xad,0xcf,0x3c,0x2d,0x56,0x4a,0xbe,0x76,0x7c,0x1c,0xbe,0x40,0xd7,0x1a,0x3b,0x38,0x12,0xd4,0x3d,0x88,0x68,0x1e,0xbd,0x4f,0xed,0x3b,0xbe,0xcc,0x75,0x95,0xbd,0x34,0x92,0x14,0x3d,0x94,0xc9,0xbb,0x3d,0x2c,0xda,0x58,0xbd,0xba,0x87,0x4f,0xbe,0x4c,0x2d,0x5b,0xbd,0x28,0x24,0x20,0x3e,0x70,0xb0,0x07,0x3c,0x05,0x81,0x09,0xbe,0x4e,0x14,0x07,0x3e,0xc4,0x1c,0x1d,0x3e,0x39,0x0b,0xca,0xbd,0x0b,0x9e,0xad,0xbd,0x0c,0xb0,0x97,0x3d,0x98,0xe2,0xb4,0x3c,0xd4,0x3e,0x88,0x3d,0x5c,0x26,0x2f,0xbe,0x72,0x3f,0xa9,0xbd,0xc8,0xbd,0xac,0x3d,0xd0,0xb3,0x10,0x3c,0x36,0x8e,0x2d,0xbe,0x60,0xe8,0xd1,0x3d,0xa4,0xa3,0x55,0xbd,0x80,0xa4,0xc4,0xba,0xa8,0x4c,0x5a,0x3d,0x58,0x9a,0x93,0x3d,0x8c,0xa9,0x30,0xbd,0x00,0x1b,0x66,0x3d,0x85,0x0e,0x48,0xbe,0x61,0x5b,0x3d,0xbe,0x64,0x83,0xc4,0x3d,0x36,0xda,0x43,0x3e,0x28,0x01,0x41,0xbe,0x2e,0x6a,0x01,0x3e,0xb9,0x2c,0xdd,0xbd,0x88,0xfe,0xbd,0x3d,0x06,0x00,0xd3,0xbd,0x0f,0x35,0x1b,0xbe,0x1e,0xbb,0x29,0x3e,0x2f,0x0f,0xa4,0xbd,0x86,0x59,0x31,0x3e,0xd4,0x70,0x33,0xbe,0x64,0x66,0xcc,0x3d,0x4f,0xc1,0x03,0xbe,0x94,0x4d,0xbc,0x3d,0x1f,0x46,0x1a,0xbe,0x5a,0x22,0x2a,0xbe,0x78,0x95,0xcc,0x3c,0xa0,0xd0,0x10,0x3c,0xa0,0x0d,0xb6,0xbc,0xa8,0xd7,0xa2,0x3d,0x78,0xed,0x96,0x3d,0x04,0xfc,0x52,0xbd,0x52,0x60,0x88,0xbd,0x60,0x9a,0x54,0x3d,0xcc,0x76,0xf8,0xbd,0xb8,0xe5,0xac,0x3d,0xb4,0x2e,0x1c,0xbe,0x94,0x36,0x00,0x3e,0x00,0xc2,0xf6,0x3c,0x15,0xbc,0x46,0xbe,0xa8,0x8b,0xaa,0xbd,0x6a,0xaa,0x2e,0xbe,0x8e,0xa8,0x12,0xbe,0x2a,0x76,0xad,0xbd,0xbc,0x7c,0x11,0x3e,0x00,0x8f,0xf7,0x3a,0xf6,0x3a,0xe6,0xbd,0x07,0x6a,0x1c,0xbe,0x58,0xfc,0xd6,0x3d,0x38,0x8e,0x34,0xbe,0x90,0x3a,0x27,0xbe,0x7c,0x60,0x91,0x3d,0x70,0xa9,0x07,0x3e,0xa4,0xfe,0x8c,0x3d,0xb4,0x50,0xd3,0xbd,0x4b,0x19,0xc6,0xbd,0x6e,0xb7,0x36,0x3e,0x58,0x29,0xb8,0xbc,0xa8,0xfe,0x61,0x3d,0xe0,0x22,0xc4,0x3c,0x92,0x89,0x3a,0x3e,0x7a,0x0d,0x16,0x3e,0xa4,0x5d,0x6e,0xbd,0x9c,0x5d,0x08,0x3e,0x68,0x03,0x4c,0x3d,0xa0,0x91,0x2c,0x3d,0xe0,0xd3,0x2e,0xbc,0xde,0x60,0x44,0x3e,0x1f,0x63,0x10,0xbe,0x45,0xaf,0xf5,0xbd,0x34,0x89,0xa2,0x3d,0x6c,0xc8,0xd3,0x3d,0x6c,0xc1,0x8d,0xbd,0x50,0x87,0xda,0x3d,0xf4,0xf9,0xc9,0x3d,0x20,0xf3,0x25,0xbc,0x9c,0x07,0x02,0xbe,0x58,0xd2,0x95,0x3d,0x84,0x82,0x27,0x3e,0xd4,0x4b,0x9d,0x3d,0xd8,0x5f,0x2e,0x3e,0x87,0x18,0x0b,0xbe,0x12,0x2c,0x1a,0x3e,0x90,0x44,0x11,0xbe,0x17,0xd7,0x46,0xbe,0x10,0xd6,0x27,0xbc,0xd8,0x11,0xa0,0xbd,0xac,0x06,0x83,0x3d,0x18,0x71,0x18,0x3e,0x5c,0x01,0x35,0xbd,0xb0,0xd1,0x58,0xbd,0x7c,0x93,0xc9,0x3d,0x6a,0x1b,0xe1,0xbd,0xe4,0x61,0xb0,0x3d,0x54,0xd3,0x07,0x3d,0xbb,0x68,0x4c,0xbe,0xac,0x9f,0x2d,0x3d,0x70,0xb0,0x15,0xbc,0x60,0x2f,0x4a,0x3c,0xd8,0x7c,0xe3,0x3d,0x20,0x3a,0xb5,0x3b,0xc0,0x46,0x8e,0x3b,0x81,0xe4,0x1b,0xbe,0x24,0xc3,0x25,0x3e,0xf2,0xcc,0x90,0xbd,0x00,0xd9,0x4e,0x3b,0x68,0xcf,0x75,0x3d,0x08,0xae,0x0a,0xbd,0x60,0x03,0x9c,0x3b,0x24,0xda,0xab,0x3d,0x80,0x95,0x0e,0xbb,0xb4,0xe3,0x03,0x3e,0x6f,0x07,0x45,0xbe,0x90,0x49,0x83,0x3c,0xca,0xd0,0x33,0x3e,0x2d,0x5f,0xbf,0xbd,0xa4,0xa5,0x0b,0xbe,0x18,0xf7,0x32,0xbe,0x4a,0x5f,0x31,0xbe,0x90,0x3a,0x66,0x3d,0xc0,0x39,0xf0,0xbb,0x50,0xb1,0x84,0xbc,0x8a,0xbc,0x2b,0x3e,0x56,0x23,0x4a,0xbe,0xf0,0xea,0xf0,0xbd,0x10,0x03,0x35,0xbc,0x58,0x82,0xea,0xbd,0xc0,0x26,0x7d,0x3d,0x98,0xe3,0x02,0xbd,0xc8,0x0e,0x1d,0x3e,0x0c,0xe2,0xf6,0x3d,0xd8,0x9a,0x9e,0xbd,0x3c,0x11,0x1b,0xbe,0x68,0x97,0xe5,0x3c,0xc8,0xf6,0x2f,0xbd,0x58,0xd6,0x71,0xbd,0xb8,0xbf,0x6e,0xbd,0x28,0xfd,0x3a,0xbd,0xb8,0x89,0x85,0xbd,0x9c,0xab,0x02,0x3d,0xe4,0x77,0x14,0x3e,0xd8,0x75,0x3b,0xbd,0xd8,0xc9,0x48,0x3e,0x18,0xdf,0xc2,0x3d,0x28,0x2e,0x1e,0x3d,0x58,0xc0,0xab,0xbc,0x3c,0xae,0x30,0xbd,0x8c,0x49,0x44,0xbe,0xf2,0x36,0x86,0xbd,0x40,0x36,0x1c,0x3b,0xf0,0xcc,0x41,0xbd,0x42,0xb9,0x1f,0xbe,0xc0,0xc7,0xcd,0x3d,0x88,0x3a,0x45,0x3d,0x80,0x04,0x7a,0x3d,0x42,0x4a,0x98,0xbd,0x50,0x14,0x3f,0xbc,0x36,0xd1,0xcf,0xbd,0x3b,0xdb,0x24,0xbe,0x1d,0x73,0x20,0xbe,0xee,0xa8,0x82,0xbd,0xa0,0x25,0xea,0x3d,0x24,0x0c,0x50,0x3e,0xc0,0x9d,0x66,0xbd,0x78,0xf5,0x1b,0x3e,0xb2,0x83,0x22,0x3e,0x32,0x02,0xed,0xbd,0x58,0x41,0xb5,0x3d,0x58,0x05,0x46,0x3e,0xfc,0x4f,0x50,0x3e,0x56,0x48,0xed,0xbd,0x34,0x34,0xda,0x3d,0xc0,0xd5,0x4b,0xbe,0x10,0x90,0xe6,0x3d,0xec,0x3e,0x07,0xbd,0x89,0xc0,0x21,0xbe,0x50,0xa1,0x96,0x3c,0x58,0x6f,0x70,0xbd,0x7e,0x23,0x24,0xbe,0xf2,0xcc,0x4c,0xbe,0x09,0x48,0xeb,0xbd,0x47,0x70,0x2a,0xbe,0x50,0x40,0x4d,0x3e,0x3c,0x81,0x4a,0x3e,0xfc,0x81,0xea,0xbd,0x00,0x1b,0x68,0x3d,0x87,0x9c,0x31,0xbe,0xac,0x89,0x36,0xbe,0x50,0xf7,0x13,0xbc,0xc0,0xe8,0x9f,0x3b,0x98,0x93,0xeb,0x3d,0x10,0xca,0x5d,0x3d,0xec,0x10,0xe2,0x3d,0xdb,0xfe,0x1d,0xbe,0x04,0x1e,0x09,0xbe,0xf4,0x2a,0x0d,0x3e,0xcc,0xd9,0x13,0x3e,0x00,0x24,0x4e,0xbe,0x40,0x50,0x98,0x3b,0xe4,0x48,0x03,0xbe,0x54,0x8d,0x25,0x3d,0x00,0xe8,0x7c,0xbd,0x50,0x40,0x0d,0x3e,0x4c,0x30,0x4b,0x3e,0xa5,0x5d,0x08,0xbe,0x20,0x41,0x3d,0xbd,0xa0,0x35,0x26,0x3e,0x2e,0x43,0x2a,0xbe,0x8b,0x57,0xf6,0xbd,0x7d,0xd6,0xa3,0xbd,0x40,0x0a,0x3a,0x3c,0xce,0xd8,0xc9,0xbd,0x80,0x9e,0x44,0xbb,0x20,0x1e,0x93,0x3d,0x28,0x35,0x4e,0xbd,0x4b,0xee,0xd1,0xbd,0xd6,0x6f,0x4d,0xbe,0xe8,0xf5,0xaf,0x3d,0x28,0x0f,0xbd,0x3c,0xb8,0x38,0xf6,0x3c,0x32,0x56,0x27,0xbe,0x28,0x27,0xf3,0x3c,0xe0,0x0f,0x3a,0x3e,0x98,0x56,0xa5,0x3d,0x2d,0x55,0x4b,0xbe,0x92,0xad,0xdf,0xbd,0xf8,0x0a,0x8c,0x3d,0x5c,0xda,0x89,0x3d,0x90,0x70,0xb1,0x3d,0xe4,0x7a,0xab,0x3d,0x0e,0x23,0x29,0x3e,0x80,0xc4,0x98,0x3b,0xb5,0x60,0xbe,0xbd,0x72,0xfe,0x4b,0x3e,0x00,0xf5,0x7d,0xba,0x98,0x85,0xa6,0xbd,0x4c,0x59,0x15,0x3e,0x20,0x1d,0x28,0x3e,0x1c,0x8e,0xa9,0xbd,0xfc,0xf6,0x84,0x3d,0x30,0x2f,0xd7,0x3c,0xe0,0xa5,0xe6,0x3c,0x30,0xf9,0xfd,0x3d,0x90,0x43,0x17,0x3e,0x48,0x2a,0x32,0x3e,0x70,0xd4,0x52,0xbc,0x2d,0x5a,0x23,0xbe,0x48,0x63,0x57,0x3d,0xf8,0x5c,0xc2,0x3d,0x3e,0x50,0xdd,0xbd,0x3c,0x27,0x1d,0x3e,0x6c,0xbb,0xa2,0x3d,0xfc,0xae,0x29,0x3e,0x7d,0xae,0x44,0xbe,0x38,0xbf,0x03,0xbe,0xa0,0x66,0xb6,0xbc,0x06,0x0e,0x03,0x3e,0xd1,0x77,0x0f,0xbe,0x00,0xd2,0x46,0x3b,0x8f,0x5a,0x15,0xbe,0x60,0x87,0xc2,0x3b,0x99,0xf2,0xef,0xbd,0x76,0xa3,0x06,0x3e,0x2c,0xdf,0xcd,0x3d,0x50,0xaf,0x93,0xbd,0x72,0x7a,0x4e,0x3e,0x14,0xf9,0xb0,0x3d,0xa4,0x64,0x06,0xbe,0xa9,0xb6,0x2f,0xbe,0x7f,0x3a,0xa8,0xbd,0xf6,0x57,0x13,0x3e,0x0e,0x39,0x31,0xbe,0x20,0xbc,0xac,0x3c,0xe8,0xc3,0x89,0xbd,0x08,0xfe,0x12,0xbe,0xa2,0x91,0x0b,0x3e,0x80,0x47,0x1d,0xbe,0xa5,0x2f,0xb4,0xbd,0x00,0x8b,0x9f,0xbd,0x24,0xc8,0x0f,0x3e,0x22,0x29,0x0e,0x3e,0x8c,0xed,0x49,0xbe,0x68,0x95,0x5b,0x3d,0x40,0x1a,0xf3,0x3b,0x6b,0xb0,0x3a,0xbe,0x28,0x7b,0xdc,0x3d,0x0c,0xc8,0x17,0x3d,0x4c,0xa1,0x43,0xbd,0x40,0xb2,0x26,0x3b,0x6c,0x83,0xfa,0x3d,0xe2,0xfd,0xff,0xff,0x04,0x00,0x00,0x00,0x0c,0x00,0x00,0x00,0xff,0xff,0xff,0xff,0x3e,0x00,0x00,0x00,0x10,0x00,0x00,0x00,0xfa,0xfd,0xff,0xff,0x04,0x00,0x00,0x00,0x0c,0x00,0x00,0x00,0xff,0xff,0xff,0xff,0x1f,0x00,0x00,0x00,0x10,0x00,0x00,0x00,0x12,0xfe,0xff,0xff,0x04,0x00,0x00,0x00,0x0c,0x00,0x00,0x00,0xff,0xff,0xff,0xff,0x1d,0x00,0x00,0x00,0x20,0x00,0x00,0x00,0x70,0xee,0xff,0xff,0x74,0xee,0xff,0xff,0x0f,0x00,0x00,0x00,0x4d,0x4c,0x49,0x52,0x20,0x43,0x6f,0x6e,0x76,0x65,0x72,0x74,0x65,0x64,0x2e,0x00,0x01,0x00,0x00,0x00,0x14,0x00,0x00,0x00,0x00,0x00,0x0e,0x00,0x18,0x00,0x14,0x00,0x10,0x00,0x0c,0x00,0x08,0x00,0x04,0x00,0x0e,0x00,0x00,0x00,0x14,0x00,0x00,0x00,0x1c,0x00,0x00,0x00,0x60,0x04,0x00,0x00,0x64,0x04,0x00,0x00,0x68,0x04,0x00,0x00,0x04,0x00,0x00,0x00,0x6d,0x61,0x69,0x6e,0x00,0x00,0x00,0x00,0x12,0x00,0x00,0x00,0x18,0x04,0x00,0x00,0xb4,0x03,0x00,0x00,0x7c,0x03,0x00,0x00,0x40,0x03,0x00,0x00,0xec,0x02,0x00,0x00,0xc4,0x02,0x00,0x00,0x94,0x02,0x00,0x00,0x4c,0x02,0x00,0x00,0x24,0x02,0x00,0x00,0xf0,0x01,0x00,0x00,0xb8,0x01,0x00,0x00,0x6c,0x01,0x00,0x00,0x30,0x01,0x00,0x00,0xec,0x00,0x00,0x00,0xb8,0x00,0x00,0x00,0x74,0x00,0x00,0x00,0x40,0x00,0x00,0x00,0x04,0x00,0x00,0x00,0x9e,0xfc,0xff,0xff,0x14,0x00,0x00,0x00,0x00,0x00,0x00,0x0a,0x14,0x00,0x00,0x00,0x18,0x00,0x00,0x00,0x08,0x00,0x00,0x00,0xe6,0xfe,0xff,0xff,0x01,0x00,0x00,0x00,0x01,0x00,0x00,0x00,0x21,0x00,0x00,0x00,0x03,0x00,0x00,0x00,0x1c,0x00,0x00,0x00,0x1e,0x00,0x00,0x00,0x20,0x00,0x00,0x00,0xd6,0xfc,0xff,0xff,0x14,0x00,0x00,0x00,0x00,0x00,0x00,0x09,0x14,0x00,0x00,0x00,0x18,0x00,0x00,0x00,0x07,0x00,0x00,0x00,0x1e,0xff,0xff,0xff,0x00,0x00,0x80,0x3f,0x01,0x00,0x00,0x00,0x20,0x00,0x00,0x00,0x01,0x00,0x00,0x00,0x1f,0x00,0x00,0x00,0x06,0xfd,0xff,0xff,0x14,0x00,0x00,0x00,0x00,0x00,0x00,0x20,0x18,0x00,0x00,0x00,0x1c,0x00,0x00,0x00,0x06,0x00,0x00,0x00,0x18,0xff,0xff,0xff,0x01,0x00,0x00,0x00,0x01,0x00,0x00,0x00,0x01,0x00,0x00,0x00,0x1f,0x00,0x00,0x00,0x04,0x00,0x00,0x00,0x1a,0x00,0x00,0x00,0x08,0x00,0x00,0x00,0x07,0x00,0x00,0x00,0x0d,0x00,0x00,0x00,0x46,0xfd,0xff,0xff,0x14,0x00,0x00,0x00,0x00,0x00,0x00,0x09,0x14,0x00,0x00,0x00,0x18,0x00,0x00,0x00,0x07,0x00,0x00,0x00,0x8e,0xff,0xff,0xff,0x00,0x00,0x80,0x3f,0x01,0x00,0x00,0x00,0x1e,0x00,0x00,0x00,0x01,0x00,0x00,0x00,0x1d,0x00,0x00,0x00,0x76,0xfd,0xff,0xff,0x14,0x00,0x00,0x00,0x00,0x00,0x00,0x20,0x18,0x00,0x00,0x00,0x1c,0x00,0x00,0x00,0x06,0x00,0x00,0x00,0x88,0xff,0xff,0xff,0x01,0x00,0x00,0x00,0x01,0x00,0x00,0x00,0x01,0x00,0x00,0x00,0x1d,0x00,0x00,0x00,0x04,0x00,0x00,0x00,0x1a,0x00,0x00,0x00,0x09,0x00,0x00,0x00,0x08,0x00,0x00,0x00,0x0d,0x00,0x00,0x00,0xb6,0xfd,0xff,0xff,0x1c,0x00,0x00,0x00,0x00,0x00,0x00,0x09,0x1c,0x00,0x00,0x00,0x20,0x00,0x00,0x00,0x07,0x00,0x00,0x00,0x00,0x00,0x06,0x00,0x08,0x00,0x04,0x00,0x06,0x00,0x00,0x00,0x00,0x00,0x80,0x3f,0x01,0x00,0x00,0x00,0x1c,0x00,0x00,0x00,0x01,0x00,0x00,0x00,0x1b,0x00,0x00,0x00,0xee,0xfd,0xff,0xff,0x1c,0x00,0x00,0x00,0x00,0x00,0x00,0x20,0x20,0x00,0x00,0x00,0x24,0x00,0x00,0x00,0x06,0x00,0x00,0x00,0x08,0x00,0x0c,0x00,0x08,0x00,0x04,0x00,0x08,0x00,0x00,0x00,0x01,0x00,0x00,0x00,0x01,0x00,0x00,0x00,0x01,0x00,0x00,0x00,0x1b,0x00,0x00,0x00,0x04,0x00,0x00,0x00,0x1a,0x00,0x00,0x00,0x0a,0x00,0x00,0x00,0x09,0x00,0x00,0x00,0x0d,0x00,0x00,0x00,0x36,0xfe,0xff,0xff,0x14,0x00,0x00,0x00,0x00,0x00,0x00,0x08,0x10,0x00,0x00,0x00,0x14,0x00,0x00,0x00,0x05,0x00,0x00,0x00,0xc4,0xf0,0xff,0xff,0x01,0x00,0x00,0x00,0x1a,0x00,0x00,0x00,0x03,0x00,0x00,0x00,0x19,0x00,0x00,0x00,0x06,0x00,0x00,0x00,0xff,0xff,0xff,0xff,0x6a,0xfe,0xff,0xff,0x14,0x00,0x00,0x00,0x00,0x00,0x00,0x1b,0x10,0x00,0x00,0x00,0x14,0x00,0x00,0x00,0x04,0x00,0x00,0x00,0xf8,0xf0,0xff,0xff,0x01,0x00,0x00,0x00,0x19,0x00,0x00,0x00,0x02,0x00,0x00,0x00,0x18,0x00,0x00,0x00,0x0e,0x00,0x00,0x00,0xca,0xfe,0xff,0xff,0x0c,0x00,0x00,0x00,0x10,0x00,0x00,0x00,0x02,0x00,0x00,0x00,0x01,0x00,0x00,0x00,0x18,0x00,0x00,0x00,0x02,0x00,0x00,0x00,0x17,0x00,0x00,0x00,0x01,0x00,0x00,0x00,0xbe,0xfe,0xff,0xff,0x14,0x00,0x00,0x00,0x00,0x00,0x00,0x01,0x20,0x00,0x00,0x00,0x24,0x00,0x00,0x00,0x01,0x00,0x00,0x00,0xb0,0xfe,0xff,0xff,0x00,0x00,0x00,0x01,0x01,0x00,0x00,0x00,0x01,0x00,0x00,0x00,0x00,0x00,0x00,0x01,0x01,0x00,0x00,0x00,0x17,0x00,0x00,0x00,0x03,0x00,0x00,0x00,0x16,0x00,0x00,0x00,0x04,0x00,0x00,0x00,0x0c,0x00,0x00,0x00,0xa2,0xfe,0xff,0xff,0x10,0x00,0x00,0x00,0x00,0x00,0x00,0x34,0x0c,0x00,0x00,0x00,0x10,0x00,0x00,0x00,0x8c,0xf1,0xff,0xff,0x01,0x00,0x00,0x00,0x16,0x00,0x00,0x00,0x02,0x00,0x00,0x00,0x15,0x00,0x00,0x00,0x0f,0x00,0x00,0x00,0x5e,0xff,0xff,0xff,0x0c,0x00,0x00,0x00,0x10,0x00,0x00,0x00,0x02,0x00,0x00,0x00,0x01,0x00,0x00,0x00,0x15,0x00,0x00,0x00,0x02,0x00,0x00,0x00,0x14,0x00,0x00,0x00,0x02,0x00,0x00,0x00,0x52,0xff,0xff,0xff,0x24,0x00,0x00,0x00,0x00,0x00,0x00,0x05,0x34,0x00,0x00,0x00,0x38,0x00,0x00,0x00,0x03,0x00,0x00,0x00,0x00,0x00,0x0e,0x00,0x18,0x00,0x17,0x00,0x10,0x00,0x0c,0x00,0x08,0x00,0x04,0x00,0x0e,0x00,0x00,0x00,0x01,0x00,0x00,0x00,0x02,0x00,0x00,0x00,0x01,0x00,0x00,0x00,0x02,0x00,0x00,0x00,0x00,0x00,0x00,0x01,0x01,0x00,0x00,0x00,0x14,0x00,0x00,0x00,0x01,0x00,0x00,0x00,0x13,0x00,0x00,0x00,0x42,0xff,0xff,0xff,0x10,0x00,0x00,0x00,0x00,0x00,0x00,0x34,0x0c,0x00,0x00,0x00,0x10,0x00,0x00,0x00,0x2c,0xf2,0xff,0xff,0x01,0x00,0x00,0x00,0x13,0x00,0x00,0x00,0x02,0x00,0x00,0x00,0x12,0x00,0x00,0x00,0x0e,0x00,0x00,0x00,0x00,0x00,0x0a,0x00,0x10,0x00,0x0c,0x00,0x08,0x00,0x04,0x00,0x0a,0x00,0x00,0x00,0x0c,0x00,0x00,0x00,0x10,0x00,0x00,0x00,0x02,0x00,0x00,0x00,0x01,0x00,0x00,0x00,0x12,0x00,0x00,0x00,0x02,0x00,0x00,0x00,0x11,0x00,0x00,0x00,0x03,0x00,0x00,0x00,0x00,0x00,0x0e,0x00,0x18,0x00,0x14,0x00,0x10,0x00,0x0c,0x00,0x0b,0x00,0x04,0x00,0x0e,0x00,0x00,0x00,0x20,0x00,0x00,0x00,0x00,0x00,0x00,0x01,0x2c,0x00,0x00,0x00,0x30,0x00,0x00,0x00,0x01,0x00,0x00,0x00,0x0c,0x00,0x14,0x00,0x13,0x00,0x0c,0x00,0x08,0x00,0x07,0x00,0x0c,0x00,0x00,0x00,0x00,0x00,0x00,0x01,0x01,0x00,0x00,0x00,0x01,0x00,0x00,0x00,0x00,0x00,0x00,0x01,0x01,0x00,0x00,0x00,0x11,0x00,0x00,0x00,0x03,0x00,0x00,0x00,0x10,0x00,0x00,0x00,0x05,0x00,0x00,0x00,0x0b,0x00,0x00,0x00,0x00,0x00,0x0e,0x00,0x14,0x00,0x00,0x00,0x10,0x00,0x0c,0x00,0x0b,0x00,0x04,0x00,0x0e,0x00,0x00,0x00,0x10,0x00,0x00,0x00,0x00,0x00,0x00,0x34,0x0c,0x00,0x00,0x00,0x10,0x00,0x00,0x00,0xf8,0xf2,0xff,0xff,0x01,0x00,0x00,0x00,0x10,0x00,0x00,0x00,0x02,0x00,0x00,0x00,0x00,0x00,0x00,0x00,0x0f,0x00,0x00,0x00,0x01,0x00,0x00,0x00,0x21,0x00,0x00,0x00,0x01,0x00,0x00,0x00,0x00,0x00,0x00,0x00,0x22,0x00,0x00,0x00,0xb0,0x0c,0x00,0x00,0x58,0x0c,0x00,0x00,0x00,0x0c,0x00,0x00,0xc0,0x0b,0x00,0x00,0x78,0x0b,0x00,0x00,0x18,0x0b,0x00,0x00,0xd8,0x0a,0x00,0x00,0x98,0x0a,0x00,0x00,0x58,0x0a,0x00,0x00,0x18,0x0a,0x00,0x00,0xd8,0x09,0x00,0x00,0x98,0x09,0x00,0x00,0x58,0x09,0x00,0x00,0x14,0x09,0x00,0x00,0xd4,0x08,0x00,0x00,0x94,0x08,0x00,0x00,0x14,0x08,0x00,0x00,0x5c,0x07,0x00,0x00,0xcc,0x06,0x00,0x00,0x48,0x06,0x00,0x00,0xd0,0x05,0x00,0x00,0x58,0x05,0x00,0x00,0xd8,0x04,0x00,0x00,0x18,0x04,0x00,0x00,0x84,0x03,0x00,0x00,0x14,0x03,0x00,0x00,0xb8,0x02,0x00,0x00,0x50,0x02,0x00,0x00,0xf0,0x01,0x00,0x00,0x88,0x01,0x00,0x00,0x28,0x01,0x00,0x00,0xc0,0x00,0x00,0x00,0x60,0x00,0x00,0x00,0x04,0x00,0x00,0x00,0xee,0xf3,0xff,0xff,0x00,0x00,0x00,0x01,0x14,0x00,0x00,0x00,0x1c,0x00,0x00,0x00,0x1c,0x00,0x00,0x00,0x22,0x00,0x00,0x00,0x34,0x00,0x00,0x00,0x02,0x00,0x00,0x00,0xff,0xff,0xff,0xff,0x09,0x00,0x00,0x00,0xd4,0xf3,0xff,0xff,0x1b,0x00,0x00,0x00,0x53,0x74,0x61,0x74,0x65,0x66,0x75,0x6c,0x50,0x61,0x72,0x74,0x69,0x74,0x69,0x6f,0x6e,0x65,0x64,0x43,0x61,0x6c,0x6c,0x5f,0x31,0x3a,0x30,0x00,0x02,0x00,0x00,0x00,0x01,0x00,0x00,0x00,0x09,0x00,0x00,0x00,0x46,0xf4,0xff,0xff,0x00,0x00,0x00,0x01,0x14,0x00,0x00,0x00,0x1c,0x00,0x00,0x00,0x1c,0x00,0x00,0x00,0x21,0x00,0x00,0x00,0x38,0x00,0x00,0x00,0x02,0x00,0x00,0x00,0xff,0xff,0xff,0xff,0x03,0x00,0x00,0x00,0x2c,0xf4,0xff,0xff,0x1e,0x00,0x00,0x00,0x73,0x65,0x71,0x75,0x65,0x6e,0x74,0x69,0x61,0x6c,0x5f,0x31,0x2f,0x64,0x65,0x6e,0x73,0x65,0x5f,0x31,0x2f,0x53,0x6f,0x66,0x74,0x6d,0x61,0x78,0x5f,0x32,0x00,0x00,0x02,0x00,0x00,0x00,0x01,0x00,0x00,0x00,0x03,0x00,0x00,0x00,0xa2,0xf4,0xff,0xff,0x00,0x00,0x00,0x01,0x14,0x00,0x00,0x00,0x1c,0x00,0x00,0x00,0x1c,0x00,0x00,0x00,0x20,0x00,0x00,0x00,0x40,0x00,0x00,0x00,0x02,0x00,0x00,0x00,0xff,0xff,0xff,0xff,0x03,0x00,0x00,0x00,0x88,0xf4,0xff,0xff,0x24,0x00,0x00,0x00,0x73,0x65,0x71,0x75,0x65,0x6e,0x74,0x69,0x61,0x6c,0x5f,0x31,0x2f,0x64,0x65,0x6e,0x73,0x65,0x5f,0x31,0x2f,0x73,0x74,0x72,0x69,0x64,0x65,0x64,0x5f,0x73,0x6c,0x69,0x63,0x65,0x5f,0x38,0x00,0x00,0x00,0x00,0x02,0x00,0x00,0x00,0x01,0x00,0x00,0x00,0x03,0x00,0x00,0x00,0x06,0xf5,0xff,0xff,0x00,0x00,0x00,0x01,0x14,0x00,0x00,0x00,0x1c,0x00,0x00,0x00,0x1c,0x00,0x00,0x00,0x1f,0x00,0x00,0x00,0x38,0x00,0x00,0x00,0x02,0x00,0x00,0x00,0xff,0xff,0xff,0xff,0x02,0x00,0x00,0x00,0xec,0xf4,0xff,0xff,0x1e,0x00,0x00,0x00,0x73,0x65,0x71,0x75,0x65,0x6e,0x74,0x69,0x61,0x6c,0x5f,0x31,0x2f,0x64,0x65,0x6e,0x73,0x65,0x5f,0x31,0x2f,0x53,0x6f,0x66,0x74,0x6d,0x61,0x78,0x5f,0x31,0x00,0x00,0x02,0x00,0x00,0x00,0x01,0x00,0x00,0x00,0x02,0x00,0x00,0x00,0x62,0xf5,0xff,0xff,0x00,0x00,0x00,0x01,0x14,0x00,0x00,0x00,0x1c,0x00,0x00,0x00,0x1c,0x00,0x00,0x00,0x1e,0x00,0x00,0x00,0x40,0x00,0x00,0x00,0x02,0x00,0x00,0x00,0xff,0xff,0xff,0xff,0x02,0x00,0x00,0x00,0x48,0xf5,0xff,0xff,0x24,0x00,0x00,0x00,0x73,0x65,0x71,0x75,0x65,0x6e,0x74,0x69,0x61,0x6c,0x5f,0x31,0x2f,0x64,0x65,0x6e,0x73,0x65,0x5f,0x31,0x2f,0x73,0x74,0x72,0x69,0x64,0x65,0x64,0x5f,0x73,0x6c,0x69,0x63,0x65,0x5f,0x35,0x00,0x00,0x00,0x00,0x02,0x00,0x00,0x00,0x01,0x00,0x00,0x00,0x02,0x00,0x00,0x00,0xc6,0xf5,0xff,0xff,0x00,0x00,0x00,0x01,0x14,0x00,0x00,0x00,0x1c,0x00,0x00,0x00,0x1c,0x00,0x00,0x00,0x1d,0x00,0x00,0x00,0x38,0x00,0x00,0x00,0x02,0x00,0x00,0x00,0xff,0xff,0xff,0xff,0x04,0x00,0x00,0x00,0xac,0xf5,0xff,0xff,0x1c,0x00,0x00,0x00,0x73,0x65,0x71,0x75,0x65,0x6e,0x74,0x69,0x61,0x6c,0x5f,0x31,0x2f,0x64,0x65,0x6e,0x73,0x65,0x5f,0x31,0x2f,0x53,0x6f,0x66,0x74,0x6d,0x61,0x78,0x00,0x00,0x00,0x00,0x02,0x00,0x00,0x00,0x01,0x00,0x00,0x00,0x04,0x00,0x00,0x00,0x22,0xf6,0xff,0xff,0x00,0x00,0x00,0x01,0x14,0x00,0x00,0x00,0x1c,0x00,0x00,0x00,0x1c,0x00,0x00,0x00,0x1c,0x00,0x00,0x00,0x40,0x00,0x00,0x00,0x02,0x00,0x00,0x00,0xff,0xff,0xff,0xff,0x04,0x00,0x00,0x00,0x08,0xf6,0xff,0xff,0x24,0x00,0x00,0x00,0x73,0x65,0x71,0x75,0x65,0x6e,0x74,0x69,0x61,0x6c,0x5f,0x31,0x2f,0x64,0x65,0x6e,0x73,0x65,0x5f,0x31,0x2f,0x73,0x74,0x72,0x69,0x64,0x65,0x64,0x5f,0x73,0x6c,0x69,0x63,0x65,0x5f,0x32,0x00,0x00,0x00,0x00,0x02,0x00,0x00,0x00,0x01,0x00,0x00,0x00,0x04,0x00,0x00,0x00,0x86,0xf6,0xff,0xff,0x00,0x00,0x00,0x01,0x14,0x00,0x00,0x00,0x1c,0x00,0x00,0x00,0x1c,0x00,0x00,0x00,0x1b,0x00,0x00,0x00,0x34,0x00,0x00,0x00,0x02,0x00,0x00,0x00,0xff,0xff,0xff,0xff,0x09,0x00,0x00,0x00,0x6c,0xf6,0xff,0xff,0x1b,0x00,0x00,0x00,0x73,0x65,0x71,0x75,0x65,0x6e,0x74,0x69,0x61,0x6c,0x5f,0x31,0x2f,0x64,0x65,0x6e,0x73,0x65,0x5f,0x31,0x2f,0x4d,0x61,0x74,0x4d,0x75,0x6c,0x00,0x02,0x00,0x00,0x00,0x01,0x00,0x00,0x00,0x09,0x00,0x00,0x00,0xde,0xf6,0xff,0xff,0x00,0x00,0x00,0x01,0x14,0x00,0x00,0x00,0x1c,0x00,0x00,0x00,0x1c,0x00,0x00,0x00,0x1a,0x00,0x00,0x00,0x48,0x00,0x00,0x00,0x02,0x00,0x00,0x00,0xff,0xff,0xff,0xff,0x20,0x00,0x00,0x00,0xc4,0xf6,0xff,0xff,0x2c,0x00,0x00,0x00,0x73,0x65,0x71,0x75,0x65,0x6e,0x74,0x69,0x61,0x6c,0x5f,0x31,0x2f,0x67,0x6c,0x6f,0x62,0x61,0x6c,0x5f,0x61,0x76,0x65,0x72,0x61,0x67,0x65,0x5f,0x70,0x6f,0x6f,0x6c,0x69,0x6e,0x67,0x31,0x64,0x5f,0x31,0x2f,0x4d,0x65,0x61,0x6e,0x00,0x00,0x00,0x00,0x02,0x00,0x00,0x00,0x01,0x00,0x00,0x00,0x20,0x00,0x00,0x00,0x4a,0xf7,0xff,0xff,0x00,0x00,0x00,0x01,0x14,0x00,0x00,0x00,0x20,0x00,0x00,0x00,0x20,0x00,0x00,0x00,0x19,0x00,0x00,0x00,0x68,0x00,0x00,0x00,0x03,0x00,0x00,0x00,0xff,0xff,0xff,0xff,0x1d,0x00,0x00,0x00,0x20,0x00,0x00,0x00,0x34,0xf7,0xff,0xff,0x48,0x00,0x00,0x00,0x73,0x65,0x71,0x75,0x65,0x6e,0x74,0x69,0x61,0x6c,0x5f,0x31,0x2f,0x63,0x6f,0x6e,0x76,0x31,0x64,0x5f,0x31,0x5f,0x32,0x2f,0x52,0x65,0x6c,0x75,0x3b,0x73,0x65,0x71,0x75,0x65,0x6e,0x74,0x69,0x61,0x6c,0x5f,0x31,0x2f,0x63,0x6f,0x6e,0x76,0x31,0x64,0x5f,0x31,0x5f,0x32,0x2f,0x63,0x6f,0x6e,0x76,0x6f,0x6c,0x75,0x74,0x69,0x6f,0x6e,0x2f,0x53,0x71,0x75,0x65,0x65,0x7a,0x65,0x00,0x00,0x00,0x00,0x03,0x00,0x00,0x00,0x01,0x00,0x00,0x00,0x1d,0x00,0x00,0x00,0x20,0x00,0x00,0x00,0xda,0xf7,0xff,0xff,0x00,0x00,0x00,0x01,0x14,0x00,0x00,0x00,0x24,0x00,0x00,0x00,0x24,0x00,0x00,0x00,0x18,0x00,0x00,0x00,0x90,0x00,0x00,0x00,0x04,0x00,0x00,0x00,0xff,0xff,0xff,0xff,0x01,0x00,0x00,0x00,0x1d,0x00,0x00,0x00,0x20,0x00,0x00,0x00,0xc8,0xf7,0xff,0xff,0x6c,0x00,0x00,0x00,0x73,0x65,0x71,0x75,0x65,0x6e,0x74,0x69,0x61,0x6c,0x5f,0x31,0x2f,0x63,0x6f,0x6e,0x76,0x31,0x64,0x5f,0x31,0x5f,0x32,0x2f,0x52,0x65,0x6c,0x75,0x3b,0x73,0x65,0x71,0x75,0x65,0x6e,0x74,0x69,0x61,0x6c,0x5f,0x31,0x2f,0x63,0x6f,0x6e,0x76,0x31,0x64,0x5f,0x31,0x5f,0x32,0x2f,0x63,0x6f,0x6e,0x76,0x6f,0x6c,0x75,0x74,0x69,0x6f,0x6e,0x2f,0x53,0x71,0x75,0x65,0x65,0x7a,0x65,0x3b,0x73,0x65,0x71,0x75,0x65,0x6e,0x74,0x69,0x61,0x6c,0x5f,0x31,0x2f,0x63,0x6f,0x6e,0x76,0x31,0x64,0x5f,0x31,0x5f,0x32,0x2f,0x63,0x6f,0x6e,0x76,0x6f,0x6c,0x75,0x74,0x69,0x6f,0x6e,0x00,0x00,0x00,0x00,0x04,0x00,0x00,0x00,0x01,0x00,0x00,0x00,0x01,0x00,0x00,0x00,0x1d,0x00,0x00,0x00,0x20,0x00,0x00,0x00,0x96,0xf8,0xff,0xff,0x00,0x00,0x00,0x01,0x14,0x00,0x00,0x00,0x24,0x00,0x00,0x00,0x24,0x00,0x00,0x00,0x17,0x00,0x00,0x00,0x50,0x00,0x00,0x00,0x04,0x00,0x00,0x00,0xff,0xff,0xff,0xff,0x01,0x00,0x00,0x00,0x1f,0x00,0x00,0x00,0x10,0x00,0x00,0x00,0x84,0xf8,0xff,0xff,0x2e,0x00,0x00,0x00,0x73,0x65,0x71,0x75,0x65,0x6e,0x74,0x69,0x61,0x6c,0x5f,0x31,0x2f,0x63,0x6f,0x6e,0x76,0x31,0x64,0x5f,0x31,0x5f,0x32,0x2f,0x63,0x6f,0x6e,0x76,0x6f,0x6c,0x75,0x74,0x69,0x6f,0x6e,0x2f,0x45,0x78,0x70,0x61,0x6e,0x64,0x44,0x69,0x6d,0x73,0x00,0x00,0x04,0x00,0x00,0x00,0x01,0x00,0x00,0x00,0x01,0x00,0x00,0x00,0x1f,0x00,0x00,0x00,0x10,0x00,0x00,0x00,0x12,0xf9,0xff,0xff,0x00,0x00,0x00,0x01,0x14,0x00,0x00,0x00,0x20,0x00,0x00,0x00,0x20,0x00,0x00,0x00,0x16,0x00,0x00,0x00,0x4c,0x00,0x00,0x00,0x03,0x00,0x00,0x00,0xff,0xff,0xff,0xff,0x1f,0x00,0x00,0x00,0x10,0x00,0x00,0x00,0xfc,0xf8,0xff,0xff,0x2e,0x00,0x00,0x00,0x73,0x65,0x71,0x75,0x65,0x6e,0x74,0x69,0x61,0x6c,0x5f,0x31,0x2f,0x6d,0x61,0x78,0x5f,0x70,0x6f,0x6f,0x6c,0x69,0x6e,0x67,0x31,0x64,0x5f,0x31,0x2f,0x4d,0x61,0x78,0x50,0x6f,0x6f,0x6c,0x31,0x64,0x2f,0x53,0x71,0x75,0x65,0x65,0x7a,0x65,0x00,0x00,0x03,0x00,0x00,0x00,0x01,0x00,0x00,0x00,0x1f,0x00,0x00,0x00,0x10,0x00,0x00,0x00,0x86,0xf9,0xff,0xff,0x00,0x00,0x00,0x01,0x14,0x00,0x00,0x00,0x24,0x00,0x00,0x00,0x24,0x00,0x00,0x00,0x15,0x00,0x00,0x00,0x48,0x00,0x00,0x00,0x04,0x00,0x00,0x00,0xff,0xff,0xff,0xff,0x01,0x00,0x00,0x00,0x1f,0x00,0x00,0x00,0x10,0x00,0x00,0x00,0x74,0xf9,0xff,0xff,0x26,0x00,0x00,0x00,0x73,0x65,0x71,0x75,0x65,0x6e,0x74,0x69,0x61,0x6c,0x5f,0x31,0x2f,0x6d,0x61,0x78,0x5f,0x70,0x6f,0x6f,0x6c,0x69,0x6e,0x67,0x31,0x64,0x5f,0x31,0x2f,0x4d,0x61,0x78,0x50,0x6f,0x6f,0x6c,0x31,0x64,0x00,0x00,0x04,0x00,0x00,0x00,0x01,0x00,0x00,0x00,0x01,0x00,0x00,0x00,0x1f,0x00,0x00,0x00,0x10,0x00,0x00,0x00,0xfa,0xf9,0xff,0xff,0x00,0x00,0x00,0x01,0x14,0x00,0x00,0x00,0x24,0x00,0x00,0x00,0x24,0x00,0x00,0x00,0x14,0x00,0x00,0x00,0x54,0x00,0x00,0x00,0x04,0x00,0x00,0x00,0xff,0xff,0xff,0xff,0x01,0x00,0x00,0x00,0x3e,0x00,0x00,0x00,0x10,0x00,0x00,0x00,0xe8,0xf9,0xff,0xff,0x31,0x00,0x00,0x00,0x73,0x65,0x71,0x75,0x65,0x6e,0x74,0x69,0x61,0x6c,0x5f,0x31,0x2f,0x6d,0x61,0x78,0x5f,0x70,0x6f,0x6f,0x6c,0x69,0x6e,0x67,0x31,0x64,0x5f,0x31,0x2f,0x4d,0x61,0x78,0x50,0x6f,0x6f,0x6c,0x31,0x64,0x2f,0x45,0x78,0x70,0x61,0x6e,0x64,0x44,0x69,0x6d,0x73,0x00,0x00,0x00,0x04,0x00,0x00,0x00,0x01,0x00,0x00,0x00,0x01,0x00,0x00,0x00,0x3e,0x00,0x00,0x00,0x10,0x00,0x00,0x00,0x7a,0xfa,0xff,0xff,0x00,0x00,0x00,0x01,0x14,0x00,0x00,0x00,0x20,0x00,0x00,0x00,0x20,0x00,0x00,0x00,0x13,0x00,0x00,0x00,0x64,0x00,0x00,0x00,0x03,0x00,0x00,0x00,0xff,0xff,0xff,0xff,0x3e,0x00,0x00,0x00,0x10,0x00,0x00,0x00,0x64,0xfa,0xff,0xff,0x44,0x00,0x00,0x00,0x73,0x65,0x71,0x75,0x65,0x6e,0x74,0x69,0x61,0x6c,0x5f,0x31,0x2f,0x63,0x6f,0x6e,0x76,0x31,0x64,0x5f,0x31,0x2f,0x52,0x65,0x6c,0x75,0x3b,0x73,0x65,0x71,0x75,0x65,0x6e,0x74,0x69,0x61,0x6c,0x5f,0x31,0x2f,0x63,0x6f,0x6e,0x76,0x31,0x64,0x5f,0x31,0x2f,0x63,0x6f,0x6e,0x76,0x6f,0x6c,0x75,0x74,0x69,0x6f,0x6e,0x2f,0x53,0x71,0x75,0x65,0x65,0x7a,0x65,0x00,0x00,0x00,0x00,0x03,0x00,0x00,0x00,0x01,0x00,0x00,0x00,0x3e,0x00,0x00,0x00,0x10,0x00,0x00,0x00,0x06,0xfb,0xff,0xff,0x00,0x00,0x00,0x01,0x14,0x00,0x00,0x00,0x24,0x00,0x00,0x00,0x24,0x00,0x00,0x00,0x12,0x00,0x00,0x00,0x88,0x00,0x00,0x00,0x04,0x00,0x00,0x00,0xff,0xff,0xff,0xff,0x01,0x00,0x00,0x00,0x3e,0x00,0x00,0x00,0x10,0x00,0x00,0x00,0xf4,0xfa,0xff,0xff,0x66,0x00,0x00,0x00,0x73,0x65,0x71,0x75,0x65,0x6e,0x74,0x69,0x61,0x6c,0x5f,0x31,0x2f,0x63,0x6f,0x6e,0x76,0x31,0x64,0x5f,0x31,0x2f,0x52,0x65,0x6c,0x75,0x3b,0x73,0x65,0x71,0x75,0x65,0x6e,0x74,0x69,0x61,0x6c,0x5f,0x31,0x2f,0x63,0x6f,0x6e,0x76,0x31,0x64,0x5f,0x31,0x2f,0x63,0x6f,0x6e,0x76,0x6f,0x6c,0x75,0x74,0x69,0x6f,0x6e,0x2f,0x53,0x71,0x75,0x65,0x65,0x7a,0x65,0x3b,0x73,0x65,0x71,0x75,0x65,0x6e,0x74,0x69,0x61,0x6c,0x5f,0x31,0x2f,0x63,0x6f,0x6e,0x76,0x31,0x64,0x5f,0x31,0x2f,0x63,0x6f,0x6e,0x76,0x6f,0x6c,0x75,0x74,0x69,0x6f,0x6e,0x00,0x00,0x04,0x00,0x00,0x00,0x01,0x00,0x00,0x00,0x01,0x00,0x00,0x00,0x3e,0x00,0x00,0x00,0x10,0x00,0x00,0x00,0xba,0xfb,0xff,0xff,0x00,0x00,0x00,0x01,0x14,0x00,0x00,0x00,0x24,0x00,0x00,0x00,0x24,0x00,0x00,0x00,0x11,0x00,0x00,0x00,0x50,0x00,0x00,0x00,0x04,0x00,0x00,0x00,0xff,0xff,0xff,0xff,0x01,0x00,0x00,0x00,0x40,0x00,0x00,0x00,0x06,0x00,0x00,0x00,0xa8,0xfb,0xff,0xff,0x2c,0x00,0x00,0x00,0x73,0x65,0x71,0x75,0x65,0x6e,0x74,0x69,0x61,0x6c,0x5f,0x31,0x2f,0x63,0x6f,0x6e,0x76,0x31,0x64,0x5f,0x31,0x2f,0x63,0x6f,0x6e,0x76,0x6f,0x6c,0x75,0x74,0x69,0x6f,0x6e,0x2f,0x45,0x78,0x70,0x61,0x6e,0x64,0x44,0x69,0x6d,0x73,0x00,0x00,0x00,0x00,0x04,0x00,0x00,0x00,0x01,0x00,0x00,0x00,0x01,0x00,0x00,0x00,0x40,0x00,0x00,0x00,0x06,0x00,0x00,0x00,0x8a,0xfc,0xff,0xff,0x00,0x00,0x00,0x01,0x14,0x00,0x00,0x00,0x14,0x00,0x00,0x00,0x10,0x00,0x00,0x00,0x00,0x00,0x00,0x02,0x20,0x00,0x00,0x00,0x10,0xfc,0xff,0xff,0x10,0x00,0x00,0x00,0x61,0x72,0x69,0x74,0x68,0x2e,0x63,0x6f,0x6e,0x73,0x74,0x61,0x6e,0x74,0x31,0x34,0x00,0x00,0x00,0x00,0x00,0x00,0x00,0x00,0xc6,0xfc,0xff,0xff,0x00,0x00,0x00,0x01,0x14,0x00,0x00,0x00,0x14,0x00,0x00,0x00,0x0f,0x00,0x00,0x00,0x00,0x00,0x00,0x02,0x20,0x00,0x00,0x00,0x4c,0xfc,0xff,0xff,0x10,0x00,0x00,0x00,0x61,0x72,0x69,0x74,0x68,0x2e,0x63,0x6f,0x6e,0x73,0x74,0x61,0x6e,0x74,0x31,0x33,0x00,0x00,0x00,0x00,0x00,0x00,0x00,0x00,0x02,0xfd,0xff,0xff,0x00,0x00,0x00,0x01,0x14,0x00,0x00,0x00,0x14,0x00,0x00,0x00,0x0e,0x00,0x00,0x00,0x00,0x00,0x00,0x02,0x20,0x00,0x00,0x00,0x88,0xfc,0xff,0xff,0x10,0x00,0x00,0x00,0x61,0x72,0x69,0x74,0x68,0x2e,0x63,0x6f,0x6e,0x73,0x74,0x61,0x6e,0x74,0x31,0x32,0x00,0x00,0x00,0x00,0x01,0x00,0x00,0x00,0x02,0x00,0x00,0x00,0x16,0xfe,0xff,0xff,0x00,0x00,0x00,0x01,0x10,0x00,0x00,0x00,0x10,0x00,0x00,0x00,0x0d,0x00,0x00,0x00,0x20,0x00,0x00,0x00,0xc4,0xfc,0xff,0xff,0x10,0x00,0x00,0x00,0x61,0x72,0x69,0x74,0x68,0x2e,0x63,0x6f,0x6e,0x73,0x74,0x61,0x6e,0x74,0x31,0x31,0x00,0x00,0x00,0x00,0x01,0x00,0x00,0x00,0x20,0x00,0x00,0x00,0x52,0xfe,0xff,0xff,0x00,0x00,0x00,0x01,0x10,0x00,0x00,0x00,0x10,0x00,0x00,0x00,0x0c,0x00,0x00,0x00,0x20,0x00,0x00,0x00,0x00,0xfd,0xff,0xff,0x10,0x00,0x00,0x00,0x61,0x72,0x69,0x74,0x68,0x2e,0x63,0x6f,0x6e,0x73,0x74,0x61,0x6e,0x74,0x31,0x30,0x00,0x00,0x00,0x00,0x01,0x00,0x00,0x00,0x10,0x00,0x00,0x00,0xba,0xfd,0xff,0xff,0x00,0x00,0x00,0x01,0x14,0x00,0x00,0x00,0x14,0x00,0x00,0x00,0x0b,0x00,0x00,0x00,0x00,0x00,0x00,0x02,0x1c,0x00,0x00,0x00,0x40,0xfd,0xff,0xff,0x0f,0x00,0x00,0x00,0x61,0x72,0x69,0x74,0x68,0x2e,0x63,0x6f,0x6e,0x73,0x74,0x61,0x6e,0x74,0x39,0x00,0x01,0x00,0x00,0x00,0x02,0x00,0x00,0x00,0xf6,0xfd,0xff,0xff,0x00,0x00,0x00,0x01,0x14,0x00,0x00,0x00,0x14,0x00,0x00,0x00,0x0a,0x00,0x00,0x00,0x00,0x00,0x00,0x02,0x1c,0x00,0x00,0x00,0x7c,0xfd,0xff,0xff,0x0f,0x00,0x00,0x00,0x61,0x72,0x69,0x74,0x68,0x2e,0x63,0x6f,0x6e,0x73,0x74,0x61,0x6e,0x74,0x38,0x00,0x01,0x00,0x00,0x00,0x02,0x00,0x00,0x00,0x32,0xfe,0xff,0xff,0x00,0x00,0x00,0x01,0x14,0x00,0x00,0x00,0x14,0x00,0x00,0x00,0x09,0x00,0x00,0x00,0x00,0x00,0x00,0x02,0x1c,0x00,0x00,0x00,0xb8,0xfd,0xff,0xff,0x0f,0x00,0x00,0x00,0x61,0x72,0x69,0x74,0x68,0x2e,0x63,0x6f,0x6e,0x73,0x74,0x61,0x6e,0x74,0x37,0x00,0x01,0x00,0x00,0x00,0x02,0x00,0x00,0x00,0x6e,0xfe,0xff,0xff,0x00,0x00,0x00,0x01,0x14,0x00,0x00,0x00,0x14,0x00,0x00,0x00,0x08,0x00,0x00,0x00,0x00,0x00,0x00,0x02,0x1c,0x00,0x00,0x00,0xf4,0xfd,0xff,0xff,0x0f,0x00,0x00,0x00,0x61,0x72,0x69,0x74,0x68,0x2e,0x63,0x6f,0x6e,0x73,0x74,0x61,0x6e,0x74,0x36,0x00,0x01,0x00,0x00,0x00,0x02,0x00,0x00,0x00,0x7e,0xff,0xff,0xff,0x00,0x00,0x00,0x01,0x10,0x00,0x00,0x00,0x10,0x00,0x00,0x00,0x07,0x00,0x00,0x00,0x1c,0x00,0x00,0x00,0x2c,0xfe,0xff,0xff,0x0f,0x00,0x00,0x00,0x61,0x72,0x69,0x74,0x68,0x2e,0x63,0x6f,0x6e,0x73,0x74,0x61,0x6e,0x74,0x35,0x00,0x02,0x00,0x00,0x00,0x09,0x00,0x00,0x00,0x20,0x00,0x00,0x00,0xba,0xff,0xff,0xff,0x00,0x00,0x00,0x01,0x10,0x00,0x00,0x00,0x10,0x00,0x00,0x00,0x06,0x00,0x00,0x00,0x1c,0x00,0x00,0x00,0x68,0xfe,0xff,0xff,0x0f,0x00,0x00,0x00,0x61,0x72,0x69,0x74,0x68,0x2e,0x63,0x6f,0x6e,0x73,0x74,0x61,0x6e,0x74,0x34,0x00,0x04,0x00,0x00,0x00,0x10,0x00,0x00,0x00,0x01,0x00,0x00,0x00,0x03,0x00,0x00,0x00,0x06,0x00,0x00,0x00,0x00,0x00,0x16,0x00,0x18,0x00,0x14,0x00,0x00,0x00,0x10,0x00,0x0c,0x00,0x08,0x00,0x00,0x00,0x00,0x00,0x00,0x00,0x07,0x00,0x16,0x00,0x00,0x00,0x00,0x00,0x00,0x01,0x10,0x00,0x00,0x00,0x10,0x00,0x00,0x00,0x05,0x00,0x00,0x00,0x1c,0x00,0x00,0x00,0xc4,0xfe,0xff,0xff,0x0f,0x00,0x00,0x00,0x61,0x72,0x69,0x74,0x68,0x2e,0x63,0x6f,0x6e,0x73,0x74,0x61,0x6e,0x74,0x33,0x00,0x04,0x00,0x00,0x00,0x20,0x00,0x00,0x00,0x01,0x00,0x00,0x00,0x03,0x00,0x00,0x00,0x10,0x00,0x00,0x00,0x86,0xff,0xff,0xff,0x00,0x00,0x00,0x01,0x14,0x00,0x00,0x00,0x14,0x00,0x00,0x00,0x04,0x00,0x00,0x00,0x00,0x00,0x00,0x02,0x1c,0x00,0x00,0x00,0x0c,0xff,0xff,0xff,0x0f,0x00,0x00,0x00,0x61,0x72,0x69,0x74,0x68,0x2e,0x63,0x6f,0x6e,0x73,0x74,0x61,0x6e,0x74,0x32,0x00,0x01,0x00,0x00,0x00,0x03,0x00,0x00,0x00,0xc2,0xff,0xff,0xff,0x00,0x00,0x00,0x01,0x14,0x00,0x00,0x00,0x14,0x00,0x00,0x00,0x03,0x00,0x00,0x00,0x00,0x00,0x00,0x02,0x1c,0x00,0x00,0x00,0x48,0xff,0xff,0xff,0x0f,0x00,0x00,0x00,0x61,0x72,0x69,0x74,0x68,0x2e,0x63,0x6f,0x6e,0x73,0x74,0x61,0x6e,0x74,0x31,0x00,0x01,0x00,0x00,0x00,0x03,0x00,0x00,0x00,0x00,0x00,0x16,0x00,0x1c,0x00,0x18,0x00,0x17,0x00,0x10,0x00,0x0c,0x00,0x08,0x00,0x00,0x00,0x00,0x00,0x00,0x00,0x07,0x00,0x16,0x00,0x00,0x00,0x00,0x00,0x00,0x01,0x14,0x00,0x00,0x00,0x14,0x00,0x00,0x00,0x02,0x00,0x00,0x00,0x00,0x00,0x00,0x02,0x1c,0x00,0x00,0x00,0x9c,0xff,0xff,0xff,0x0e,0x00,0x00,0x00,0x61,0x72,0x69,0x74,0x68,0x2e,0x63,0x6f,0x6e,0x73,0x74,0x61,0x6e,0x74,0x00,0x00,0x01,0x00,0x00,0x00,0x03,0x00,0x00,0x00,0x00,0x00,0x16,0x00,0x1c,0x00,0x18,0x00,0x00,0x00,0x14,0x00,0x10,0x00,0x0c,0x00,0x00,0x00,0x00,0x00,0x08,0x00,0x07,0x00,0x16,0x00,0x00,0x00,0x00,0x00,0x00,0x01,0x14,0x00,0x00,0x00,0x24,0x00,0x00,0x00,0x24,0x00,0x00,0x00,0x01,0x00,0x00,0x00,0x40,0x00,0x00,0x00,0x03,0x00,0x00,0x00,0xff,0xff,0xff,0xff,0x40,0x00,0x00,0x00,0x06,0x00,0x00,0x00,0x04,0x00,0x04,0x00,0x04,0x00,0x00,0x00,0x1e,0x00,0x00,0x00,0x73,0x65,0x72,0x76,0x69,0x6e,0x67,0x5f,0x64,0x65,0x66,0x61,0x75,0x6c,0x74,0x5f,0x6b,0x65,0x72,0x61,0x73,0x5f,0x74,0x65,0x6e,0x73,0x6f,0x72,0x3a,0x30,0x00,0x00,0x03,0x00,0x00,0x00,0x01,0x00,0x00,0x00,0x40,0x00,0x00,0x00,0x06,0x00,0x00,0x00,0x09,0x00,0x00,0x00,0x90,0x00,0x00,0x00,0x74,0x00,0x00,0x00,0x64,0x00,0x00,0x00,0x54,0x00,0x00,0x00,0x44,0x00,0x00,0x00,0x34,0x00,0x00,0x00,0x24,0x00,0x00,0x00,0x14,0x00,0x00,0x00,0x04,0x00,0x00,0x00,0xa0,0xff,0xff,0xff,0x02,0x00,0x00,0x00,0x00,0x00,0x00,0x02,0xac,0xff,0xff,0xff,0x19,0x00,0x00,0x00,0x00,0x00,0x00,0x19,0xb8,0xff,0xff,0xff,0x2d,0x00,0x00,0x00,0x00,0x00,0x00,0x2d,0xc4,0xff,0xff,0xff,0x09,0x00,0x00,0x00,0x00,0x00,0x00,0x09,0xd0,0xff,0xff,0xff,0x28,0x00,0x00,0x00,0x00,0x00,0x00,0x28,0xdc,0xff,0xff,0xff,0x11,0x00,0x00,0x00,0x00,0x00,0x00,0x11,0xe8,0xff,0xff,0xff,0x16,0x00,0x00,0x00,0x00,0x00,0x00,0x16,0xf4,0xff,0xff,0xff,0x03,0x00,0x00,0x00,0x00,0x00,0x00,0x03,0x0c,0x00,0x0c,0x00,0x0b,0x00,0x00,0x00,0x00,0x00,0x04,0x00,0x0c,0x00,0x00,0x00,0x46,0x00,0x00,0x00,0x00,0x00,0x00,0x46};
#endif
