#ifndef _MODEL_DATA_H_
#define _MODEL_DATA_H_
const unsigned char model[] = {0x1c,0x00,0x00,0x00,0x54,0x46,0x4c,0x33,0x14,0x00,0x20,0x00,0x1c,0x00,0x18,0x00,0x14,0x00,0x10,0x00,0x0c,0x00,0x00,0x00,0x08,0x00,0x04,0x00,0x14,0x00,0x00,0x00,0x1c,0x00,0x00,0x00,0x8c,0x00,0x00,0x00,0xdc,0x00,0x00,0x00,0x38,0x40,0x00,0x00,0x48,0x40,0x00,0x00,0x6c,0x4e,0x00,0x00,0x03,0x00,0x00,0x00,0x01,0x00,0x00,0x00,0x04,0x00,0x00,0x00,0xde,0xbc,0xff,0xff,0x0c,0x00,0x00,0x00,0x1c,0x00,0x00,0x00,0x3c,0x00,0x00,0x00,0x0f,0x00,0x00,0x00,0x73,0x65,0x72,0x76,0x69,0x6e,0x67,0x5f,0x64,0x65,0x66,0x61,0x75,0x6c,0x74,0x00,0x01,0x00,0x00,0x00,0x04,0x00,0x00,0x00,0x18,0xbe,0xff,0xff,0x1b,0x00,0x00,0x00,0x04,0x00,0x00,0x00,0x08,0x00,0x00,0x00,0x6f,0x75,0x74,0x70,0x75,0x74,0x5f,0x30,0x00,0x00,0x00,0x00,0x01,0x00,0x00,0x00,0x04,0x00,0x00,0x00,0x72,0xbe,0xff,0xff,0x04,0x00,0x00,0x00,0x0c,0x00,0x00,0x00,0x6b,0x65,0x72,0x61,0x73,0x5f,0x74,0x65,0x6e,0x73,0x6f,0x72,0x00,0x00,0x00,0x00,0x02,0x00,0x00,0x00,0x2c,0x00,0x00,0x00,0x04,0x00,0x00,0x00,0x64,0xbe,0xff,0xff,0x1e,0x00,0x00,0x00,0x04,0x00,0x00,0x00,0x13,0x00,0x00,0x00,0x43,0x4f,0x4e,0x56,0x45,0x52,0x53,0x49,0x4f,0x4e,0x5f,0x4d,0x45,0x54,0x41,0x44,0x41,0x54,0x41,0x00,0x88,0xbe,0xff,0xff,0x1d,0x00,0x00,0x00,0x04,0x00,0x00,0x00,0x13,0x00,0x00,0x00,0x6d,0x69,0x6e,0x5f,0x72,0x75,0x6e,0x74,0x69,0x6d,0x65,0x5f,0x76,0x65,0x72,0x73,0x69,0x6f,0x6e,0x00,0x1f,0x00,0x00,0x00,0x58,0x3f,0x00,0x00,0x50,0x3f,0x00,0x00,0x34,0x3f,0x00,0x00,0x24,0x2d,0x00,0x00,0xd4,0x2a,0x00,0x00,0xc4,0x22,0x00,0x00,0xb4,0x02,0x00,0x00,0x9c,0x02,0x00,0x00,0x84,0x02,0x00,0x00,0x6c,0x02,0x00,0x00,0x54,0x02,0x00,0x00,0x44,0x01,0x00,0x00,0x2c,0x01,0x00,0x00,0x18,0x01,0x00,0x00,0x04,0x01,0x00,0x00,0xfc,0x00,0x00,0x00,0xf4,0x00,0x00,0x00,0xec,0x00,0x00,0x00,0xe4,0x00,0x00,0x00,0xdc,0x00,0x00,0x00,0xd4,0x00,0x00,0x00,0xcc,0x00,0x00,0x00,0xc4,0x00,0x00,0x00,0xbc,0x00,0x00,0x00,0xb4,0x00,0x00,0x00,0xac,0x00,0x00,0x00,0xa4,0x00,0x00,0x00,0x9c,0x00,0x00,0x00,0x94,0x00,0x00,0x00,0x74,0x00,0x00,0x00,0x04,0x00,0x00,0x00,0x62,0xbf,0xff,0xff,0x04,0x00,0x00,0x00,0x60,0x00,0x00,0x00,0x10,0x00,0x00,0x00,0x00,0x00,0x00,0x00,0x08,0x00,0x0e,0x00,0x08,0x00,0x04,0x00,0x08,0x00,0x00,0x00,0x10,0x00,0x00,0x00,0x24,0x00,0x00,0x00,0x00,0x00,0x06,0x00,0x08,0x00,0x04,0x00,0x06,0x00,0x00,0x00,0x04,0x00,0x00,0x00,0x00,0x00,0x00,0x00,0x0c,0x00,0x18,0x00,0x14,0x00,0x10,0x00,0x0c,0x00,0x04,0x00,0x0c,0x00,0x00,0x00,0x93,0x90,0xdc,0xfa,0xc9,0xd7,0x84,0xbe,0x02,0x00,0x00,0x00,0x02,0x00,0x00,0x00,0x04,0x00,0x00,0x00,0x06,0x00,0x00,0x00,0x32,0x2e,0x31,0x39,0x2e,0x30,0x00,0x00,0xce,0xbf,0xff,0xff,0x04,0x00,0x00,0x00,0x10,0x00,0x00,0x00,0x31,0x2e,0x31,0x30,0x2e,0x30,0x00,0x00,0x00,0x00,0x00,0x00,0x00,0x00,0x00,0x00,0xa8,0xb3,0xff,0xff,0xac,0xb3,0xff,0xff,0xb0,0xb3,0xff,0xff,0xb4,0xb3,0xff,0xff,0xb8,0xb3,0xff,0xff,0xbc,0xb3,0xff,0xff,0xc0,0xb3,0xff,0xff,0xc4,0xb3,0xff,0xff,0xc8,0xb3,0xff,0xff,0xcc,0xb3,0xff,0xff,0xd0,0xb3,0xff,0xff,0xd4,0xb3,0xff,0xff,0xd8,0xb3,0xff,0xff,0xdc,0xb3,0xff,0xff,0x22,0xc0,0xff,0xff,0x04,0x00,0x00,0x00,0x04,0x00,0x00,0x00,0xfd,0xff,0xff,0xff,0x32,0xc0,0xff,0xff,0x04,0x00,0x00,0x00,0x04,0x00,0x00,0x00,0x01,0x00,0x00,0x00,0x42,0xc0,0xff,0xff,0x04,0x00,0x00,0x00,0x08,0x00,0x00,0x00,0x01,0x00,0x00,0x00,0x01,0x00,0x00,0x00,0x56,0xc0,0xff,0xff,0x04,0x00,0x00,0x00,0x00,0x01,0x00,0x00,0x00,0x00,0x00,0x00,0x00,0x00,0x00,0x00,0x00,0x00,0x00,0x00,0x00,0x00,0x00,0x00,0x00,0x00,0x00,0x00,0x00,0x00,0x00,0x00,0x00,0x00,0x00,0x00,0x00,0x00,0x00,0x00,0x00,0x00,0x00,0x00,0x00,0x00,0x00,0x00,0x00,0x00,0x00,0x00,0x00,0x00,0x00,0x00,0x00,0x00,0x00,0x00,0x00,0x00,0x00,0x00,0x00,0x00,0x00,0x00,0x00,0x00,0x00,0x00,0x00,0x00,0x00,0x00,0x00,0x00,0x00,0x00,0x00,0x00,0x00,0x00,0x00,0x00,0x00,0x00,0x00,0x00,0x00,0x00,0x00,0x00,0x00,0x00,0x00,0x00,0x00,0x00,0x00,0x00,0x00,0x00,0x00,0x00,0x00,0x00,0x00,0x00,0x00,0x00,0x00,0x00,0x00,0x00,0x00,0x00,0x00,0x00,0x00,0x00,0x00,0x00,0x00,0x00,0x00,0x00,0x00,0x00,0x00,0x00,0x00,0x00,0x00,0x00,0x00,0x00,0x00,0x00,0x00,0x00,0x00,0x00,0x00,0x00,0x00,0x00,0x00,0x00,0x00,0x00,0x00,0x00,0x00,0x00,0x00,0x00,0x00,0x00,0x00,0x00,0x00,0x00,0x00,0x00,0x00,0x00,0x00,0x00,0x00,0x00,0x00,0x00,0x00,0x00,0x00,0x00,0x00,0x00,0x00,0x00,0x00,0x00,0x00,0x00,0x00,0x00,0x00,0x00,0x00,0x00,0x00,0x00,0x00,0x00,0x00,0x00,0x00,0x00,0x00,0x00,0x00,0x00,0x00,0x00,0x00,0x00,0x00,0x00,0x00,0x00,0x00,0x00,0x00,0x00,0x00,0x00,0x00,0x00,0x00,0x00,0x00,0x00,0x00,0x00,0x00,0x00,0x00,0x00,0x00,0x00,0x00,0x00,0x00,0x00,0x00,0x00,0x00,0x00,0x00,0x00,0x00,0x00,0x00,0x00,0x00,0x00,0x00,0x00,0x00,0x00,0x00,0x00,0x00,0x00,0x00,0x00,0x00,0x00,0x00,0x00,0x00,0x00,0x62,0xc1,0xff,0xff,0x04,0x00,0x00,0x00,0x08,0x00,0x00,0x00,0x00,0x00,0x00,0x00,0x00,0x00,0x00,0x00,0x76,0xc1,0xff,0xff,0x04,0x00,0x00,0x00,0x08,0x00,0x00,0x00,0x00,0x00,0x00,0x00,0x04,0x00,0x00,0x00,0x8a,0xc1,0xff,0xff,0x04,0x00,0x00,0x00,0x08,0x00,0x00,0x00,0x00,0x00,0x00,0x00,0x06,0x00,0x00,0x00,0x9e,0xc1,0xff,0xff,0x04,0x00,0x00,0x00,0x08,0x00,0x00,0x00,0x00,0x00,0x00,0x00,0x09,0x00,0x00,0x00,0xb2,0xc1,0xff,0xff,0x04,0x00,0x00,0x00,0x00,0x20,0x00,0x00,0x30,0x88,0x2c,0xbe,0x74,0xdb,0x34,0xbe,0x00,0x76,0x21,0xbe,0xd0,0x1e,0xb4,0xbd,0xc0,0x39,0x1e,0x3e,0x20,0x2b,0x01,0x3d,0x80,0xfa,0xb6,0x3c,0x70,0x85,0x0f,0x3d,0x00,0xd8,0x63,0xbd,0x00,0x43,0x43,0xbb,0xf0,0x8d,0xb2,0x3d,0x14,0x1c,0x1c,0x3e,0xcc,0x2e,0x24,0xbe,0xc0,0x3a,0x97,0xbc,0x10,0xa9,0xba,0xbd,0x00,0xf6,0xa5,0xbb,0xe0,0x72,0xfb,0xbd,0x54,0xdf,0x60,0xbe,0xf0,0xa6,0x54,0xbe,0x78,0x8e,0xb0,0xbd,0x40,0x45,0xe7,0xbc,0x30,0xa3,0xdc,0x3d,0xbc,0x90,0x0d,0x3e,0xa0,0x2e,0x0a,0xbe,0xb0,0x40,0x9a,0x3d,0xe8,0x75,0xd8,0xbd,0x20,0x45,0x8a,0x3c,0x28,0x58,0x65,0x3e,0x30,0xe0,0x1c,0x3d,0x18,0x0f,0x88,0xbd,0x78,0x2f,0xc5,0x3d,0xfc,0xfd,0x4c,0x3e,0xdc,0x73,0x31,0x3e,0xb8,0x09,0xab,0xbd,0x40,0xf3,0x01,0xbd,0x14,0x68,0x65,0x3e,0x3c,0x24,0x66,0x3e,0x38,0xeb,0xf2,0x3d,0xf0,0xe1,0x9c,0x3d,0xb0,0x46,0xde,0x3d,0xf0,0xf5,0xd6,0xbd,0x0c,0x07,0x75,0x3e,0xa0,0x87,0x53,0x3d,0xf8,0x68,0x33,0x3e,0xb0,0x91,0x00,0x3d,0xd0,0x43,0xf8,0x3d,0xb0,0xca,0xbc,0x3d,0x48,0x0c,0xfa,0xbd,0x68,0xfb,0x00,0xbe,0x40,0xf9,0xac,0xbc,0xc0,0x1b,0x61,0x3d,0x84,0x7c,0x01,0x3e,0x44,0x56,0x66,0xbe,0xfc,0x1b,0x78,0x3e,0x98,0x3b,0xb5,0x3d,0xe0,0x6e,0xbc,0xbd,0xc0,0x14,0xe1,0xbc,0xe0,0xa2,0x63,0xbd,0x50,0x5f,0xfa,0xbd,0x84,0x8f,0x57,0xbe,0xf4,0xa7,0x5f,0x3e,0xa4,0x25,0x0d,0xbe,0x8c,0x58,0x67,0x3e,0x94,0x05,0x1b,0xbe,0x68,0xad,0x79,0xbe,0x70,0x29,0xac,0xbd,0x9c,0x29,0x0a,0x3e,0xb8,0xea,0x31,0x3e,0xb0,0xa8,0x64,0xbe,0xa4,0xc3,0x46,0x3e,0x60,0x7c,0x38,0x3e,0x30,0x45,0x57,0xbd,0x08,0xa8,0x73,0x3e,0x00,0xb3,0x97,0x3b,0x6c,0xa9,0x6e,0xbe,0x98,0x39,0xff,0x3d,0x30,0xf1,0x0b,0x3e,0xdc,0xb1,0x62,0xbe,0x80,0xd5,0x99,0xbd,0x00,0xb1,0xf4,0xbd,0x00,0x95,0x30,0xbd,0xd0,0x75,0x2f,0xbe,0x00,0x71,0x59,0xbe,0xf0,0x65,0x69,0x3d,0x4c,0xce,0x24,0x3e,0x68,0x7d,0x6b,0x3e,0xf0,0x17,0x2c,0xbe,0xa0,0xd1,0xe1,0x3c,0x80,0x7a,0x33,0x3c,0x1c,0x79,0x7f,0x3e,0x68,0x1d,0xa1,0x3d,0x30,0x5e,0x8b,0x3d,0x18,0x25,0x59,0xbe,0x28,0xad,0x86,0xbd,0x80,0xdf,0xcd,0x3d,0x98,0x79,0x7d,0xbe,0xe0,0x78,0xd5,0x3d,0xd4,0xc3,0x79,0x3e,0x40,0xb8,0x51,0x3e,0x10,0xa0,0x29,0xbd,0xd8,0x5e,0x94,0xbd,0xcc,0xbd,0x74,0x3e,0x00,0x45,0xff,0xbb,0xb8,0x7a,0x2e,0xbe,0x00,0xc8,0x81,0xbc,0xb8,0x4f,0x84,0x3d,0x40,0x2a,0x6a,0xbc,0x08,0x25,0x61,0x3e,0x18,0xf7,0xe2,0x3d,0xf4,0x3d,0x40,0x3e,0x14,0x1c,0x16,0x3e,0xe0,0xc2,0xd0,0x3d,0x30,0xa6,0x46,0x3d,0xf8,0x96,0xda,0xbd,0xe4,0xf2,0x0d,0xbe,0x80,0xdf,0x7b,0xbc,0x38,0xc7,0x09,0x3e,0x98,0x6b,0x6a,0x3e,0x20,0xdc,0xe1,0x3c,0xb4,0xce,0x61,0xbe,0x00,0x5c,0x39,0x3e,0x60,0xd1,0x05,0x3d,0x00,0x20,0x69,0x3b,0x44,0x45,0x3d,0x3e,0xc0,0xf3,0x57,0xbd,0x00,0xfa,0x08,0xbc,0x00,0xcd,0x8b,0x3c,0x30,0xb4,0x67,0xbe,0xf0,0x2f,0xd8,0x3d,0xdc,0x19,0x75,0x3e,0xc0,0xa1,0xf2,0xbc,0x00,0x15,0x98,0xbc,0x80,0x00,0xf5,0xbb,0x80,0xe1,0x13,0xbd,0xc8,0x3c,0x3d,0xbe,0xa4,0x8e,0x36,0x3e,0x70,0xb1,0x96,0x3d,0x94,0xb4,0x04,0x3e,0xd0,0xf7,0xa4,0x3d,0xe4,0xcf,0x6f,0x3e,0xb0,0x1d,0x5f,0xbd,0x00,0x42,0xe3,0x3c,0x40,0x69,0x53,0x3d,0x88,0xcf,0x62,0x3e,0x88,0x65,0x6b,0xbe,0x00,0xb6,0xdf,0x3a,0x20,0x6e,0x78,0x3d,0xf0,0xea,0x85,0xbd,0xc8,0x92,0xfd,0xbd,0xa8,0xe9,0xc3,0xbd,0xf0,0x2f,0x43,0x3e,0x80,0xea,0x27,0x3e,0x60,0xc1,0xc6,0x3c,0xa0,0x37,0xc9,0x3d,0xf0,0xab,0xc4,0x3d,0x40,0x13,0xc2,0xbd,0xdc,0xd0,0x13,0x3e,0x50,0x5e,0xb4,0x3d,0x98,0x90,0xe5,0xbd,0x9c,0xca,0x55,0xbe,0x5c,0x9f,0x02,0x3e,0x28,0x99,0x90,0xbd,0xa0,0x58,0xc6,0x3c,0x80,0x63,0x0b,0x3e,0x00,0x37,0x09,0xbb,0x18,0xb6,0xb5,0x3d,0xa8,0x61,0xbc,0xbd,0x88,0x13,0x7a,0xbe,0xc0,0xe8,0x8e,0x3d,0x98,0xa7,0x3c,0x3e,0xf0,0xc3,0x60,0x3e,0xc8,0x53,0x0f,0xbe,0xc8,0x1a,0xe7,0xbd,0x20,0xaa,0x85,0xbc,0x88,0x70,0x14,0x3e,0x28,0x61,0x31,0x3e,0x80,0x6d,0xf4,0x3d,0x90,0x42,0x2f,0x3e,0x50,0x06,0x55,0xbe,0x10,0xbb,0xee,0x3d,0x3c,0x7b,0x1e,0xbe,0xa0,0x00,0x82,0xbd,0x34,0xe0,0x24,0x3e,0x28,0xb6,0xa4,0x3d,0x44,0xec,0x71,0x3e,0xa8,0x7c,0x49,0xbe,0x10,0xd1,0x04,0xbd,0x64,0x2c,0x44,0xbe,0x40,0x96,0x5d,0x3e,0x58,0x4f,0xed,0x3d,0x24,0xf9,0x28,0xbe,0xd8,0x8d,0x78,0x3e,0x48,0xf5,0xd9,0x3d,0xc0,0xa0,0x52,0x3c,0xbc,0xbc,0x78,0x3e,0x60,0xca,0x70,0xbe,0x68,0x56,0x66,0x3e,0x80,0x9c,0xe4,0x3c,0x80,0x48,0xb0,0xbb,0x7c,0xab,0x23,0x3e,0x24,0x6f,0x14,0xbe,0x9c,0x9f,0x22,0xbe,0x18,0x09,0x4a,0x3e,0x38,0x82,0xd8,0xbd,0xc8,0xbd,0x82,0x3d,0x1c,0xf9,0x6a,0x3e,0x90,0xe3,0x8e,0x3d,0x50,0x9c,0x14,0x3e,0x90,0x80,0xdc,0x3d,0x00,0x6b,0x8d,0xbd,0xb8,0x7b,0x79,0xbe,0xc4,0x3c,0x77,0x3e,0x38,0xfd,0x00,0xbe,0xe4,0x33,0x73,0xbe,0x60,0x18,0xb5,0xbd,0x3c,0x86,0x0d,0x3e,0xe4,0x54,0x11,0x3e,0xcc,0xcc,0x68,0xbe,0x40,0xc9,0x72,0xbc,0x28,0x4d,0x26,0x3e,0xf0,0x64,0xc8,0x3d,0xc0,0xd1,0x11,0x3d,0x60,0xae,0x66,0xbe,0x60,0xd9,0xd1,0xbc,0x20,0x04,0xf3,0x3d,0xe8,0xb9,0xfc,0x3d,0x2c,0xbe,0x48,0xbe,0xe8,0x98,0x59,0x3e,0x00,0x3d,0x42,0x3e,0xd0,0x27,0x3f,0x3e,0x50,0x52,0x45,0xbe,0xc8,0xaa,0xb9,0xbd,0xc0,0xb8,0xc8,0xbd,0x30,0xba,0x54,0x3e,0x00,0x31,0x0a,0xbe,0x34,0xbe,0x19,0x3e,0x38,0xbc,0xde,0xbd,0x9c,0xd7,0x2c,0xbe,0xa8,0x11,0x5d,0xbe,0x70,0x7f,0x5e,0xbe,0x30,0x4d,0x24,0xbe,0xb8,0xd1,0x9e,0xbd,0x20,0x96,0xc9,0x3c,0x54,0xd7,0x29,0x3e,0xa4,0x65,0x05,0x3e,0xa0,0xa4,0x97,0xbd,0x20,0xb4,0xa4,0xbd,0x08,0xf3,0xed,0x3d,0xe0,0x8f,0xb0,0x3d,0x84,0x0e,0x13,0x3e,0x70,0x7a,0x61,0xbd,0x00,0x4b,0x59,0x3c,0xcc,0x1f,0x02,0xbe,0xf4,0x72,0x6e,0xbe,0xcc,0xb8,0x0e,0xbe,0xe0,0x47,0x88,0x3c,0xd0,0x02,0xa7,0x3d,0x18,0xa9,0xc2,0x3d,0x68,0x3a,0x76,0xbe,0xa0,0x7c,0x86,0xbd,0x14,0x3a,0x0b,0xbe,0xd0,0x7f,0x33,0x3d,0x00,0x69,0xeb,0x3c,0xb8,0x62,0x0e,0x3e,0x48,0x19,0xc0,0x3d,0x80,0x2c,0xe5,0x3d,0x74,0x51,0x0d,0x3e,0x58,0x92,0x8c,0x3d,0x88,0x79,0x42,0x3e,0x34,0xd0,0x78,0xbe,0xa8,0x09,0x7d,0xbe,0x70,0x0e,0x69,0xbe,0x80,0x30,0x43,0x3d,0x64,0xe9,0x2b,0x3e,0x34,0x21,0x6c,0xbe,0xfc,0x23,0x05,0x3e,0xb8,0x78,0x01,0xbe,0x64,0x65,0x18,0xbe,0xfc,0xce,0x3b,0x3e,0x18,0xba,0x83,0x3d,0x38,0xb2,0x89,0xbd,0x44,0x8f,0x65,0x3e,0x50,0x11,0x27,0x3e,0x1c,0x07,0x39,0x3e,0x80,0xc7,0x3e,0x3e,0x10,0xeb,0xba,0xbd,0x18,0xc1,0xa2,0x3d,0x50,0x7b,0xdb,0xbd,0x10,0xad,0x34,0xbe,0x48,0x2a,0xcf,0x3d,0x0c,0x48,0x78,0x3e,0x80,0x5c,0x98,0xbc,0x40,0xbb,0x68,0xbe,0x50,0xe7,0x02,0x3e,0xf0,0x39,0xa5,0x3d,0x18,0xac,0x2f,0x3e,0x10,0x46,0x23,0x3e,0x80,0xed,0xc7,0x3c,0x30,0xc4,0x31,0xbd,0x50,0x45,0xbf,0xbd,0xc0,0x72,0xbf,0xbc,0xa8,0xab,0x14,0xbe,0x80,0x22,0xca,0xbc,0x10,0xa5,0x33,0x3e,0x88,0x0f,0x34,0xbe,0x80,0xe8,0x9c,0xbb,0x40,0xa0,0xa9,0xbd,0x40,0x18,0xe6,0xbc,0xd8,0xd5,0x64,0xbe,0xb4,0x7f,0x03,0xbe,0xe0,0x87,0xcc,0x3c,0x94,0x22,0x0f,0xbe,0xc8,0xd9,0x7b,0x3e,0x90,0xf8,0xb9,0x3d,0x64,0xb0,0x6e,0x3e,0x60,0xe2,0xaa,0xbc,0x68,0x12,0x24,0xbe,0x80,0x1a,0x76,0xbe,0xa0,0x52,0x6d,0xbd,0xa0,0x31,0xba,0xbc,0x3c,0xea,0x29,0xbe,0x50,0xa6,0x0f,0x3e,0xa8,0xfc,0x1c,0xbe,0x8c,0x35,0x64,0xbe,0x34,0x4f,0x46,0xbe,0x54,0xdc,0x4f,0x3e,0xe0,0xbf,0x43,0xbe,0x98,0x9e,0x63,0xbe,0x08,0x83,0x1e,0x3e,0xd4,0x9f,0x00,0xbe,0x48,0x53,0x3c,0x3e,0xa4,0xa9,0x7e,0x3e,0x80,0x92,0xfb,0x3b,0xac,0x78,0x3d,0xbe,0x68,0xe0,0x9a,0xbd,0xf8,0x75,0x72,0xbe,0x00,0xba,0x36,0xbe,0xe8,0xab,0x4e,0xbe,0x08,0x4b,0xb7,0xbd,0x30,0x11,0xf7,0x3d,0x40,0xf0,0xdf,0xbc,0x60,0xc2,0x1d,0xbe,0xf8,0x78,0x66,0xbe,0xa4,0xdf,0x2f,0xbe,0x48,0x57,0x99,0x3d,0x90,0x46,0xd2,0xbd,0x88,0x29,0x0a,0x3e,0xc8,0x59,0xca,0x3d,0xc4,0xce,0x5d,0x3e,0x24,0x83,0x4c,0x3e,0x88,0x68,0xf7,0x3d,0x00,0xe0,0x50,0xbd,0x50,0xf7,0x9b,0xbd,0x98,0xb0,0xad,0xbd,0x00,0xc7,0xb5,0x3c,0x40,0x9c,0xe2,0xbc,0xc0,0x72,0x61,0x3e,0x00,0x75,0xfc,0x3b,0x80,0x5b,0xe9,0x3d,0xbc,0x5d,0x5a,0xbe,0x98,0x63,0x48,0x3e,0x00,0x48,0xae,0x39,0xc0,0x97,0x3e,0xbd,0xe8,0xd5,0x5b,0xbe,0x14,0x8e,0x5d,0xbe,0xb0,0x4f,0x51,0x3d,0xc0,0x5d,0x43,0xbd,0x40,0xc3,0x84,0xbd,0xa0,0x13,0x89,0xbd,0xe0,0x42,0x4c,0x3e,0x40,0x26,0xdd,0x3c,0x70,0xae,0x5b,0xbd,0x8c,0x39,0x0b,0x3e,0xf8,0xa6,0x81,0x3d,0xa8,0xe8,0x11,0x3e,0x30,0xf0,0x66,0x3d,0x78,0xb9,0xec,0xbd,0x88,0x4b,0x80,0x3d,0x58,0xbc,0x46,0xbe,0x08,0x40,0xb7,0xbd,0xc0,0x20,0x69,0xbc,0x60,0x2f,0x80,0xbc,0xc0,0xc4,0x34,0x3e,0xa0,0x4a,0x69,0x3d,0x8c,0x0f,0x5c,0xbe,0xf0,0x7e,0xed,0x3d,0x00,0x70,0xb9,0x3a,0xc0,0xd8,0x3a,0xbe,0xec,0x70,0x00,0x3e,0xa4,0xbd,0x28,0xbe,0x40,0x97,0x51,0x3d,0x30,0x72,0x3b,0xbd,0x00,0x37,0x8c,0xbb,0x88,0x79,0x00,0x3e,0x30,0xf5,0xb7,0xbd,0x30,0x08,0x53,0xbd,0x00,0xa0,0x99,0xbd,0x2c,0x6d,0x25,0xbe,0x84,0x8f,0x41,0xbe,0x10,0xa0,0x36,0x3d,0x8c,0x82,0x42,0xbe,0x4c,0x5b,0x1e,0x3e,0x80,0xbb,0xa6,0xbc,0x80,0xf6,0xf7,0xbb,0x80,0x8a,0xc2,0xbd,0x80,0xd5,0x0e,0x3d,0x60,0x80,0xf4,0xbc,0x00,0x56,0xc0,0x3c,0xd0,0x6b,0x65,0x3e,0x30,0xc7,0x30,0x3d,0x30,0xd6,0xae,0x3d,0xd0,0x43,0xcb,0xbd,0xd0,0x4c,0x74,0x3e,0x40,0x05,0x7d,0xbd,0xdc,0x38,0x5a,0xbe,0xf8,0xb2,0x49,0xbe,0x08,0x4f,0x9e,0x3d,0xb0,0x85,0x3f,0xbd,0x74,0x80,0x3e,0xbe,0x28,0x5b,0x16,0xbe,0xb0,0x1e,0x32,0x3e,0x14,0xde,0x75,0xbe,0x34,0x81,0x1f,0x3e,0xb4,0xbc,0x42,0xbe,0x00,0x24,0xde,0xba,0x90,0x78,0xdc,0x3d,0x80,0x0c,0x9c,0xbd,0x20,0x8a,0xf1,0xbd,0xd8,0x0d,0xe9,0xbd,0x80,0xe6,0x51,0x3e,0xd8,0xf1,0xbe,0x3d,0x34,0x49,0x56,0xbe,0x08,0xbc,0x9e,0x3d,0x60,0x63,0xc0,0xbd,0x40,0x7d,0x79,0x3e,0x80,0x8e,0xaf,0x3c,0x80,0xec,0xdd,0x3b,0x50,0x18,0x19,0x3d,0xac,0x53,0x79,0xbe,0xb0,0x0e,0x46,0xbe,0x64,0xc5,0x79,0xbe,0x78,0x33,0x3c,0x3e,0x68,0x93,0x6f,0x3e,0x50,0xca,0x03,0x3e,0x94,0x1c,0x07,0x3e,0x80,0xde,0x2a,0x3e,0x38,0x70,0xd9,0xbd,0x80,0xe1,0x8c,0x3b,0x70,0x1e,0x42,0x3e,0x68,0x4b,0x62,0xbe,0x20,0x08,0x8b,0xbd,0x74,0x60,0x2e,0xbe,0x44,0x9e,0x44,0xbe,0xe0,0x18,0x54,0xbe,0x3c,0x70,0x08,0xbe,0xb0,0xc0,0x55,0xbe,0x00,0x7c,0x0b,0xbd,0x50,0xfb,0x73,0x3e,0x30,0xb8,0xa0,0x3d,0x40,0xab,0xd0,0x3d,0x7c,0xd3,0x08,0xbe,0x90,0x1c,0x1f,0x3d,0x60,0x8a,0xf8,0xbd,0x80,0x23,0x2a,0xbe,0x00,0x05,0xe0,0x3d,0xc0,0x79,0x20,0xbe,0xbc,0x0e,0x15,0x3e,0xc8,0x86,0x63,0xbe,0x00,0xe9,0x69,0xbc,0x10,0x47,0xd2,0x3d,0xdc,0xd0,0x58,0x3e,0x28,0x61,0xe8,0xbd,0x20,0x97,0xdb,0xbc,0x40,0x09,0x6e,0x3d,0x38,0x8a,0x68,0x3e,0xc0,0x53,0x23,0x3d,0x00,0xc8,0x40,0x3e,0x78,0x98,0x60,0xbe,0x30,0x71,0x31,0xbd,0xd8,0xf3,0xce,0xbd,0xec,0x0b,0x70,0x3e,0x00,0x0b,0xa9,0x3c,0xa0,0xd9,0xa1,0x3c,0x2c,0x19,0x1b,0xbe,0xcc,0x61,0x1c,0x3e,0x58,0xd6,0x7f,0x3e,0xe0,0x80,0xf6,0x3d,0xbc,0xb6,0x29,0x3e,0x4c,0xe2,0x26,0xbe,0x60,0x2f,0x82,0xbc,0xd0,0x2b,0xb3,0xbd,0xc0,0xbe,0x6d,0xbd,0xf0,0x82,0x1b,0x3e,0x00,0x59,0x41,0xbe,0x28,0xae,0xdc,0x3d,0x30,0x28,0x56,0x3d,0x08,0xe7,0x26,0x3e,0xe0,0xda,0xca,0x3c,0xe4,0x1d,0x08,0xbe,0x50,0x51,0x00,0xbd,0x4c,0xe6,0x74,0x3e,0x60,0x5b,0xa0,0xbc,0xa8,0x67,0x9c,0x3d,0x70,0xe1,0x36,0x3d,0x28,0x13,0x09,0xbe,0xd4,0xe2,0x2b,0x3e,0x1c,0xb9,0x77,0xbe,0xe0,0x54,0xba,0x3c,0x50,0x9e,0x5c,0xbd,0xd0,0xf6,0xb4,0x3d,0x10,0x0e,0x54,0xbe,0xf4,0x86,0x22,0x3e,0x2c,0xf7,0x59,0xbe,0xe0,0x11,0x12,0xbe,0xd0,0xc6,0x3b,0x3d,0x90,0x01,0x42,0xbd,0xd8,0x7a,0xbd,0xbd,0x00,0x34,0x87,0x3b,0xa8,0x0b,0x02,0xbe,0xec,0x61,0x58,0x3e,0xb4,0x97,0x27,0xbe,0x88,0xba,0xa7,0xbd,0x00,0x26,0x11,0xbd,0xc0,0xb7,0x6a,0xbd,0xd4,0x71,0x57,0x3e,0xb0,0xe6,0x26,0x3d,0x80,0x19,0xd2,0xbc,0x44,0x90,0x24,0xbe,0xd8,0xbf,0x7a,0x3e,0xb0,0x1f,0x0a,0xbd,0xa8,0x63,0x51,0xbe,0x60,0x83,0x7c,0x3e,0x30,0xcc,0xe3,0xbd,0x28,0x27,0xb9,0xbd,0x5c,0x0e,0x1d,0x3e,0xec,0x49,0x26,0xbe,0x30,0x6d,0x55,0xbe,0x40,0x73,0x01,0xbe,0x18,0x64,0x8a,0xbd,0xc8,0xfe,0x0a,0xbe,0xb0,0xf5,0x73,0x3d,0x34,0x0f,0x1e,0x3e,0xd0,0x20,0x85,0xbd,0x80,0xf7,0xd5,0xbd,0xa8,0x5a,0x07,0x3e,0x00,0x16,0xdd,0x3c,0xb8,0x7d,0x42,0xbe,0xa4,0xd6,0x29,0xbe,0xe0,0xbc,0xb5,0x3c,0x68,0x5d,0xec,0x3d,0x80,0xa0,0x43,0x3c,0xc0,0xe9,0x3d,0x3d,0x30,0x4d,0x1b,0x3d,0x40,0x56,0xba,0x3d,0xc0,0x2b,0x2c,0xbe,0xbc,0x81,0x33,0xbe,0x00,0x2e,0x4e,0xbb,0xf0,0x4f,0x7d,0xbe,0x00,0x34,0x2d,0x3a,0x80,0xd2,0xfd,0x3d,0xd0,0x37,0x09,0x3d,0x18,0x77,0x9d,0x3d,0x80,0xdf,0xb4,0x3c,0x80,0x5a,0x33,0x3c,0x60,0x63,0x14,0x3e,0x40,0xf0,0xfe,0xbd,0x98,0x13,0x85,0x3d,0x44,0x63,0x55,0x3e,0xb0,0xe2,0x16,0xbd,0x2c,0x3d,0x39,0xbe,0x64,0x0a,0x06,0xbe,0x60,0xc9,0xe7,0x3c,0x90,0x61,0x64,0xbd,0x80,0x63,0x96,0xbb,0x78,0x94,0x65,0xbe,0xd8,0x31,0xcb,0xbd,0xa8,0x81,0xab,0x3d,0x10,0x34,0x95,0x3d,0x40,0x24,0xdb,0x3d,0x0c,0xa2,0x35,0x3e,0x20,0x48,0x25,0x3d,0xd0,0x83,0x41,0x3d,0x70,0x60,0xe0,0x3d,0xb0,0x27,0xe4,0xbd,0x40,0x0b,0x66,0x3c,0xf0,0x14,0x68,0xbe,0xf0,0x92,0x15,0x3d,0x40,0x4c,0xc1,0xbd,0xf0,0xdf,0xf0,0xbd,0x7c,0xa9,0x5f,0x3e,0x5c,0x0e,0x22,0x3e,0xa0,0x80,0x1a,0x3e,0x58,0xa7,0x63,0x3e,0x20,0x46,0xb2,0x3d,0x68,0x81,0x30,0x3e,0xcc,0x50,0x32,0x3e,0x40,0x3e,0xcd,0xbd,0x00,0xdc,0xa4,0x3a,0x80,0x80,0xa9,0xbc,0x2c,0xb6,0x78,0xbe,0xc8,0x81,0x38,0x3e,0x10,0x5c,0x61,0x3e,0x88,0xac,0x42,0x3e,0xe0,0x6c,0x69,0x3e,0xa4,0x7b,0x57,0xbe,0x04,0xb4,0x17,0xbe,0xac,0x40,0x2f,0xbe,0x90,0xa8,0x47,0xbe,0x30,0x78,0x5a,0xbd,0xd8,0xd3,0x2c,0xbe,0xa0,0x9c,0x01,0x3d,0xd0,0x9f,0x78,0x3d,0x08,0x66,0x4d,0x3e,0x00,0x2a,0x5e,0xbe,0x88,0xf3,0x2b,0xbe,0xc4,0x31,0x37,0xbe,0x94,0x4e,0x66,0xbe,0xd8,0xe7,0x2c,0xbe,0xc0,0x7b,0x57,0x3e,0xb8,0x3a,0x1f,0x3e,0x20,0x59,0xc8,0x3d,0x50,0x64,0x67,0xbd,0x18,0xbe,0x39,0x3e,0xb0,0x43,0x04,0x3d,0x94,0x45,0x5f,0xbe,0xbc,0x76,0x01,0xbe,0xb4,0x24,0x25,0xbe,0x3c,0x21,0x23,0xbe,0xf8,0x03,0x26,0x3e,0xa8,0xf9,0x87,0x3d,0x58,0x00,0x70,0x3e,0xb0,0xea,0x43,0x3e,0xf0,0x01,0xa2,0x3d,0x60,0x45,0x6c,0x3e,0xf8,0xd2,0x71,0xbe,0x4c,0x43,0x48,0x3e,0x8c,0x6d,0x3e,0x3e,0x30,0xa5,0x37,0x3e,0x38,0xc3,0x3a,0x3e,0xcc,0x3c,0x1f,0xbe,0xb8,0x4d,0xa4,0x3d,0x10,0xc0,0x30,0xbd,0x20,0x06,0xc3,0x3d,0x50,0xe9,0x1d,0xbd,0xa0,0xd2,0x2d,0xbe,0xe8,0x3c,0x2d,0xbe,0x2c,0xea,0x78,0xbe,0x40,0xaf,0x3f,0xbd,0x8c,0x89,0x5b,0xbe,0x2c,0x7e,0x5b,0xbe,0x80,0x46,0xd6,0x3b,0x88,0xae,0x77,0xbe,0x10,0xc9,0x14,0x3d,0xc0,0x0a,0xb5,0x3d,0x0c,0x91,0x5f,0x3e,0xb8,0x45,0x5c,0xbe,0xd0,0x2e,0xd9,0xbd,0x48,0x8a,0x57,0xbe,0xd0,0x27,0x70,0xbd,0xc0,0x25,0x45,0x3c,0x04,0x20,0x2e,0x3e,0xc0,0xbb,0xfa,0x3d,0x18,0xf6,0xec,0xbd,0x90,0xda,0x3f,0x3e,0x40,0x5e,0xf6,0xbd,0x14,0xe3,0x55,0x3e,0x70,0x9b,0x5e,0x3d,0xb0,0x2a,0x1a,0xbd,0x04,0x4c,0x5d,0xbe,0x40,0x14,0x46,0x3c,0x74,0x49,0x14,0xbe,0xbc,0x9f,0x4c,0xbe,0xa0,0xb1,0xec,0x3d,0x68,0xcf,0xe7,0xbd,0x78,0x56,0x37,0xbe,0xb0,0x88,0xe9,0xbd,0x98,0x10,0x89,0x3d,0x9c,0x28,0x11,0xbe,0xe0,0xb6,0x89,0x3c,0xd0,0x47,0x49,0xbe,0xd4,0xdb,0x16,0xbe,0xe4,0xa1,0x3d,0xbe,0xe8,0xc1,0xf7,0xbd,0x40,0x8d,0x7e,0x3c,0x58,0x58,0x05,0xbe,0xf8,0x9e,0x4c,0xbe,0x74,0xdf,0x4a,0xbe,0x04,0x87,0x69,0x3e,0x30,0x9d,0xba,0xbd,0x40,0x61,0xe5,0x3d,0x04,0xa5,0x20,0xbe,0xc8,0xa0,0xd4,0xbd,0x90,0xd2,0xb7,0x3d,0x30,0x4c,0x39,0x3d,0x18,0x71,0xe0,0x3d,0x60,0x0f,0x09,0xbd,0x80,0x8e,0xaa,0xbc,0xe0,0xd5,0x6c,0x3d,0x90,0x6a,0xea,0x3d,0xa0,0x65,0x3a,0x3e,0x94,0x40,0x1f,0xbe,0x48,0x5a,0xac,0xbd,0x18,0x8e,0xa2,0xbd,0xf0,0xa7,0x29,0xbd,0xa0,0x36,0xa7,0xbc,0xe0,0x85,0x19,0x3d,0x50,0x66,0x0d,0xbd,0xa8,0xfc,0x9f,0xbd,0x08,0x4c,0x1b,0xbe,0x40,0xd4,0xab,0x3d,0xc0,0x69,0x62,0xbe,0xe0,0xf2,0x79,0xbd,0x80,0x3c,0x59,0xbe,0x18,0x77,0x1c,0xbe,0x60,0x64,0x85,0xbd,0x98,0xe3,0x2e,0xbe,0xe0,0xd9,0x70,0xbd,0x18,0x02,0xc5,0xbd,0x28,0xe9,0xdc,0x3d,0xe8,0xbb,0xc0,0xbd,0x54,0xf0,0x6e,0xbe,0x78,0x81,0x58,0xbe,0xc8,0x14,0x1d,0xbe,0x58,0xc5,0x9d,0x3d,0xc0,0xb0,0x33,0x3e,0x80,0x8e,0x9f,0xbd,0xcc,0x27,0x45,0x3e,0x80,0x26,0x27,0x3e,0xd0,0xb8,0xcf,0x3d,0x14,0xe1,0x34,0x3e,0xa0,0x5d,0xdd,0xbc,0x40,0x90,0x1e,0x3d,0xc8,0x19,0xde,0xbd,0xf0,0x92,0x48,0x3d,0x64,0x7e,0x2f,0x3e,0x70,0x85,0x2d,0x3e,0x60,0x21,0xbc,0xbc,0xf0,0xd6,0x2d,0xbe,0xe8,0xed,0xae,0x3d,0xcc,0xa5,0x58,0x3e,0x9c,0x2f,0x2f,0xbe,0xb0,0xd6,0x14,0x3e,0x00,0x96,0xdf,0x3b,0x94,0x4a,0x2b,0xbe,0x00,0xe9,0x36,0x3d,0x70,0x68,0x60,0x3d,0x1c,0xe9,0x3b,0x3e,0x38,0x14,0xec,0xbd,0x70,0x39,0xb0,0xbd,0x0c,0x3a,0x0f,0x3e,0x30,0xd8,0x05,0x3e,0x80,0x2c,0x89,0x3d,0x64,0xad,0x28,0x3e,0x70,0x96,0xc2,0xbd,0x00,0x1a,0xec,0x3d,0xf8,0xbc,0xca,0x3d,0x3c,0x47,0x3e,0xbe,0x8c,0x49,0x6e,0x3e,0xc0,0xf9,0x7c,0x3d,0xa0,0xae,0xfa,0x3d,0xec,0xe6,0x03,0x3e,0x48,0xd5,0x3b,0x3e,0xf0,0x55,0x68,0x3d,0xa0,0x39,0xf0,0xbc,0x80,0x0b,0x34,0x3d,0x64,0xee,0x38,0xbe,0x9c,0xe4,0x11,0x3e,0xe8,0x18,0xe7,0xbd,0x60,0x5c,0x08,0x3e,0xd4,0xc7,0x76,0x3e,0x18,0x5e,0xce,0x3d,0x10,0x15,0x5b,0x3e,0x40,0xc9,0x86,0x3d,0x70,0xd6,0xe3,0xbd,0x70,0x7e,0x3e,0xbd,0x40,0x74,0x3b,0xbd,0x7c,0xe7,0x60,0x3e,0x30,0x2a,0xc6,0xbd,0xe0,0xc5,0xb7,0xbc,0xc0,0xa1,0x6b,0x3d,0x88,0xbc,0x4f,0x3e,0x00,0x46,0x11,0x3d,0x6c,0x9c,0x6a,0xbe,0x20,0x47,0x45,0x3e,0xd4,0x04,0x74,0xbe,0x04,0x58,0x16,0x3e,0x20,0x4c,0xc9,0x3c,0xe0,0x78,0x5e,0xbe,0xf4,0xf0,0x4d,0xbe,0xf0,0xbc,0x11,0x3e,0xec,0xa9,0x47,0xbe,0x50,0x29,0x84,0x3d,0x60,0xfc,0x4c,0x3d,0xd4,0xd4,0x1c,0x3e,0xd8,0x3e,0xf4,0x3d,0x58,0xe4,0x91,0xbd,0xe0,0x3d,0x6b,0xbe,0x80,0x29,0xad,0x3c,0x00,0x01,0x43,0xbe,0x08,0x8d,0x04,0x3e,0x40,0xea,0x08,0x3d,0x00,0x40,0x8e,0xba,0xa4,0xe1,0x20,0x3e,0x74,0x3e,0x3b,0x3e,0x24,0x3f,0x26,0xbe,0xa0,0xe3,0x70,0x3d,0x4c,0x3c,0x70,0x3e,0xe0,0x3c,0x96,0xbd,0xc8,0x21,0x67,0x3e,0x38,0xdf,0xc4,0xbd,0x00,0xd6,0x8c,0xbd,0xe8,0xc7,0x4a,0x3e,0x30,0x70,0x4e,0x3e,0xe8,0x4d,0x19,0x3e,0xe0,0x46,0x1b,0xbd,0x80,0x09,0xeb,0xbc,0x30,0x8e,0x76,0xbe,0x24,0x7d,0x06,0x3e,0x50,0xb4,0x1b,0x3e,0x38,0x3a,0x85,0xbd,0x40,0x06,0x04,0x3c,0xf8,0xda,0xc8,0xbd,0xf4,0x11,0x60,0xbe,0xc0,0xd0,0x30,0xbe,0xdc,0xd1,0x3a,0x3e,0x40,0x65,0x3e,0x3c,0x30,0xb5,0x65,0xbd,0xc8,0x88,0x23,0xbe,0x68,0x11,0x98,0x3d,0xe0,0x2e,0x09,0xbe,0xe0,0xc5,0xbb,0x3c,0x74,0x14,0x68,0xbe,0x34,0x7b,0x72,0x3e,0x90,0x42,0xfb,0xbd,0x80,0x54,0xa7,0xbb,0xd0,0x62,0xc1,0xbd,0x20,0xe0,0x3b,0x3d,0xd0,0x7d,0x2c,0xbd,0x78,0x14,0x25,0x3e,0x50,0x72,0xc3,0x3d,0x60,0x8e,0x04,0x3e,0x80,0xa8,0xab,0x3b,0x60,0x14,0x2a,0xbe,0x6c,0x60,0x3b,0x3e,0x38,0xff,0xd9,0xbd,0x20,0xf6,0xd6,0x3d,0x3c,0x36,0x4c,0xbe,0x04,0x6c,0x01,0x3e,0xf0,0x37,0xe9,0xbd,0x88,0x99,0xa4,0xbd,0x30,0x57,0x45,0xbe,0x34,0x55,0x1b,0x3e,0x38,0x73,0x1e,0x3e,0xbc,0x9b,0x41,0xbe,0x70,0xc8,0x4b,0xbd,0x28,0x82,0xd4,0xbd,0x88,0xbc,0xdf,0x3d,0xd4,0x78,0x4a,0x3e,0xac,0xf3,0x6d,0x3e,0x70,0xbb,0x3a,0xbd,0x5c,0xc1,0x0b,0x3e,0x90,0xb9,0xaa,0xbd,0xf8,0xfa,0x40,0xbe,0x08,0x73,0xc1,0x3d,0xa0,0xf4,0xfc,0x3c,0x64,0x71,0x6e,0xbe,0xf8,0xc9,0x26,0x3e,0xc8,0x33,0xf9,0xbd,0x50,0x6a,0x5e,0xbd,0x98,0xac,0x47,0xbe,0x2c,0xfc,0x4f,0x3e,0x60,0x57,0x62,0x3e,0x70,0xb4,0x31,0xbe,0x6c,0x7b,0x17,0xbe,0xbc,0xc4,0x66,0x3e,0xc0,0xb5,0x7b,0xbc,0x14,0x09,0x69,0x3e,0xc0,0x00,0x32,0xbc,0x00,0xe6,0xff,0xba,0xd4,0x19,0x15,0xbe,0x3c,0xde,0x76,0xbe,0x80,0x8b,0x3a,0xbc,0x18,0x0a,0xf7,0xbd,0x90,0x49,0x70,0xbe,0xfc,0x84,0x7f,0xbe,0x90,0x8e,0x01,0x3e,0xd0,0xad,0x00,0xbe,0x68,0x6f,0xc7,0xbd,0x90,0x13,0x46,0x3e,0x08,0x8f,0x6a,0xbe,0xf8,0x17,0x11,0x3e,0xe0,0xd9,0x76,0xbd,0x70,0x2a,0xa8,0xbd,0xe8,0x8a,0x60,0xbe,0x14,0x7c,0x61,0xbe,0xa0,0x49,0x5a,0x3e,0x18,0xd4,0xd6,0x3d,0x78,0xb2,0x97,0x3d,0x78,0xf9,0x12,0x3e,0xd0,0xe2,0xbc,0x3d,0x80,0x40,0x70,0xbe,0x70,0x27,0x08,0xbe,0x00,0xdf,0x7d,0x3b,0x50,0x75,0xb2,0xbd,0xf0,0xa7,0xbe,0xbd,0x40,0x23,0xf0,0x3d,0x88,0x46,0x0d,0xbe,0xf8,0x61,0xa2,0xbd,0x88,0xf3,0x98,0x3d,0x18,0xf2,0x54,0x3e,0xa8,0x8c,0x63,0xbe,0x30,0xb8,0x19,0xbd,0x30,0xc6,0x18,0xbe,0xb8,0xfc,0xde,0xbd,0x10,0xc0,0x7b,0xbe,0xd4,0x91,0x50,0xbe,0xa4,0x82,0x6a,0x3e,0xe4,0x66,0x33,0xbe,0xc0,0xba,0x2f,0xbd,0x5c,0xbf,0x0a,0x3e,0xd8,0xd6,0x33,0xbe,0x70,0x3c,0x42,0x3d,0x10,0xaf,0x01,0x3e,0x34,0xe5,0x6c,0xbe,0xfc,0x51,0x26,0xbe,0x90,0x99,0xf6,0x3d,0x20,0x9e,0x81,0x3c,0x10,0xa0,0x50,0x3d,0x80,0xff,0xb6,0xbd,0x80,0x8c,0x67,0xbc,0xe8,0xda,0x75,0x3e,0x8c,0xe3,0x7c,0x3e,0xe0,0x17,0xb6,0x3d,0x14,0xb9,0x2c,0x3e,0xd0,0xa8,0x1d,0xbd,0xa0,0xff,0xd4,0xbd,0x00,0x15,0x3e,0xbd,0x60,0x21,0xf5,0xbd,0x38,0xf2,0x2a,0xbe,0xd0,0xaf,0xd3,0x3d,0x84,0x28,0x67,0x3e,0x1c,0xad,0x1f,0x3e,0x20,0x21,0x96,0x3c,0x18,0x67,0x9c,0x3d,0x28,0x04,0x54,0x3e,0xe0,0xcb,0x89,0xbc,0x10,0x9b,0x5e,0xbd,0x3c,0x6e,0x18,0xbe,0xe8,0x23,0x2f,0xbe,0xf0,0x1e,0xe6,0xbd,0xec,0x58,0x06,0x3e,0x5c,0x2d,0x50,0xbe,0x80,0x42,0x11,0x3e,0xc0,0x80,0x28,0x3c,0x00,0xd0,0xb7,0xbb,0x2c,0xc4,0x79,0x3e,0x0c,0xc5,0x54,0xbe,0x68,0xe7,0x39,0xbe,0x90,0x9e,0x13,0x3e,0x70,0x83,0xee,0x3d,0x08,0x7f,0xe9,0xbd,0xc0,0xa8,0x95,0xbd,0xa0,0xf2,0xbf,0x3d,0xc8,0xb1,0x20,0x3e,0x3c,0x1a,0x5c,0xbe,0x40,0xe0,0xc3,0xbc,0x08,0x8a,0x8d,0x3d,0xd4,0x1d,0x42,0x3e,0xe4,0x51,0x11,0x3e,0x3c,0x47,0x57,0x3e,0xc8,0x3c,0x93,0xbd,0x64,0x9f,0x49,0x3e,0xe8,0xa2,0x02,0xbe,0xac,0x17,0x02,0xbe,0x88,0x51,0x57,0xbe,0x6c,0xeb,0x09,0xbe,0xa0,0x81,0x87,0xbc,0x80,0x87,0xca,0xbb,0x20,0x3b,0xca,0xbc,0x48,0x5d,0x53,0x3e,0xd8,0x72,0xdb,0x3d,0x0c,0x20,0x56,0x3e,0x60,0x31,0xe5,0x3c,0x3c,0xd1,0x1a,0x3e,0xe0,0x8c,0x1a,0xbe,0x3c,0xb5,0x50,0xbe,0xa0,0xe4,0x92,0xbd,0x58,0x0d,0x8c,0xbd,0x00,0xd0,0xd2,0x3b,0xb4,0x3c,0x22,0xbe,0xb8,0x0a,0xab,0x3d,0x08,0x85,0x97,0x3d,0x98,0xdc,0xeb,0xbd,0xfc,0x30,0x33,0xbe,0x60,0x9f,0x52,0x3d,0x54,0xbd,0x73,0xbe,0x60,0x3b,0x58,0x3e,0xe0,0x8d,0x42,0x3e,0xb8,0x65,0x4b,0x3e,0xe8,0x62,0xfd,0x3d,0x40,0xe1,0x91,0x3d,0xc0,0x85,0x19,0xbc,0xec,0x8a,0x47,0x3e,0x98,0xf7,0xfd,0x3d,0xf0,0x66,0x3e,0xbd,0x48,0x56,0x70,0x3e,0x00,0xf0,0x59,0xba,0x80,0xe9,0x42,0x3c,0xd0,0xbd,0x89,0xbd,0x40,0xe5,0xd6,0x3c,0x80,0x61,0xbb,0x3d,0xc0,0x2d,0x15,0x3e,0xe0,0x98,0x5d,0x3e,0xd0,0x0a,0xee,0x3d,0x58,0x70,0x22,0xbe,0xe0,0xec,0x41,0x3d,0x20,0x40,0x73,0xbd,0x60,0x89,0x30,0xbe,0xb8,0x44,0xc0,0x3d,0x78,0x6f,0xbc,0xbd,0xd4,0x81,0x67,0xbe,0x1c,0xb9,0x21,0x3e,0xe0,0x14,0xe8,0x3c,0xd4,0xea,0x65,0x3e,0x30,0x4c,0x5a,0xbe,0x2c,0x70,0x6f,0x3e,0x70,0x26,0xc1,0xbd,0x88,0x91,0xc4,0x3d,0xc0,0x13,0xaa,0x3d,0xb0,0x4d,0x10,0x3d,0xc0,0xc3,0xd5,0x3d,0xa0,0x98,0x4f,0xbe,0xa8,0x3b,0x7d,0xbe,0x60,0x58,0xe2,0x3c,0xf0,0x2c,0x40,0xbe,0x10,0x12,0x60,0x3e,0x58,0x26,0xf4,0x3d,0x10,0x7d,0x7f,0x3e,0xa0,0x9d,0x4c,0x3d,0xb0,0x46,0x48,0x3e,0xe0,0x55,0x58,0xbe,0xe4,0x24,0x17,0x3e,0x88,0x6e,0xec,0x3d,0xf4,0x04,0x40,0xbe,0x5c,0x44,0x62,0x3e,0xf0,0x7b,0xf6,0x3d,0x40,0x6e,0x05,0xbc,0x50,0x8e,0x77,0x3e,0xf0,0xaf,0x17,0xbe,0xf8,0x51,0xad,0xbd,0x50,0x2c,0xa0,0x3d,0x70,0x4f,0x59,0x3d,0xdc,0xc2,0x12,0xbe,0xf0,0x56,0x6b,0x3d,0x28,0x30,0x97,0x3d,0xd8,0xdc,0x59,0x3e,0x34,0x01,0x63,0xbe,0xa8,0x3a,0xec,0x3d,0x20,0x32,0x2e,0x3e,0x6c,0xee,0x47,0x3e,0x70,0xf5,0x0e,0xbe,0xc4,0xc2,0x15,0x3e,0x00,0x00,0x3e,0xbd,0x40,0x01,0x9d,0x3d,0x58,0x2a,0xc1,0xbd,0x20,0xd8,0xe8,0xbc,0x00,0xa4,0x4a,0xba,0xd0,0x40,0x22,0x3e,0x34,0x68,0x30,0xbe,0xa4,0x8b,0x0f,0x3e,0x44,0xe3,0x05,0xbe,0x50,0xe7,0x74,0xbd,0xb8,0xcd,0xe6,0xbd,0xa0,0x95,0x1a,0x3e,0x10,0x02,0xe7,0x3d,0x70,0x39,0xd5,0x3d,0x08,0xf6,0xbe,0x3d,0xf0,0xa7,0xc4,0x3d,0xdc,0x23,0x09,0x3e,0x98,0x5c,0x67,0xbe,0x4c,0xd4,0x6f,0xbe,0x48,0xea,0x18,0x3e,0x78,0x20,0x37,0xbe,0xc8,0xa4,0x1e,0x3e,0x28,0x8f,0x0c,0xbe,0x3c,0x85,0x4a,0x3e,0xd0,0xdc,0x6f,0xbd,0x2c,0xd9,0x4c,0x3e,0x40,0x8d,0x7b,0xbe,0xd0,0x5b,0xc4,0x3d,0x60,0x91,0x62,0xbe,0x4c,0x73,0x4c,0xbe,0xc0,0x2e,0xe4,0x3c,0xc0,0xd2,0x50,0x3c,0x80,0xfb,0x43,0x3d,0x50,0xe1,0xd1,0xbd,0x00,0xca,0x84,0x3d,0x40,0x73,0x34,0x3e,0xb8,0x77,0x0f,0xbe,0x44,0x7d,0x36,0x3e,0x00,0x18,0x31,0x3d,0x80,0xc4,0x46,0x3d,0xc0,0x60,0xd4,0x3c,0xd0,0x72,0x9c,0x3d,0x00,0x53,0xdc,0xbc,0x70,0x36,0x2a,0x3d,0x98,0xa8,0x36,0xbe,0x60,0x67,0x99,0x3d,0x58,0xd2,0x16,0x3e,0xb0,0xd2,0x7a,0xbd,0x20,0xf5,0x4b,0xbe,0x14,0x52,0x69,0xbe,0x54,0xb9,0x2b,0x3e,0x88,0x49,0xe2,0x3d,0x90,0xf9,0x63,0x3e,0x00,0xfd,0xd9,0x3c,0x78,0x4e,0xa6,0xbd,0x48,0x47,0x77,0xbe,0x38,0x68,0x2a,0x3e,0x98,0xe4,0xa8,0xbd,0xec,0x4b,0x22,0xbe,0x80,0x35,0xdd,0x3b,0x30,0x95,0x14,0xbd,0x20,0x14,0x47,0x3d,0xb8,0x69,0x42,0xbe,0xcc,0x92,0x63,0xbe,0x04,0xd0,0x6b,0x3e,0x00,0xc6,0x66,0xbb,0xf0,0xc3,0xa0,0xbd,0xc0,0x4b,0x62,0x3e,0x0c,0x45,0x14,0x3e,0x80,0x80,0xfb,0xbb,0x2c,0x80,0x38,0xbe,0x50,0xb8,0x6e,0x3e,0x68,0xb6,0xa6,0x3d,0xf4,0xf3,0x3f,0xbe,0xe0,0x44,0xdd,0x3d,0x60,0x9c,0x46,0xbd,0xf4,0xc6,0x50,0xbe,0x54,0x95,0x4f,0xbe,0x28,0x53,0x94,0xbd,0x48,0x22,0x1e,0xbe,0xc4,0xc7,0x79,0x3e,0xb0,0x0f,0x69,0x3d,0xe8,0xa1,0x8a,0xbd,0xa0,0x27,0x36,0x3e,0xec,0x25,0x02,0x3e,0xb0,0x99,0x4e,0xbd,0x50,0xea,0x7b,0x3e,0x28,0xf9,0x62,0x3e,0xcc,0xa0,0x72,0xbe,0x50,0x8d,0x9f,0x3d,0x88,0x4f,0x5a,0x3e,0x10,0x27,0x64,0x3d,0x3c,0x94,0x00,0x3e,0x50,0x1b,0x59,0x3e,0x60,0xe5,0x1b,0xbe,0x50,0x61,0xdc,0x3d,0x70,0x2f,0x5c,0xbe,0xc8,0xa4,0x81,0xbd,0x68,0x78,0xf3,0x3d,0x80,0x4b,0x45,0x3d,0x20,0xf6,0xdb,0x3d,0xf8,0x0c,0x33,0x3e,0xf4,0xde,0x79,0xbe,0xb8,0xb2,0xea,0x3d,0x44,0xc3,0x22,0xbe,0x04,0x5d,0x24,0x3e,0x20,0xff,0xa7,0xbd,0xd8,0x74,0xfc,0xbd,0xf0,0x97,0x33,0x3d,0xa8,0x9b,0xbf,0xbd,0xa0,0x21,0xf5,0xbd,0xf0,0x9b,0x59,0x3e,0xb8,0xbf,0xbe,0xbd,0xcc,0x58,0x58,0xbe,0xb4,0x24,0x5d,0xbe,0xd0,0xdc,0x0b,0xbe,0x50,0x09,0x07,0xbe,0x20,0x1d,0x5e,0x3d,0x90,0x4c,0x7b,0xbe,0x94,0x73,0x6b,0x3e,0xb0,0xa5,0x40,0x3d,0xb0,0xae,0x23,0x3e,0xc0,0x61,0x8b,0x3d,0xa8,0x45,0x8e,0x3d,0xa0,0x27,0x27,0x3e,0x08,0xbb,0xdb,0x3d,0xc0,0x4a,0x76,0x3d,0x4c,0xf9,0x08,0x3e,0xb0,0x9e,0x98,0x3d,0xd8,0xa1,0x95,0xbd,0x40,0x11,0xb5,0x3c,0x48,0x8a,0xca,0x3d,0x9c,0x36,0x48,0x3e,0xb8,0xf8,0xb7,0x3d,0xc8,0x96,0x36,0x3e,0x60,0xda,0xd4,0xbd,0x9c,0x49,0x49,0xbe,0x2c,0xd7,0x59,0x3e,0x90,0x44,0x2d,0x3d,0x2c,0x97,0x51,0xbe,0xb8,0x1b,0x6e,0xbe,0x40,0x3e,0x45,0x3d,0x50,0x1a,0x75,0x3e,0xa0,0x5b,0x83,0xbc,0x98,0x29,0x5d,0x3e,0x00,0x7b,0x70,0xbe,0xb4,0x1c,0x6f,0x3e,0xf0,0x2e,0xfa,0xbd,0x10,0xdb,0x4d,0x3d,0xfc,0xaa,0x17,0xbe,0xe0,0x1c,0xea,0x3c,0x20,0x55,0xc8,0xbc,0xb4,0xe2,0x10,0x3e,0x9c,0x28,0x38,0x3e,0x60,0x0d,0x78,0x3d,0x98,0x37,0xe3,0x3d,0x14,0x0b,0x2f,0xbe,0xfc,0xc9,0x31,0xbe,0x20,0x97,0x79,0xbe,0x78,0x8b,0xd2,0x3d,0x54,0xdd,0x0b,0xbe,0xb8,0x97,0x58,0xbe,0xc0,0x3f,0x18,0x3c,0x58,0x7a,0x16,0xbe,0x58,0x85,0xad,0x3d,0x10,0x15,0x15,0xbd,0x80,0x1f,0x71,0xbc,0x10,0x28,0x4c,0xbd,0x18,0x82,0x98,0xbd,0x00,0xaf,0x02,0xbe,0xa4,0x25,0x5c,0xbe,0x58,0xfc,0xc8,0x3d,0x00,0x19,0x30,0xbe,0xd8,0x23,0x9f,0xbd,0x5c,0x86,0x2f,0xbe,0xdc,0xbd,0x3c,0xbe,0xc8,0x4b,0xeb,0xbd,0x80,0x15,0xd5,0x3d,0x60,0xce,0x1c,0x3d,0xa0,0x06,0x9e,0x3d,0xe0,0xa3,0x44,0xbe,0x30,0xbe,0x19,0xbd,0xb8,0x29,0xc7,0xbd,0xc8,0x37,0x89,0xbd,0x10,0xde,0x67,0xbe,0x10,0x1c,0x9f,0xbd,0xc8,0x92,0x41,0xbe,0xf4,0x2b,0x30,0x3e,0x58,0x84,0x6f,0x3e,0x2c,0xca,0x7b,0xbe,0xe0,0x9d,0x39,0x3d,0xc0,0x52,0x6f,0x3e,0x78,0xc2,0x09,0xbe,0xf8,0x8e,0x38,0x3e,0x00,0xbf,0x28,0x3c,0xe8,0x61,0x3f,0x3e,0x04,0xde,0x72,0x3e,0xf0,0xc4,0x40,0xbe,0xe4,0x17,0x35,0xbe,0xf8,0xca,0xc8,0x3d,0x58,0xe7,0xb0,0x3d,0x40,0xaa,0xeb,0xbc,0x84,0xc6,0x79,0x3e,0x80,0xa3,0x61,0xbd,0x1c,0x43,0x11,0xbe,0x98,0x24,0x9b,0xbd,0xdc,0xe4,0x40,0x3e,0xa0,0xbb,0x14,0xbe,0xbc,0xd2,0x4c,0x3e,0xb0,0xfb,0x9b,0xbd,0xf8,0xf4,0x86,0xbd,0xd0,0x50,0x17,0x3d,0x98,0xb9,0xd6,0x3d,0x1c,0x5a,0x20,0xbe,0xa8,0x18,0x34,0xbe,0x20,0xf8,0xf2,0x3d,0x48,0x01,0x98,0x3d,0xf0,0xf4,0xe2,0xbd,0x24,0x80,0x00,0xbe,0x80,0x9a,0x32,0x3c,0x60,0x75,0x04,0x3e,0xdc,0x4d,0x7a,0xbe,0x80,0x40,0x33,0x3d,0x30,0x5d,0xe5,0x3d,0x60,0x19,0xcc,0xbd,0x10,0xa8,0x17,0x3e,0x00,0x8b,0x48,0xbc,0x00,0xf5,0x7a,0xbc,0x78,0xf9,0x2c,0x3e,0xd8,0xa8,0xaa,0x3d,0x48,0xf5,0xc4,0x3d,0x54,0xa4,0x23,0x3e,0x24,0xe6,0x55,0x3e,0xcc,0x16,0x54,0x3e,0xb0,0x7e,0x5e,0x3d,0x50,0x30,0xba,0x3d,0x78,0x1b,0x73,0xbe,0xf8,0x91,0x49,0xbe,0xd8,0xbb,0xc5,0xbd,0xc8,0xc8,0x0b,0x3e,0x80,0x50,0x28,0x3c,0x20,0xef,0x61,0xbe,0xa0,0x8b,0x59,0x3d,0xd0,0x37,0x97,0xbd,0x30,0x48,0xd2,0xbd,0xa4,0xef,0x46,0x3e,0xa0,0xe2,0x93,0xbd,0x30,0xe4,0x80,0xbd,0x78,0x6e,0x94,0xbd,0xc0,0x32,0xc5,0x3c,0x90,0x9c,0xe1,0xbd,0xb8,0x12,0x96,0xbd,0x28,0xe4,0x8c,0x3d,0x28,0xb5,0xb6,0x3d,0xf8,0x02,0xd1,0xbd,0xd8,0xfc,0x1e,0x3e,0xc8,0xbe,0x9d,0xbd,0x90,0x03,0x5d,0xbe,0xf0,0x7d,0xbc,0x3d,0xa8,0x96,0xbc,0x3d,0x10,0xed,0x7e,0xbe,0xf8,0x79,0xf9,0xbd,0x20,0x49,0xcd,0xbc,0xf0,0x51,0x7c,0xbd,0xa0,0x4c,0xa0,0x3c,0x60,0xcc,0x71,0x3e,0x74,0x4e,0x3d,0x3e,0xd8,0x1a,0x14,0xbe,0x10,0x1d,0xe2,0xbd,0x60,0xc0,0xa8,0xbd,0x60,0x5a,0x9e,0xbd,0x14,0xa2,0x77,0x3e,0xc0,0x7d,0x1b,0x3c,0x48,0x21,0xe1,0x3d,0x80,0x37,0x41,0x3d,0xb8,0xa2,0x02,0xbe,0xe0,0x9b,0x92,0xbc,0x70,0xea,0x88,0xbd,0x48,0x68,0x7e,0x3e,0x50,0x85,0x47,0xbe,0x38,0xb0,0xf0,0xbd,0x04,0xd7,0x19,0xbe,0x80,0x71,0x53,0xbc,0xc8,0x06,0xc5,0xbd,0xd0,0x9c,0x1a,0xbd,0x00,0xbc,0x1f,0xbd,0x04,0x7b,0x15,0xbe,0xd0,0xdf,0xfe,0x3d,0x48,0x53,0xab,0xbd,0xe8,0xf1,0x09,0xbe,0xec,0xe1,0x32,0x3e,0x00,0xd0,0xb0,0x3c,0x74,0x6e,0x5f,0x3e,0x18,0xa2,0xfd,0x3d,0x30,0xd8,0x96,0xbd,0xa0,0x83,0x72,0xbd,0xd4,0x8a,0x6d,0x3e,0x0c,0x52,0x5e,0xbe,0x54,0x5d,0x35,0x3e,0xb0,0xa2,0x2a,0x3e,0x88,0xda,0x4e,0x3e,0xc0,0x07,0xd6,0x3c,0x84,0x2f,0x02,0x3e,0x20,0x9d,0xed,0xbd,0xf4,0xae,0x79,0xbe,0x54,0x21,0x4e,0xbe,0x9c,0xc5,0x36,0xbe,0xcc,0x06,0x48,0x3e,0xf8,0x83,0xb7,0x3d,0x4c,0x4e,0x7a,0xbe,0x3c,0x30,0x1e,0xbe,0x58,0x86,0x09,0x3e,0x00,0xd9,0xf8,0xbd,0xd0,0xc2,0x27,0xbe,0xc8,0x43,0x70,0x3e,0xd4,0xf6,0x10,0x3e,0xd8,0xed,0x5f,0x3e,0x18,0xbe,0x25,0x3e,0x04,0x80,0x3c,0x3e,0x08,0x95,0x96,0xbd,0xe8,0x70,0xa9,0x3d,0xe0,0x55,0xa2,0xbd,0xdc,0x60,0x22,0x3e,0xc0,0x08,0xb6,0x3c,0x4c,0xf8,0x2b,0x3e,0x9c,0x20,0x76,0xbe,0x74,0x59,0x54,0xbe,0xd4,0x99,0x2d,0x3e,0xec,0xf5,0x22,0xbe,0x78,0x1a,0x23,0xbe,0xa0,0x42,0x89,0xbc,0x00,0xdb,0x19,0x3e,0x24,0x77,0x3e,0x3e,0x08,0x3f,0xea,0x3d,0x70,0x01,0x2b,0xbd,0x18,0x56,0x25,0xbe,0x1c,0x42,0x63,0x3e,0xe8,0x8d,0xd4,0xbd,0x78,0xdf,0x6d,0x3e,0x40,0xf5,0xb5,0x3d,0xf0,0x26,0x39,0x3e,0xc4,0xc7,0x42,0xbe,0x80,0x23,0xf5,0x3b,0x40,0xef,0xe1,0xbc,0x80,0x3f,0x2e,0xbc,0x80,0x2b,0xac,0x3c,0x30,0xf8,0x36,0x3d,0xc8,0x0c,0xee,0x3d,0xe8,0xf3,0x5a,0x3e,0xc4,0x8f,0x03,0xbe,0x70,0x48,0x0b,0x3d,0xb0,0x8c,0x0f,0xbe,0xe4,0x55,0x4c,0x3e,0x20,0x63,0xb8,0xbc,0x00,0x30,0x91,0xbd,0xa0,0x79,0x98,0xbd,0x20,0xe8,0x97,0x3d,0x34,0xdf,0x3a,0x3e,0x10,0x05,0xaf,0x3d,0x0c,0x06,0x2d,0xbe,0x50,0x1c,0xbc,0xbd,0x5c,0x89,0x2c,0xbe,0x58,0x17,0x07,0x3e,0xf4,0x86,0x5e,0xbe,0xc4,0x12,0x33,0x3e,0x00,0xa5,0x8b,0xbb,0x88,0x85,0x7d,0xbe,0x30,0x33,0xe8,0x3d,0x1c,0xb7,0x23,0x3e,0x9c,0xb4,0x2d,0x3e,0xdc,0x5a,0x6e,0x3e,0x58,0xcb,0xa0,0xbd,0x98,0xeb,0x37,0xbe,0x68,0xf7,0x57,0xbe,0x50,0x98,0x77,0x3e,0x10,0xc8,0x78,0xbd,0x60,0xe9,0x91,0x3d,0x38,0x5f,0xe7,0x3d,0x60,0x59,0xa8,0xbd,0x80,0xb1,0x43,0x3c,0xb4,0xe8,0x1b,0xbe,0xd4,0xb4,0x00,0xbe,0x50,0x76,0x42,0x3e,0xd0,0xce,0xa7,0x3d,0xf0,0x4b,0x56,0x3d,0x68,0x5e,0xa1,0x3d,0x94,0x58,0x52,0xbe,0xa0,0x22,0x28,0x3e,0x40,0xb2,0xd2,0x3d,0x08,0x88,0x70,0xbe,0x50,0xc8,0x93,0xbd,0x9c,0x64,0x56,0xbe,0x1c,0x30,0x6d,0x3e,0x38,0x55,0x74,0xbe,0xe0,0x9e,0x95,0xbd,0xf8,0xf4,0x17,0xbe,0xe0,0xe2,0xdc,0xbc,0xcc,0x90,0x15,0xbe,0x80,0xf8,0xf2,0xbc,0x4c,0xa9,0x11,0xbe,0xd0,0x58,0xb2,0x3d,0x68,0x66,0x9c,0xbd,0xb8,0x23,0x6d,0x3e,0xd8,0xa6,0x2b,0xbe,0x00,0x7c,0xcc,0xbb,0x60,0xc8,0x20,0x3e,0xcc,0x30,0x10,0x3e,0x5c,0x12,0x67,0x3e,0xa0,0xf8,0x5b,0x3d,0x14,0xe8,0x64,0xbe,0xe8,0xec,0x97,0xbd,0xd0,0x06,0x22,0x3e,0x30,0x0e,0x84,0xbd,0x80,0xba,0xc6,0xbb,0xe8,0xe7,0xf7,0x3d,0xfc,0xae,0x1a,0x3e,0x70,0xa6,0x4f,0xbe,0x5c,0x97,0x12,0xbe,0x54,0xcc,0x1e,0xbe,0xd8,0x85,0x85,0x3d,0x78,0xb0,0x36,0xbe,0xfc,0xef,0x20,0xbe,0x88,0x7f,0xe6,0xbd,0x00,0x8b,0x0a,0xbd,0xa8,0x06,0xdc,0xbd,0xf8,0x50,0xf8,0xbd,0xe0,0x91,0xc8,0xbd,0x18,0xce,0x6e,0xbe,0x70,0x8d,0x73,0xbd,0x18,0xf8,0x61,0x3e,0x30,0x4b,0x0a,0xbd,0x38,0x2e,0x00,0xbe,0x40,0x5a,0x37,0x3d,0xd8,0x4a,0x54,0xbe,0xa8,0xca,0xd3,0x3d,0x60,0x89,0x98,0x3d,0x14,0xa6,0x5a,0xbe,0x40,0xa2,0xf0,0xbd,0xac,0x7d,0x20,0x3e,0xa4,0x7e,0x24,0xbe,0x64,0x33,0x41,0x3e,0x40,0x37,0x44,0x3c,0x00,0xd6,0x00,0xbd,0x20,0xdc,0x65,0x3d,0xb0,0x4d,0x12,0xbd,0xc0,0x8f,0xfe,0xbc,0x60,0x03,0x2b,0x3d,0x70,0xc7,0x3e,0x3d,0x88,0x8c,0x1b,0x3e,0xc8,0x09,0xe7,0xbd,0x00,0x02,0x1c,0xbd,0xcc,0xaa,0x6e,0xbe,0x84,0x9b,0x64,0x3e,0xa0,0x90,0x3f,0xbd,0x80,0x9e,0x5f,0x3e,0xe0,0x19,0xd9,0x3d,0x20,0x60,0x47,0x3e,0xc0,0x1b,0x45,0xbe,0xd8,0x25,0x83,0xbd,0x58,0x4f,0xd5,0xbd,0xa8,0x3c,0xe5,0xbd,0x94,0x5a,0x11,0xbe,0x50,0x7a,0xef,0xbd,0x98,0x32,0xca,0xbd,0x2c,0x9c,0x00,0x3e,0x18,0xab,0x1b,0xbe,0x40,0x1e,0xba,0x3d,0xe0,0xe1,0xd1,0x3c,0x48,0xb1,0xe5,0x3d,0x70,0x08,0x06,0xbd,0x80,0xf3,0x97,0x3b,0x88,0x8b,0xd0,0x3d,0xb4,0x49,0x02,0xbe,0xd8,0x65,0x9d,0xbd,0x50,0x81,0xf4,0xbd,0x10,0x13,0x55,0x3d,0x20,0x30,0xff,0x3d,0xd0,0xf7,0xf6,0xbd,0xf8,0xea,0x9a,0xbd,0x88,0xa7,0x3b,0xbe,0x80,0x31,0xe3,0x3c,0xd0,0x58,0x21,0x3e,0xe8,0xa5,0xff,0x3d,0x48,0x01,0x0d,0xbe,0xd8,0xfb,0x7b,0xbe,0x00,0xa6,0x93,0x3c,0x68,0xb6,0x4d,0x3e,0xe0,0x84,0x52,0x3d,0x30,0x2d,0x2b,0x3d,0x80,0xf6,0x41,0xbd,0x48,0x09,0xa9,0xbd,0xf0,0xbb,0x7c,0x3d,0xcc,0xef,0x51,0xbe,0x40,0x0d,0x19,0x3d,0xe0,0x34,0x9e,0x3c,0xf8,0x34,0xcc,0x3d,0xf0,0xf5,0xaf,0xbd,0xb8,0xf4,0xbd,0x3d,0x8c,0xdf,0x30,0xbe,0x90,0x4e,0x10,0xbd,0x00,0xe1,0xee,0xbb,0xd8,0xe6,0x8f,0x3d,0x4c,0x6d,0x60,0x3e,0x80,0x6e,0x03,0x3d,0x90,0x99,0x33,0x3d,0x84,0xfd,0x1e,0x3e,0x40,0xba,0x83,0x3c,0x58,0x61,0x72,0xbe,0x90,0xcd,0x49,0xbe,0x38,0xc6,0xbc,0x3d,0x38,0x23,0x60,0x3e,0x70,0xdc,0x48,0xbd,0x40,0x42,0x78,0xbe,0x18,0x51,0x05,0xbe,0xa0,0xd9,0x53,0xbd,0x00,0x44,0xa1,0xba,0xec,0x04,0x2d,0x3e,0x00,0xd0,0x49,0xba,0x10,0xd5,0x16,0x3e,0x34,0x55,0x6b,0xbe,0xe0,0xcf,0x0a,0xbd,0xa0,0x1b,0x20,0x3e,0xf0,0x0b,0x5a,0xbe,0x80,0xf4,0xbc,0xbb,0xd0,0x6c,0x2e,0xbd,0x24,0xdc,0x0b,0x3e,0x44,0x55,0x24,0x3e,0xc0,0xac,0xb9,0xbd,0x90,0xf7,0x59,0xbe,0x60,0x0d,0x23,0x3d,0x1c,0x18,0x51,0x3e,0x78,0x2f,0xac,0x3d,0xa4,0x40,0x59,0x3e,0xe0,0xac,0xb6,0x3d,0x8c,0xbe,0x44,0xbe,0x80,0xed,0x7d,0xbe,0x28,0xef,0x99,0xbd,0xcc,0xab,0x07,0x3e,0x20,0xf3,0x88,0xbc,0x7c,0x78,0x69,0xbe,0xb8,0x4b,0xc3,0xbd,0xc0,0xf5,0x7a,0xbc,0x00,0x30,0x09,0x3c,0xa0,0xde,0x0a,0xbd,0x80,0x5d,0x81,0xbc,0xe0,0x3f,0xf8,0x3c,0x2c,0xdb,0x52,0x3e,0x28,0x0e,0x76,0x3e,0x58,0x63,0xc0,0xbd,0x80,0x94,0x95,0x3d,0xb0,0xa6,0x70,0xbe,0x58,0x55,0xcc,0x3d,0x30,0x08,0x11,0xbe,0xe0,0x1d,0x8a,0xbd,0x90,0xa7,0xe3,0x3d,0xc0,0xb5,0x61,0xbc,0x54,0x37,0x52,0xbe,0xa8,0x9b,0x5b,0xbe,0x04,0x88,0x18,0xbe,0xc4,0x09,0x2a,0x3e,0x00,0xce,0x59,0x3e,0x90,0x40,0x49,0xbd,0xb8,0xcb,0x0e,0xbe,0x08,0xb5,0x22,0x3e,0x90,0x6b,0x79,0x3e,0x28,0x32,0x79,0x3e,0x38,0xe5,0xef,0x3d,0x4c,0x96,0x08,0xbe,0xd8,0x3f,0x8d,0xbd,0x18,0x91,0x21,0xbe,0x4c,0x12,0x73,0xbe,0xc0,0xb9,0x82,0xbc,0x10,0x39,0xe8,0x3d,0xa4,0x22,0x72,0xbe,0x50,0x11,0x0a,0xbd,0xa8,0x8d,0x7a,0xbe,0x98,0x4a,0x5f,0x3e,0xe4,0x4e,0x17,0xbe,0x60,0xeb,0x39,0xbd,0xa4,0xf6,0x33,0xbe,0xf0,0x65,0x28,0xbe,0x20,0x27,0x44,0x3d,0x58,0xa2,0x9f,0xbd,0x40,0xa0,0x32,0x3c,0x98,0xe2,0xb4,0x3d,0x54,0x44,0x46,0x3e,0xc0,0xd2,0xcc,0x3d,0x80,0x43,0xa7,0x3c,0xc0,0x9b,0xa8,0xbd,0xa0,0x23,0x0e,0xbd,0xec,0x3c,0x44,0xbe,0xc8,0xc8,0x9d,0xbd,0xac,0x98,0x45,0xbe,0x2c,0xf6,0x06,0x3e,0x30,0x63,0x51,0xbd,0x10,0xfb,0x60,0x3e,0x00,0xc4,0xf2,0xbc,0xf0,0xed,0x69,0xbe,0xe0,0x92,0x89,0x3c,0x80,0x12,0x37,0x3e,0x40,0x6f,0x80,0x3c,0x00,0x8c,0x04,0xbe,0xf8,0x67,0x3d,0x3e,0x4c,0x9d,0x59,0xbe,0x10,0xd6,0x02,0xbe,0x1c,0x0f,0x21,0x3e,0xb0,0x45,0x0a,0x3e,0xb8,0xc9,0x4c,0xbe,0x90,0xa0,0x98,0xbd,0x70,0xa3,0x46,0x3e,0xc0,0x46,0x19,0x3d,0x78,0x2d,0x2d,0x3e,0x24,0x15,0x41,0xbe,0xc0,0xeb,0xb2,0xbc,0x80,0x68,0x51,0xbe,0x00,0xa0,0xf4,0xbb,0x60,0x18,0xc4,0xbd,0x60,0xc4,0xff,0x3d,0xec,0x65,0x32,0xbe,0x74,0x12,0x3f,0x3e,0xf4,0xf4,0x0f,0x3e,0x80,0x22,0x9d,0x3c,0x5c,0x8f,0x65,0xbe,0xfc,0x4e,0x68,0x3e,0xcc,0xdc,0x5f,0x3e,0x00,0x08,0x1a,0x3e,0x30,0x03,0x65,0xbd,0x88,0x81,0xbe,0x3d,0xe0,0x00,0x2c,0x3d,0x50,0xe0,0xd7,0xbd,0xe0,0x79,0xd3,0x3c,0xc0,0x39,0x2a,0x3c,0x60,0xd5,0xd5,0xbc,0x88,0x7f,0x76,0x3e,0x50,0x47,0x95,0xbd,0xf0,0xc5,0x54,0xbd,0x58,0x9a,0xea,0xbd,0x58,0x13,0x32,0x3e,0x10,0x78,0x7a,0x3d,0x88,0xcb,0x16,0x3e,0xe0,0xab,0xa2,0xbc,0x74,0x7b,0x24,0x3e,0x80,0x5f,0xf0,0x3b,0xc4,0xd6,0x0d,0x3e,0xec,0xbb,0x55,0x3e,0x84,0xb7,0x76,0xbe,0x40,0x50,0xf7,0x3c,0xcc,0x12,0x52,0x3e,0x3c,0xac,0x7a,0xbe,0x80,0x26,0x2d,0xbd,0xf8,0x1d,0x01,0xbe,0x38,0xfc,0x1d,0xbe,0x44,0x82,0x3d,0x3e,0x28,0x0e,0x13,0xbe,0x2c,0x55,0x37,0xbe,0x04,0xc1,0x6e,0x3e,0x2c,0x09,0x54,0x3e,0x10,0x2a,0x3e,0x3d,0x74,0x0f,0x2f,0xbe,0xe4,0xd9,0x4b,0xbe,0x00,0xc1,0x27,0xbd,0xec,0x2e,0x7d,0x3e,0xdc,0x58,0x45,0x3e,0xd0,0x93,0xe4,0x3d,0xa0,0xe7,0xda,0xbc,0x04,0xaa,0x12,0x3e,0x20,0x59,0xc8,0x3d,0x00,0x84,0xa2,0xbb,0x04,0xff,0x6c,0xbe,0x44,0x1d,0x15,0x3e,0x9c,0xc1,0x32,0x3e,0x98,0xeb,0xfc,0x3d,0xa0,0x24,0x05,0xbd,0x40,0x5d,0xbe,0xbc,0x1c,0xe0,0x65,0xbe,0x70,0x18,0x0e,0xbe,0xc8,0xe5,0x6d,0xbe,0x30,0x11,0x39,0xbd,0x7c,0xbf,0x63,0x3e,0x20,0xd4,0x41,0x3e,0xa0,0xc9,0xe7,0xbc,0xd0,0x5b,0x6b,0xbe,0xc8,0xb5,0x0f,0xbe,0xb0,0xc5,0x37,0xbd,0x1c,0x37,0x6c,0x3e,0xc0,0x04,0x9d,0xbd,0xa0,0xb4,0xc1,0xbd,0x70,0x47,0x58,0x3d,0x50,0x31,0x37,0x3e,0x80,0x8c,0xdc,0xbd,0xb0,0x9a,0x17,0xbe,0x38,0x9b,0x76,0x3e,0xb0,0x24,0x00,0x3d,0xe0,0x1a,0xbb,0x3c,0x58,0x19,0x44,0x3e,0xe8,0x00,0x48,0x3e,0x9c,0xff,0x57,0x3e,0xe0,0x95,0xac,0x3d,0x7c,0xd5,0x4c,0x3e,0xac,0x41,0x38,0x3e,0x0c,0xfc,0x17,0xbe,0x10,0x8f,0x8b,0xbd,0xd8,0x63,0x30,0xbe,0x50,0x76,0x47,0x3e,0xc0,0xd4,0x83,0x3d,0xa0,0xb5,0xfc,0xbc,0x68,0x5e,0x1a,0x3e,0xf8,0xa8,0xd4,0xbd,0x10,0x5f,0x86,0xbd,0x40,0x81,0x9d,0x3c,0xa0,0x46,0x24,0x3e,0xc0,0xda,0x28,0x3e,0x3c,0xbf,0x02,0xbe,0x98,0xb9,0x0d,0x3e,0x24,0x71,0x5c,0xbe,0xd0,0x06,0x4e,0xbe,0x60,0x62,0x64,0xbe,0xf8,0x28,0xc8,0x3d,0x78,0x6c,0x62,0xbe,0x70,0x45,0x41,0x3d,0xa0,0x69,0x9c,0xbd,0x80,0x0b,0xcf,0x3d,0x10,0x07,0x5b,0xbe,0xe4,0x27,0x31,0x3e,0x58,0xe0,0xc8,0x3d,0xa8,0x32,0x4f,0x3e,0x28,0x01,0xcd,0x3d,0xf0,0x01,0x80,0x3d,0xc0,0xe3,0xa2,0x3d,0x60,0x0a,0x55,0x3d,0x28,0x8e,0x75,0xbe,0x54,0xde,0x3f,0x3e,0xe0,0x20,0x11,0x3d,0x40,0x22,0x66,0x3d,0x6c,0x07,0x74,0x3e,0x74,0x39,0x19,0xbe,0x00,0xa0,0x4c,0xbd,0x28,0x86,0x39,0xbe,0x28,0x85,0xc1,0x3d,0xd8,0xc9,0x4f,0xbe,0x50,0xe5,0xde,0xbd,0x40,0x23,0x99,0x3d,0x24,0x9e,0x29,0xbe,0x20,0xb7,0x64,0xbd,0xd0,0x70,0x15,0x3d,0x6c,0xd1,0x6c,0x3e,0xec,0xea,0x76,0xbe,0x34,0x91,0x3f,0x3e,0x60,0xa4,0xe6,0x3d,0xa0,0x4d,0xbc,0x3c,0x00,0x88,0x4b,0x3d,0x58,0x1d,0xd6,0x3d,0xc0,0xfd,0x44,0x3e,0x48,0x8a,0x67,0x3e,0xb8,0x64,0xa9,0x3d,0x6c,0xe4,0x1e,0xbe,0x98,0x69,0x38,0xbe,0xd8,0x62,0x76,0x3e,0x4c,0xea,0x5c,0xbe,0xc4,0x93,0x47,0x3e,0x70,0x3e,0xb2,0x3d,0x80,0x29,0x90,0x3c,0x78,0x46,0x72,0xbe,0xd0,0x83,0x39,0xbd,0xe4,0x92,0x79,0x3e,0x8c,0x81,0x21,0x3e,0x88,0x00,0xa9,0x3d,0x78,0x6d,0xf8,0x3d,0x4c,0xc2,0x3e,0x3e,0x98,0xa9,0xfd,0x3d,0x00,0xd5,0x43,0x3e,0x48,0x39,0x0a,0x3e,0x80,0xdc,0xf8,0xbc,0x5c,0x12,0x2c,0x3e,0x8c,0x6d,0x45,0x3e,0xe8,0xd1,0xd9,0x3d,0xa4,0xbc,0x61,0xbe,0xc4,0xe1,0x51,0x3e,0xb8,0x86,0x98,0xbd,0x04,0xf1,0x60,0x3e,0xf0,0x5c,0x34,0x3e,0x00,0xa2,0x9b,0x3d,0xa8,0x24,0xd5,0xbd,0xe8,0xe1,0xd0,0xbd,0x70,0xff,0x3e,0x3e,0x80,0x46,0x9f,0x3d,0xd4,0xe5,0x19,0x3e,0xe8,0x55,0x0b,0xbe,0x00,0x3b,0x68,0xbb,0x10,0x2f,0x6b,0x3d,0x04,0xc8,0x52,0x3e,0xc8,0x7d,0xaa,0xbd,0xa4,0x19,0x40,0xbe,0xc4,0x86,0x23,0xbe,0xd0,0x43,0x32,0xbd,0xc0,0xfb,0x2f,0x3d,0xa0,0x55,0xd6,0xbd,0xc0,0xa1,0x7b,0x3c,0x40,0xcd,0xbc,0xbc,0xa8,0xfd,0xf6,0xbd,0x20,0xed,0xcf,0xbd,0x7c,0x71,0x1c,0xbe,0xc8,0x65,0xe4,0x3d,0x90,0x0c,0x3f,0x3e,0xd0,0xfa,0x47,0xbe,0x8c,0xbc,0x26,0xbe,0x68,0xb7,0x61,0xbe,0x80,0x31,0xb3,0x3d,0x00,0x68,0xb4,0x3b,0x40,0xb9,0x61,0xbe,0x00,0x11,0xaf,0xbc,0xa8,0x83,0xca,0xbd,0x68,0xc7,0xde,0xbd,0xd0,0x15,0xbe,0x3d,0xd0,0x3e,0x3c,0x3d,0xf8,0x81,0xf4,0xbd,0xb0,0x56,0x57,0x3e,0x24,0x5b,0x46,0x3e,0xd0,0xf4,0x32,0xbe,0x00,0x35,0xc4,0xbd,0xb0,0xb1,0xd7,0x3d,0x3c,0x1f,0x76,0xbe,0xb8,0x98,0x17,0x3e,0x50,0xff,0xf4,0x3d,0x00,0x7b,0x6a,0xbb,0x78,0x23,0x0a,0x3e,0x00,0x9b,0xc6,0xbc,0xa0,0x1b,0x12,0x3e,0xa0,0xa9,0xd1,0x3c,0x28,0xf5,0xfc,0xbd,0x0c,0x40,0x28,0x3e,0x08,0x38,0x54,0x3e,0x3c,0xb8,0x28,0x3e,0xd0,0xd6,0xc6,0xbd,0x20,0xb9,0x74,0x3e,0xa0,0x4e,0xcf,0xbd,0x38,0x91,0x93,0xbd,0x0c,0x50,0x68,0x3e,0x3c,0x72,0x36,0xbe,0x34,0xf8,0x49,0xbe,0x40,0x30,0x72,0xbc,0xb0,0x3e,0x0d,0x3e,0x20,0xff,0x83,0xbc,0x88,0x3c,0xae,0xbd,0xf8,0x90,0x9a,0x3d,0x58,0xf8,0xa1,0xbd,0x74,0xf9,0x0f,0xbe,0x30,0x1b,0x5e,0x3e,0x00,0x88,0x21,0xbb,0xf0,0xce,0x1b,0xbe,0xd8,0x66,0x3f,0xbe,0x40,0x61,0xbd,0xbd,0x10,0x49,0x64,0x3d,0x20,0xd9,0xc8,0xbc,0x24,0xe0,0x05,0xbe,0xd0,0x1c,0x18,0x3e,0x7c,0x55,0x65,0xbe,0x50,0x1e,0x65,0x3d,0x14,0x25,0x6d,0xbe,0x44,0x6a,0x04,0xbe,0xb0,0x9f,0x57,0x3e,0xa0,0x22,0x30,0xbe,0x10,0xb0,0xea,0x3d,0x04,0xf9,0x04,0x3e,0x98,0x4e,0x43,0x3e,0x98,0x6f,0x50,0xbe,0x08,0x21,0x83,0xbd,0x98,0xde,0x76,0xbe,0x00,0xe4,0x36,0xbb,0x74,0xc0,0x64,0x3e,0x08,0x90,0xc6,0x3d,0xf8,0x38,0xca,0xbd,0xb0,0x05,0x65,0xbd,0x38,0x47,0x5d,0xbe,0x80,0xc0,0xe6,0x3d,0x3c,0x50,0x60,0xbe,0x28,0xa3,0xbc,0x3d,0xc0,0xdb,0x11,0xbc,0x1c,0x79,0x36,0x3e,0x74,0x11,0x7b,0x3e,0x6c,0x99,0x02,0xbe,0x20,0xf8,0x81,0xbc,0xe8,0xc6,0xf4,0xbd,0x00,0xed,0xa0,0x3d,0xd8,0xff,0x69,0x3e,0xf0,0x6e,0x77,0x3d,0xe0,0x56,0x87,0xbd,0x5c,0xf4,0x0c,0x3e,0xc0,0xe4,0x0a,0x3d,0x10,0xa1,0xe6,0xbd,0x30,0x29,0xbd,0x3d,0x20,0xa5,0xbc,0xbc,0x28,0x97,0xbd,0x3d,0x70,0x5c,0x7b,0x3d,0x24,0xdb,0x7c,0x3e,0xa0,0x2c,0x07,0xbe,0x50,0x1f,0x57,0xbd,0x10,0x30,0x24,0x3d,0x78,0x27,0xde,0x3d,0x70,0x99,0x11,0xbd,0x50,0x14,0x04,0xbd,0x90,0x0c,0xc9,0xbd,0xc0,0x5e,0x9a,0x3d,0xe0,0xf9,0xec,0x3c,0xa4,0x79,0x67,0xbe,0x48,0x41,0x09,0xbe,0xd0,0x5a,0x73,0xbd,0xc0,0xbd,0xe7,0xbc,0xf0,0xdc,0x45,0x3e,0xe8,0x00,0x41,0xbe,0xd0,0x6d,0x6e,0x3d,0x30,0xea,0x4f,0x3e,0x0c,0xeb,0x42,0xbe,0x14,0xdf,0x1d,0xbe,0x00,0x4d,0x5d,0xbe,0x50,0xdb,0x28,0xbe,0x00,0xf1,0x6e,0xbe,0x64,0xcb,0x4f,0xbe,0xe8,0xa4,0x8a,0x3d,0x50,0xcf,0xcb,0x3d,0x84,0xa9,0x65,0xbe,0xb8,0x2b,0x90,0x3d,0xa0,0xf5,0x9c,0x3c,0xa4,0xf5,0x25,0x3e,0x60,0x13,0x75,0x3d,0xb4,0x8c,0x0d,0xbe,0xb8,0xac,0x03,0xbe,0x00,0x79,0x12,0xbc,0x38,0xf6,0x34,0x3e,0xd8,0xef,0x0f,0x3e,0xc0,0x0e,0xc6,0xbc,0xe0,0x34,0x61,0x3d,0xa0,0xb1,0xc6,0xbc,0x5c,0xda,0x50,0x3e,0x5c,0xc8,0x2e,0x3e,0x14,0xd9,0x1d,0xbe,0xa0,0x5e,0xaa,0x3c,0x40,0x0a,0x91,0x3d,0x7c,0xe2,0x10,0x3e,0x20,0x2e,0x47,0xbd,0x80,0x3c,0xc2,0xbb,0x20,0x5c,0x58,0xbe,0xe4,0xb2,0x28,0xbe,0x20,0xba,0xb9,0x3d,0x24,0xc9,0x4e,0x3e,0x80,0xf4,0x1e,0x3d,0x60,0x32,0xfc,0x3c,0xe4,0x7a,0x5b,0x3e,0x54,0xc1,0x5d,0x3e,0x3c,0x87,0x16,0x3e,0x40,0xc5,0x63,0xbc,0x20,0xe4,0xb8,0xbc,0x30,0xec,0x76,0x3d,0x48,0xb7,0xe5,0xbd,0xb4,0x2d,0x78,0x3e,0x50,0x08,0xa7,0x3d,0xb0,0x16,0x01,0x3d,0x40,0x03,0x82,0x3d,0x80,0x94,0xec,0x3b,0x60,0xf6,0x6f,0x3e,0x00,0x03,0xa9,0x3d,0x94,0x67,0x35,0x3e,0x60,0x96,0x2d,0xbe,0xac,0xf4,0x47,0xbe,0xe4,0x16,0x54,0x3e,0xb4,0xfe,0x44,0xbe,0x00,0x27,0xc4,0x3c,0xf8,0xea,0xe7,0x3d,0x20,0xae,0x56,0xbe,0x10,0x24,0x5d,0xbd,0x0c,0x45,0x0d,0x3e,0x4c,0x4d,0x5d,0xbe,0x38,0xb4,0xf4,0xbd,0x6c,0xea,0x2d,0xbe,0xb0,0x88,0x1f,0xbd,0x68,0xed,0x83,0xbd,0x30,0x55,0x47,0xbd,0xd0,0x2e,0x46,0x3e,0xf4,0x90,0x41,0xbe,0x00,0x34,0x95,0xbb,0x30,0xb9,0x1d,0x3d,0x70,0x63,0x1c,0x3d,0x4c,0x7d,0x54,0xbe,0x40,0x92,0xbd,0x3d,0x00,0xb1,0x22,0x3b,0xc0,0xcf,0x27,0x3d,0xbe,0xe1,0xff,0xff,0x04,0x00,0x00,0x00,0x00,0x08,0x00,0x00,0x64,0xde,0xa0,0xbd,0xd2,0x26,0x52,0x3e,0x82,0x74,0xdd,0xbd,0xa0,0x1b,0xf2,0x3d,0x2e,0xcd,0x9c,0xbe,0x44,0x35,0xcd,0xbd,0x3c,0x8d,0x9f,0x3d,0xe2,0x9b,0x43,0x3e,0xf0,0xe0,0xac,0x3c,0x0c,0xe8,0x02,0x3e,0xcd,0x19,0x2a,0xbe,0xb9,0x04,0xb0,0xbe,0x89,0x76,0x8b,0x3e,0x98,0xb4,0x72,0xbd,0x5e,0x93,0x18,0x3e,0xe8,0x80,0x9d,0xbd,0x0f,0xce,0x6f,0xbe,0x68,0x88,0x47,0xbd,0x47,0x56,0x83,0x3e,0x23,0xa0,0x96,0x3e,0x9c,0x71,0x9a,0xbd,0xf0,0xba,0x69,0x3d,0x3a,0x94,0x57,0xbe,0x60,0x8e,0xe8,0x3d,0x56,0x3f,0x23,0x3e,0x90,0xf1,0x03,0x3e,0x32,0x3e,0x91,0xbe,0x96,0xc7,0xe2,0xbd,0x05,0x7a,0x96,0x3e,0x5d,0xf9,0x9c,0xbe,0x04,0xde,0x97,0x3d,0xea,0x0b,0xae,0xbe,0x42,0x6a,0xb2,0xbe,0xbf,0x16,0x33,0xbe,0x9a,0x52,0x7c,0xbe,0x78,0x2e,0x97,0x3d,0x10,0x10,0x9d,0x3c,0x34,0xac,0x4e,0xbe,0x0c,0xa8,0x03,0x3e,0xe6,0x91,0x2a,0x3e,0x40,0x0f,0x91,0xbe,0x00,0x99,0x18,0x3b,0x7a,0xd5,0x30,0x3e,0x98,0x35,0xf6,0xbd,0x9e,0x91,0x3e,0x3e,0x80,0xa7,0xce,0x3b,0x40,0x22,0x75,0xbc,0x00,0x4c,0x42,0xbc,0xcb,0xfd,0x9f,0x3e,0x7e,0x13,0x63,0x3e,0xb6,0x1b,0x86,0xbe,0x00,0x65,0x40,0x3b,0x96,0xce,0xe3,0xbd,0x18,0x58,0x23,0xbd,0x80,0x5d,0x55,0xbe,0xcd,0x24,0x8f,0x3e,0x42,0xd5,0x41,0x3e,0x2c,0x5a,0x4b,0xbe,0x7e,0x91,0x12,0xbe,0x9f,0xa5,0x95,0x3e,0x9d,0xe4,0xa0,0x3e,0x60,0x15,0x69,0x3d,0xb8,0x96,0xb1,0x3d,0xda,0x88,0x26,0x3e,0xf0,0xb1,0x11,0x3e,0x54,0x30,0x52,0xbe,0xa5,0xbd,0x9e,0x3e,0xed,0xfd,0x85,0x3e,0xb7,0x95,0x9b,0x3e,0xb2,0x7f,0x25,0x3e,0xb0,0x56,0x9f,0xbc,0x7c,0x40,0xef,0x3d,0xb9,0xc3,0x93,0x3e,0xec,0x0b,0x15,0x3e,0x47,0x06,0x99,0x3e,0xe8,0x5e,0xbc,0x3d,0x62,0x42,0xef,0xbd,0xa6,0x41,0x1c,0xbe,0xbe,0xf7,0xa4,0xbe,0x6a,0xf3,0x40,0x3e,0xe2,0x0b,0x43,0x3e,0xe0,0xd3,0xea,0x3d,0x01,0xca,0x88,0x3e,0x57,0x97,0xa0,0x3e,0x12,0xb6,0x21,0x3e,0x8e,0x08,0x48,0x3e,0x7b,0x20,0x35,0xbe,0xaa,0x3a,0x10,0x3e,0xc0,0xc2,0xab,0x3b,0xfc,0x70,0xeb,0x3d,0xfe,0x25,0x7c,0x3e,0x1a,0xb4,0x1a,0x3e,0xa8,0x75,0x7c,0x3d,0x38,0xba,0xb7,0xbd,0x49,0x7c,0x8d,0x3e,0x83,0x1a,0xb4,0xbe,0xac,0x09,0x8b,0xbd,0x20,0x4d,0x19,0x3c,0xdc,0x75,0x88,0xbe,0xb4,0x06,0xac,0x3d,0xd1,0x98,0x32,0xbe,0x1c,0x01,0xb8,0xbd,0x10,0x2b,0x31,0x3d,0x40,0x33,0x8e,0xbb,0xaa,0x12,0x1c,0x3e,0x34,0xc8,0xc5,0xbd,0x1e,0x02,0x2d,0xbe,0x30,0x05,0x86,0x3c,0x81,0x5a,0x9b,0x3e,0xa6,0x8b,0x76,0x3e,0x91,0x98,0x8f,0x3e,0x50,0xae,0x5f,0x3d,0x4a,0x8f,0xa6,0xbe,0x80,0xec,0x8f,0x3d,0xbc,0x92,0xb6,0xbd,0x5a,0xc7,0x77,0x3e,0x99,0xb6,0xad,0xbe,0xe6,0x09,0x64,0x3e,0x18,0x9d,0x8a,0xbd,0xf6,0xf4,0x68,0x3e,0x7e,0xd4,0xb4,0xbe,0x71,0x8c,0xaa,0x3e,0xb7,0x6f,0x8e,0x3e,0xb8,0x5b,0x2c,0xbd,0x6d,0x29,0xa6,0x3e,0x28,0x62,0x77,0xbd,0xe0,0xc7,0xc4,0x3d,0xc7,0x8d,0xaa,0xbe,0x5a,0x13,0xfe,0xbd,0xf6,0x2c,0x4a,0x3e,0x74,0xc2,0xe4,0xbd,0x78,0x02,0x4f,0xbd,0x46,0x44,0x5c,0x3e,0xf3,0x8b,0xa3,0x3e,0x62,0x9d,0x12,0x3e,0x1d,0x46,0x9c,0x3e,0xab,0x96,0x87,0xbe,0xdc,0x44,0xb3,0x3d,0xa4,0xd2,0xda,0x3d,0xcd,0x44,0x22,0xbe,0x3a,0xeb,0x35,0x3e,0xe4,0x7b,0x93,0xbe,0x80,0x51,0x21,0xbd,0xc8,0x37,0x4b,0x3d,0x80,0x90,0x11,0x3c,0x00,0x57,0xaa,0xbe,0xc9,0x7d,0x2f,0xbe,0x10,0x15,0xb3,0x3c,0xe5,0x56,0xa6,0x3e,0xe6,0x1b,0x6e,0xbe,0xd7,0xc6,0x93,0x3e,0x80,0x3a,0x87,0x3b,0x18,0x6f,0xbf,0xbd,0xef,0x8e,0xb1,0xbe,0x7e,0x85,0x1b,0x3e,0xfc,0x66,0xc3,0xbd,0xe0,0x52,0x39,0x3d,0x98,0x34,0xdd,0x3d,0x36,0x80,0x0a,0x3e,0x6c,0x03,0xe0,0x3d,0xe9,0xfb,0x95,0x3e,0xfa,0x45,0x6d,0xbe,0x45,0x73,0x91,0x3e,0xbc,0x8e,0x44,0xbe,0x00,0x3c,0x70,0xbd,0xe6,0xba,0x53,0x3e,0xfa,0x6f,0x26,0xbe,0x9d,0xc3,0xb1,0x3e,0x60,0xa6,0x47,0x3d,0x98,0x26,0xff,0x3d,0x75,0x25,0x95,0xbe,0x08,0xb6,0xad,0x3d,0xf0,0x27,0x46,0xbd,0x8b,0x5d,0xa1,0x3e,0xd3,0xd8,0x96,0xbe,0xce,0x7b,0x65,0x3e,0x28,0xc8,0x30,0x3d,0xd8,0x6b,0x75,0x3d,0x28,0xf6,0x88,0x3d,0x93,0x32,0x9d,0xbe,0x80,0xb1,0x70,0x3b,0x55,0x42,0x96,0xbe,0x19,0x36,0x06,0xbe,0x2a,0xa2,0x1c,0x3e,0x56,0xa7,0x3e,0xbe,0xd6,0x69,0x3b,0xbe,0x43,0x7a,0x89,0x3e,0x38,0xb0,0xe3,0x3d,0xc6,0x85,0x39,0x3e,0xa2,0xc9,0x71,0x3e,0x9a,0x32,0xa2,0xbe,0x47,0xd8,0x3f,0xbe,0xfa,0x04,0x8a,0xbe,0xc2,0x24,0x23,0x3e,0x60,0x2b,0xba,0x3c,0x00,0xff,0x17,0x3c,0xbc,0xd7,0xb6,0xbd,0x56,0xac,0xaa,0xbe,0x9b,0x03,0x8c,0xbe,0x29,0x5e,0xb2,0x3e,0x54,0x62,0xdf,0x3d,0x1c,0x1b,0xdb,0x3d,0x46,0xbe,0x39,0x3e,0x20,0xd8,0x62,0x3d,0x93,0x08,0x13,0xbe,0xc8,0x06,0x03,0xbe,0x44,0x61,0xa7,0xbe,0x6c,0xb4,0x94,0xbd,0x3c,0xe1,0x82,0xbd,0x76,0xcd,0x7f,0x3e,0x3e,0x8c,0xfa,0xbd,0x49,0x01,0x49,0xbe,0x6c,0x62,0x98,0xbd,0x64,0x5d,0x89,0xbd,0xdb,0x89,0x80,0x3e,0x01,0xf4,0x44,0xbe,0xc0,0x69,0x90,0xbb,0x32,0xca,0x61,0x3e,0xc0,0x78,0x62,0x3c,0x00,0xb2,0x0a,0x3e,0x7c,0xe3,0x0c,0xbe,0x90,0x8f,0xf5,0xbd,0x6f,0x90,0xa9,0xbe,0x53,0xa6,0xa7,0x3e,0x9c,0x4a,0x8f,0xbe,0x2c,0xa3,0xcd,0x3d,0x28,0x7e,0x0d,0xbd,0x4b,0xb3,0xa9,0xbe,0x43,0x75,0x2e,0xbe,0x99,0xa8,0xb1,0xbe,0xf0,0x7a,0xc6,0x3c,0x1a,0xce,0x1f,0x3e,0xbc,0xf5,0x00,0x3e,0xf8,0xfa,0x11,0xbe,0xa1,0x4f,0x86,0xbe,0x38,0x27,0x73,0x3d,0xf6,0x8e,0x39,0x3e,0xaa,0x43,0x2d,0x3e,0x62,0xf8,0x19,0x3e,0x13,0x5e,0x81,0x3e,0x70,0x76,0xc5,0x3d,0x2e,0xcc,0x41,0xbe,0xab,0x2e,0x8d,0x3e,0x7f,0x25,0x0b,0xbe,0xff,0xd5,0x2f,0xbe,0xc0,0xcf,0x6c,0x3c,0x45,0xeb,0xb4,0x3e,0x38,0x19,0x41,0x3d,0x1c,0xc8,0xec,0x3d,0x20,0x80,0x83,0xbe,0xf6,0xc3,0x33,0x3e,0xf6,0x48,0x56,0x3e,0x80,0x49,0xad,0x3d,0xbb,0x32,0x53,0xbe,0x0c,0x18,0xa8,0x3d,0x5d,0x53,0x8c,0x3e,0xb4,0x8b,0x6f,0xbe,0xda,0xff,0x43,0x3e,0x87,0xe0,0x87,0x3e,0x34,0xc5,0x01,0x3e,0x40,0x6b,0x09,0x3e,0xb7,0x12,0xa7,0x3e,0x05,0x21,0x4d,0xbe,0xd6,0xfe,0x76,0x3e,0x69,0x83,0x70,0xbe,0xf4,0xaf,0xa6,0xbd,0x28,0x72,0x6d,0xbd,0xf0,0x9a,0x7c,0xbd,0xec,0x2e,0x8a,0xbd,0x7e,0x72,0x4d,0x3e,0xf1,0x45,0x02,0xbe,0xe3,0x75,0x9e,0x3e,0x1c,0x42,0x8b,0x3d,0x18,0xc5,0x7d,0x3d,0x73,0x51,0x07,0xbe,0x14,0x2a,0xa8,0x3d,0xf0,0x82,0x00,0xbe,0xe6,0x2e,0x59,0xbe,0x78,0xa5,0x51,0xbe,0xba,0x5f,0x3e,0x3e,0xf0,0xb3,0x39,0x3d,0xe1,0xea,0xa2,0x3e,0x84,0x53,0x92,0x3d,0xc8,0xb4,0x9f,0xbd,0x68,0xc9,0x60,0x3d,0x14,0x29,0xc6,0xbd,0x0e,0xbd,0xe4,0xbd,0x1a,0xf0,0x07,0x3e,0x50,0xc3,0x39,0x3d,0xa2,0x8f,0x24,0x3e,0x14,0x34,0xce,0xbd,0xf8,0x2b,0xba,0xbd,0x70,0x6b,0xba,0xbd,0x0d,0xbd,0x9e,0xbe,0x44,0x71,0xb2,0x3d,0xc8,0x27,0x8e,0xbd,0xe4,0x0b,0x95,0xbe,0x5c,0xe7,0xca,0xbd,0x30,0xcc,0x11,0x3e,0x78,0xa2,0x21,0xbd,0x19,0x17,0x90,0xbe,0x72,0xef,0x17,0xbe,0x80,0x17,0x2c,0x3b,0xce,0x90,0x4a,0x3e,0x7c,0x87,0xfb,0xbd,0x94,0x2c,0xc7,0x3d,0xf9,0xf2,0xae,0xbe,0xa8,0xd7,0x70,0x3d,0xf6,0xef,0x66,0x3e,0x30,0x9a,0xbf,0xbd,0x71,0xde,0x93,0xbe,0xc4,0x31,0xa0,0xbd,0x62,0xa2,0x3b,0xbe,0x11,0x2d,0x89,0x3e,0x79,0x94,0xb0,0xbe,0x8e,0x8b,0x18,0x3e,0x45,0xa5,0x8a,0x3e,0x4a,0xfc,0x62,0x3e,0xf0,0x58,0x98,0xbe,0xdc,0x01,0xb5,0xbd,0x18,0x03,0x4a,0xbe,0xc6,0x78,0x5d,0x3e,0x56,0x98,0x64,0x3e,0x0c,0x6d,0x8c,0xbd,0x48,0xf6,0xd4,0x3d,0x90,0xce,0x79,0xbd,0xb4,0xeb,0x97,0xbe,0x5a,0x7e,0x63,0xbe,0x69,0xcf,0x9d,0x3e,0x85,0xc8,0x44,0xbe,0xd4,0xd7,0xfb,0xbd,0x68,0x51,0x05,0xbd,0x58,0x42,0x81,0xbe,0x29,0x15,0x93,0x3e,0xb2,0x69,0x45,0x3e,0xd0,0x09,0x83,0xbd,0x12,0x0a,0x22,0x3e,0xec,0x8f,0x99,0xbe,0xa5,0xe9,0x8d,0xbe,0xed,0xf3,0x9a,0xbe,0x9a,0xe4,0x6e,0xbe,0x00,0x18,0x83,0x3d,0x1d,0xcd,0x8f,0x3e,0xf7,0xa2,0xb3,0x3e,0xab,0xcc,0x23,0xbe,0x30,0x83,0x92,0xbe,0x00,0xf0,0xc6,0xbd,0x78,0xdc,0xc1,0xbd,0xf8,0x5b,0x9d,0x3d,0x83,0x75,0xaa,0x3e,0x30,0x73,0xc1,0x3d,0x5b,0xc0,0xb0,0x3e,0x37,0x6e,0x36,0xbe,0x7c,0x38,0xfc,0xbd,0xe2,0x82,0x35,0x3e,0x5e,0x6c,0x6b,0xbe,0x96,0xcd,0x42,0x3e,0x09,0x64,0x7c,0xbe,0xb8,0xad,0x85,0x3d,0x80,0x99,0xb6,0xbb,0xa9,0x1b,0x4b,0xbe,0xb5,0x82,0x0a,0xbe,0x46,0x48,0x90,0xbe,0x1c,0xf6,0xcc,0xbd,0x71,0xff,0xa4,0x3e,0x6c,0xfb,0xb8,0xbd,0xb0,0xcd,0xc4,0xbc,0x69,0x09,0xa3,0x3e,0x10,0xf5,0xb2,0xbe,0x68,0x49,0x20,0xbd,0x35,0x1a,0x8f,0x3e,0x84,0x4f,0x09,0xbe,0x27,0x0a,0xa8,0x3e,0x5c,0x7f,0x98,0x3d,0xbe,0x69,0x39,0x3e,0x0b,0xa3,0xab,0x3e,0x09,0x3f,0xaa,0xbe,0x50,0xd0,0x8d,0xbd,0x88,0x99,0x76,0xbd,0x58,0x92,0xa4,0xbd,0x72,0xfa,0x34,0x3e,0x00,0x1d,0x3c,0x3b,0x76,0xba,0x67,0x3e,0x7a,0xef,0x64,0x3e,0x34,0x89,0x82,0x3d,0x28,0x18,0xbe,0xbd,0x5e,0x84,0x24,0x3e,0x4d,0x73,0x96,0x3e,0xbd,0x6c,0x90,0x3e,0x59,0xee,0x8c,0x3e,0x12,0x45,0x5d,0x3e,0x74,0xad,0xe6,0x3d,0xae,0x09,0x4f,0x3e,0x9f,0x2a,0xab,0xbe,0x20,0x71,0xf6,0x3c,0xca,0xab,0x94,0xbe,0x01,0x69,0x42,0xbe,0x11,0xbe,0x33,0xbe,0x20,0xa3,0x53,0x3d,0xf4,0x73,0x55,0xbe,0x1e,0x9d,0x50,0x3e,0x6f,0xf9,0xac,0xbe,0x30,0x66,0xd4,0x3c,0x98,0x87,0x68,0x3d,0xa1,0x9c,0xa1,0xbe,0x34,0x36,0x0b,0xbe,0x51,0xf3,0x9d,0xbe,0x2a,0xf8,0x58,0x3e,0x3a,0xc1,0x51,0x3e,0x9e,0x90,0x4b,0x3e,0x6b,0x30,0xa5,0x3e,0xb0,0xac,0x24,0xbe,0xef,0x8b,0x81,0x3e,0xb5,0x3d,0xac,0x3e,0xb8,0x91,0x70,0xbd,0xa6,0x5f,0x97,0xbe,0x68,0x34,0xb7,0x3d,0xe8,0x52,0x35,0xbe,0x0b,0x8e,0xa2,0x3e,0x39,0x8b,0xb1,0x3e,0x57,0xbe,0x81,0xbe,0x25,0xf5,0x89,0xbe,0xe0,0x52,0x8f,0x3c,0x00,0x11,0x0a,0x3d,0xcb,0x34,0x8f,0x3e,0x2d,0x7c,0xac,0x3e,0x33,0x2a,0x84,0x3e,0x85,0x21,0xb1,0x3e,0x72,0x31,0x11,0x3e,0x42,0x63,0x6b,0x3e,0xd8,0x6e,0x68,0x3d,0xef,0x5e,0x38,0xbe,0xec,0xb5,0xb1,0x3d,0x2b,0x95,0x0d,0xbe,0x88,0xe5,0x1f,0xbd,0x51,0xdf,0x9d,0xbe,0x2a,0x64,0x53,0x3e,0xd5,0x8a,0xa2,0x3e,0x08,0x99,0xd9,0xbd,0x44,0x25,0xb0,0x3d,0xa0,0x99,0xae,0xbc,0xd6,0xc3,0x09,0x3e,0x80,0xe9,0x0b,0x3e,0x2f,0x30,0x80,0x3e,0x60,0x3f,0x19,0xbc,0x9b,0x72,0x91,0x3e,0x06,0xc4,0x6d,0x3e,0x00,0x10,0x27,0x39,0x04,0xcc,0xd8,0x3d,0x82,0xc8,0x25,0x3e,0xa2,0x64,0x13,0xbe,0x00,0x42,0xe3,0x3d,0x0d,0x29,0x83,0x3e,0x18,0xee,0x8a,0x3d,0x00,0x4e,0xf9,0x3d,0xa7,0x21,0xad,0x3e,0x80,0x0e,0x14,0x3d,0x22,0x16,0x4c,0x3e,0xcc,0xdb,0xfd,0x3d,0xa0,0x9e,0xb3,0x3d,0xd8,0x30,0x84,0xbd,0x9d,0x13,0x84,0x3e,0xfa,0xcf,0x87,0xbe,0xc6,0x4c,0x17,0x3e,0xe0,0xbc,0x5f,0x3d,0x7e,0x48,0x10,0x3e,0x3a,0x09,0xdc,0xbd,0x3c,0x67,0x86,0xbd,0xd6,0x12,0x61,0x3e,0xd8,0x81,0x99,0xbe,0x38,0xc9,0x57,0x3d,0xf9,0xdb,0x9b,0x3e,0x12,0x65,0xa4,0xbe,0x7d,0x97,0x99,0xbe,0x31,0x5a,0x97,0x3e,0xf0,0xd3,0xc6,0x3d,0x00,0x15,0xda,0x3d,0xbc,0x35,0x32,0xbe,0xf2,0xad,0x24,0x3e,0x67,0x9f,0x9d,0x3e,0x9a,0x0d,0x8d,0xbe,0xef,0x9d,0xa3,0x3e,0xf4,0x1a,0x75,0xbe,0xea,0x72,0x8f,0xbe,0x8e,0x8e,0x3c,0xbe,0x4b,0xb8,0x99,0x3e,0x2a,0xbf,0x6f,0x3e,0x36,0x06,0xa8,0xbe,0x68,0xf9,0xf8,0x3d,0x2a,0x19,0x7d,0xbe,0xb4,0xdf,0x80,0xbe,0x5d,0x1f,0x96,0xbe,0x6a,0x43,0x81,0xbe,0xe0,0x08,0xa0,0x3d,0xd3,0x60,0x9f,0xbe,0x7e,0x4e,0x67,0x3e,0x98,0xe9,0x87,0x3d,0xfd,0xbf,0xaf,0xbe,0xa0,0x59,0x18,0x3d,0xd0,0x6d,0x76,0xbe,0x8c,0x62,0xd7,0x3d,0x60,0x21,0xff,0x3d,0x42,0x5a,0x43,0x3e,0xf8,0xf9,0xcd,0xbd,0xb0,0xbd,0xf6,0xbc,0x81,0xfa,0xa2,0xbe,0xe0,0x72,0x6b,0x3c,0x98,0xfe,0xcf,0xbd,0x08,0xc3,0x8e,0xbd,0x22,0x2f,0x49,0x3e,0x84,0xbb,0xef,0x3d,0x29,0x07,0xb1,0x3e,0xca,0xe9,0xff,0xff,0x04,0x00,0x00,0x00,0x40,0x02,0x00,0x00,0x5c,0x04,0xad,0x3d,0x88,0x43,0x79,0xbd,0xee,0x35,0xe1,0xbe,0x0e,0x40,0x73,0x3e,0x34,0x4f,0xbb,0x3d,0x7d,0x91,0xbd,0xbe,0x8b,0xa1,0xb4,0xbe,0xd8,0x3e,0x99,0xbd,0x12,0xe3,0x61,0x3e,0xd4,0x5d,0xc6,0x3d,0xf0,0xc3,0xf1,0x3c,0x38,0xeb,0xbe,0xbe,0xa0,0x22,0x6b,0xbd,0x4d,0x01,0xf0,0x3e,0x52,0xd4,0x43,0x3e,0xd8,0x7b,0x1e,0xbe,0x4c,0x03,0x52,0xbe,0x6b,0x08,0xc0,0x3e,0x89,0xf2,0xab,0x3e,0xde,0x28,0x03,0xbe,0xe0,0xbd,0x00,0x3c,0xc0,0xde,0x42,0xbc,0x7b,0x47,0xf0,0x3e,0xb6,0xcd,0x24,0x3e,0xbc,0xf1,0x05,0xbe,0x9c,0xac,0x85,0xbe,0x22,0x66,0x5e,0xbe,0x6a,0xa1,0x2b,0xbe,0x90,0xc1,0xc3,0x3c,0x48,0x98,0x11,0x3d,0x1a,0xf7,0x0a,0xbe,0xe2,0xf2,0x8d,0xbe,0xbe,0xf3,0x33,0x3e,0x96,0x9e,0x32,0xbe,0x29,0x5a,0xd0,0x3e,0xed,0x85,0x9f,0x3e,0xd4,0x45,0xff,0x3d,0xcf,0xc4,0x81,0x3e,0x15,0x98,0x8c,0xbe,0x20,0x4d,0xac,0xbd,0x39,0x7d,0xe1,0x3e,0xf0,0xfe,0xe2,0x3c,0x35,0x2d,0xc2,0x3e,0xb5,0x3b,0xce,0x3e,0x24,0x83,0xb9,0xbd,0xe8,0xc0,0xcc,0xbe,0x8c,0xa2,0xaa,0x3d,0x05,0x57,0x81,0x3e,0x52,0x93,0x4e,0xbe,0xd9,0xab,0xd7,0x3e,0xd0,0xb1,0xb7,0xbc,0x42,0x65,0x1f,0x3e,0x50,0xdf,0x84,0xbc,0xb2,0xf7,0x51,0x3e,0xe2,0x77,0x35,0x3e,0x40,0x30,0xaf,0xbb,0x79,0x00,0xf6,0xbe,0xee,0x11,0x37,0xbe,0xd8,0xe8,0x8e,0xbe,0x1c,0x0b,0xb9,0xbe,0xb2,0x38,0xb0,0xbe,0xf6,0xb2,0x7d,0x3e,0xaa,0xcc,0x23,0xbe,0x1b,0x1a,0xca,0xbe,0x35,0xbb,0xde,0x3e,0x69,0x3a,0xe5,0x3e,0x92,0x8f,0x49,0x3e,0x3c,0x36,0xb9,0xbe,0x86,0x18,0x05,0x3e,0x63,0x17,0xf4,0x3e,0x33,0x52,0xb6,0xbe,0x54,0x0d,0xac,0xbe,0x4c,0xa0,0x82,0xbe,0x3f,0xbf,0xb0,0x3e,0x8f,0x7a,0x90,0xbe,0x84,0x55,0x20,0xbe,0x38,0xd7,0x12,0x3d,0xc6,0xb2,0x46,0xbe,0x0d,0x42,0xd9,0xbe,0x7c,0xdd,0xd2,0xbe,0x6f,0x09,0xd6,0x3e,0xf4,0x0f,0x22,0xbe,0xe6,0x6f,0x5d,0x3e,0xf8,0x08,0x12,0x3d,0xad,0x35,0xc9,0x3e,0x9a,0x8e,0x3f,0xbe,0xd4,0xf5,0xf1,0x3d,0xb5,0x0a,0xb0,0xbe,0x50,0xd4,0x94,0x3c,0x3b,0x58,0xa3,0x3e,0x48,0x8c,0xab,0xbd,0xd6,0x09,0xbe,0xbe,0x12,0x35,0x74,0xbe,0xaa,0x4e,0x13,0x3e,0x5e,0x5c,0x1d,0xbe,0xda,0x5a,0xf3,0xbe,0xa9,0x34,0xc0,0x3e,0xc9,0xc3,0xda,0xbe,0xad,0x20,0xaf,0x3e,0x98,0x79,0x25,0xbd,0x5c,0x96,0x0e,0xbe,0x09,0x3a,0xa5,0x3e,0xf8,0xa4,0x55,0x3d,0x1a,0x1c,0x13,0x3e,0x16,0x6a,0x35,0x3e,0x10,0x11,0x86,0x3c,0xb2,0x65,0x34,0x3e,0xec,0xa0,0x2a,0xbe,0x74,0x6b,0x85,0xbe,0x78,0x66,0x44,0xbe,0x68,0x51,0x37,0xbe,0xc0,0x59,0xdc,0x3b,0xae,0xde,0xf9,0xbe,0xe1,0xbb,0xa8,0x3e,0x7c,0x38,0x6e,0xbe,0xf8,0x90,0x7c,0xbd,0xa8,0xe9,0xbd,0xbd,0xc0,0xf5,0xb3,0xbc,0xe8,0x0b,0x61,0xbe,0x97,0x72,0xce,0x3e,0x32,0x32,0x67,0x3e,0x46,0xc9,0x9a,0xbe,0x71,0xa8,0xe8,0x3e,0xa2,0xca,0x47,0x3e,0xcf,0x20,0xc1,0x3e,0x4b,0xa4,0x90,0x3e,0xdf,0x3f,0xb5,0xbe,0xdf,0x54,0x98,0xbe,0xa4,0xe8,0x8c,0xbe,0x5c,0xd2,0x81,0x3d,0x6a,0x77,0xaf,0xbe,0x31,0x28,0xc4,0x3e,0x90,0xfa,0x4d,0xbe,0x1e,0xa0,0x0a,0x3e,0x8a,0x7c,0x74,0x3e,0x4e,0xe5,0xeb,0xbe,0x43,0x6e,0xa2,0xbe,0x3c,0xcb,0xce,0x3d,0xd6,0xbf,0x9f,0xbe,0xd8,0x47,0x93,0xbe,0x19,0x81,0x92,0x3e,0x2c,0x86,0x85,0xbe,0xdc,0xd6,0x4b,0xbe,0xff,0x7d,0xbb,0xbe,0x16,0xec,0xff,0xff,0x04,0x00,0x00,0x00,0x00,0x12,0x00,0x00,0x2a,0xf1,0x65,0xbd,0xc0,0x24,0x5b,0x3b,0x23,0x42,0xb5,0xbd,0x0c,0xc2,0x20,0x3e,0xb8,0x2f,0xb3,0xbd,0x67,0x01,0xa4,0xbd,0xe5,0x30,0x9f,0xbd,0x73,0x98,0x0f,0xbe,0x80,0xc2,0x24,0xbb,0xaa,0xfe,0x2b,0xbe,0xc0,0x02,0xdc,0x3b,0x00,0xa6,0x42,0xba,0x68,0x69,0xd1,0x3c,0x98,0xaa,0xc8,0x3d,0xe8,0x24,0x20,0xbd,0x14,0x35,0xe8,0x3d,0x90,0xf5,0x04,0x3c,0x54,0x69,0x0d,0x3e,0x28,0xdf,0xfc,0xbd,0x8d,0x97,0x9a,0xbd,0x00,0x00,0x9b,0x38,0x7a,0xe9,0xea,0xbd,0x6e,0xd1,0x2a,0x3e,0x7a,0x65,0xa9,0xbd,0x48,0x24,0x78,0x3d,0x4c,0x03,0xa8,0x3d,0x80,0x43,0x8c,0xbb,0x62,0x92,0x1f,0x3e,0x33,0x86,0xa3,0xbd,0x40,0x22,0xcb,0x3c,0x2a,0xb4,0x91,0x3d,0x1c,0x10,0x61,0xbd,0x90,0x01,0x2a,0x3c,0xcc,0x04,0xfb,0x3d,0x01,0x85,0x15,0xbe,0x10,0xcc,0x0b,0x3c,0x34,0xf0,0x8c,0xbd,0x36,0x4b,0x16,0xbe,0x00,0x33,0x92,0x3d,0x7c,0x0d,0x80,0x3d,0x38,0x6a,0x88,0x3d,0x38,0x12,0xa4,0xbc,0x0c,0xc3,0xc9,0x3d,0x4a,0xc3,0x0e,0xbe,0xe0,0xcd,0x11,0xbc,0x58,0x4c,0x58,0x3d,0xe0,0xae,0x8a,0xbb,0xd8,0x04,0xa4,0x3d,0x34,0x92,0x38,0xbd,0xc0,0x1b,0xae,0x3c,0x68,0xcd,0x04,0xbe,0x88,0x1c,0xe9,0xbd,0xa0,0xa6,0x33,0x3d,0x4a,0x93,0x98,0x3d,0xc0,0xaa,0x32,0xbc,0xe2,0x88,0x2b,0xbe,0xfc,0x40,0xed,0x3d,0xd2,0xfa,0x01,0x3e,0x68,0x92,0xa6,0xbd,0xd0,0x86,0x94,0xbc,0x93,0x51,0xa8,0xbd,0x86,0xa3,0x85,0x3d,0xe4,0x62,0xff,0x3d,0x5c,0x4d,0x15,0xbe,0x14,0x0d,0x0d,0xbe,0x18,0x24,0x0a,0x3e,0xa8,0xdd,0xa6,0xbc,0x80,0x10,0x5d,0xbd,0xab,0x76,0x2b,0xbe,0xd8,0xbe,0x7d,0x3d,0x20,0x0a,0x6a,0xbd,0xe8,0x74,0xf3,0xbd,0x7e,0xd4,0x5b,0xbd,0x30,0x68,0x2a,0xbe,0x88,0x0d,0x07,0xbd,0x40,0x49,0x23,0xbd,0xcc,0xa0,0xfd,0x3d,0x8a,0xf9,0x95,0xbd,0x26,0x33,0x21,0x3e,0xfe,0x4e,0xfe,0xbd,0xc0,0x66,0x09,0x3e,0xf8,0xc1,0xb1,0x3c,0x68,0xee,0x76,0xbd,0x24,0x7c,0xbb,0xbd,0x23,0x3b,0x0d,0xbe,0x93,0x87,0x2b,0xbe,0x00,0xbc,0xfe,0xba,0xf6,0x89,0xfe,0xbd,0x40,0xad,0x00,0x3c,0x30,0x3f,0x13,0xbe,0x90,0xc4,0x98,0x3d,0x2a,0x66,0x0a,0xbe,0x40,0x6d,0xc4,0xbc,0x21,0x25,0xf1,0xbd,0x28,0x19,0x61,0x3d,0xb8,0x86,0xb5,0xbd,0x74,0xcb,0xd8,0x3d,0x63,0x66,0xfc,0xbd,0xb6,0x0f,0x08,0x3e,0xd8,0x0e,0xe3,0x3c,0xb4,0xbd,0xba,0x3d,0x28,0xfe,0xf1,0xbc,0x22,0x74,0x15,0x3e,0x60,0xb4,0xb4,0x3b,0xc8,0x6a,0xfc,0x3d,0x12,0xcd,0x57,0xbd,0xd4,0xd6,0x1d,0x3d,0x88,0xe5,0x76,0xbd,0x68,0x0e,0x1c,0x3e,0x3e,0x52,0x41,0xbd,0x80,0x41,0x77,0x3c,0x48,0xad,0xcf,0x3c,0x60,0xf9,0x13,0xbe,0xdc,0xb3,0x05,0x3d,0x40,0x8b,0x18,0xbe,0x97,0xb0,0xd6,0xbd,0x96,0xe9,0x03,0x3e,0x54,0x0e,0xbc,0xbd,0x06,0xdf,0x21,0x3e,0xa0,0x1b,0xa7,0xbb,0x00,0xd0,0x84,0x39,0x64,0x11,0xb3,0x3d,0x40,0xac,0xf8,0x3d,0x0e,0xaf,0x13,0x3e,0x2f,0x05,0x0e,0xbe,0x60,0x82,0xe1,0x3c,0x78,0x32,0xcb,0xbc,0xbc,0xf0,0x73,0x3d,0x72,0x68,0x96,0x3d,0xf0,0x4c,0xaa,0x3c,0xfe,0x72,0x19,0x3e,0x80,0x13,0x81,0x3a,0x20,0x57,0xba,0x3c,0x40,0x2d,0xaa,0xbd,0x50,0xfc,0x2a,0x3d,0xb8,0x64,0x03,0x3e,0xbc,0xa1,0x9b,0x3d,0xd8,0x97,0x7e,0x3d,0x78,0x0d,0x8b,0x3c,0x88,0xf4,0x20,0x3e,0x66,0xfb,0x95,0x3d,0x50,0xf8,0xd3,0x3c,0x62,0x09,0x12,0x3e,0xd4,0x08,0xdc,0x3d,0xa8,0x36,0x91,0x3d,0x48,0x9c,0xaf,0x3c,0x90,0xb7,0x68,0x3d,0xe1,0x0d,0x15,0xbe,0x5c,0x59,0x0d,0xbd,0x16,0xd4,0xdf,0xbd,0x5b,0xee,0x04,0xbe,0xa8,0x56,0xea,0x3c,0xa8,0x39,0x4c,0x3d,0xf0,0x3c,0x42,0x3d,0x36,0x84,0x2c,0x3e,0x4c,0xfd,0xea,0xbd,0x5d,0x9d,0x03,0xbe,0x8e,0xdd,0x73,0xbd,0x0a,0xc6,0xdd,0xbd,0x06,0x32,0x0c,0x3e,0x14,0xb3,0x2c,0xbd,0xef,0xd8,0x97,0xbd,0xbf,0x1f,0xd8,0xbd,0x5c,0x3b,0xa4,0x3d,0xd0,0x47,0xd6,0x3d,0x48,0xb7,0x34,0x3d,0x10,0x67,0x2b,0xbd,0xa4,0xd9,0xf6,0xbd,0x04,0x0c,0xf7,0x3d,0xd6,0x58,0xd1,0xbd,0x4f,0xf9,0x23,0xbe,0x76,0xb7,0x88,0x3d,0xda,0xcf,0x11,0x3e,0x8e,0x42,0x02,0xbe,0xe8,0x4a,0xe7,0x3d,0x9a,0xa0,0x18,0xbe,0x8c,0x6f,0x18,0x3e,0xc6,0xa0,0x17,0xbe,0x90,0x41,0x4f,0x3d,0x72,0xd8,0x01,0x3e,0xbe,0x6b,0x9c,0x3d,0x54,0x4e,0x69,0xbd,0x2a,0x41,0x03,0x3e,0xd4,0xa9,0x2b,0x3d,0x48,0x89,0x79,0x3d,0x2b,0x8f,0x10,0xbe,0x90,0xb8,0xcd,0x3d,0x04,0x12,0xb9,0xbd,0x24,0xd6,0x4e,0x3d,0x98,0xd1,0xb1,0x3d,0x54,0xd4,0x2f,0xbd,0xa8,0xfd,0xca,0x3c,0x7c,0x79,0xd0,0x3d,0x70,0x12,0xc1,0x3d,0x66,0x98,0x0b,0x3e,0xc8,0x2c,0x9a,0xbc,0x75,0x53,0xdd,0xbd,0x00,0x04,0x16,0x39,0x4d,0x94,0x11,0xbe,0xda,0x8c,0x0e,0x3e,0x3f,0x4f,0x1b,0xbe,0xf0,0x16,0xd8,0x3d,0x88,0x1f,0xca,0x3d,0xc4,0x23,0xe8,0x3d,0xaa,0x2e,0x10,0x3e,0x90,0xc4,0xdb,0xbd,0xb0,0x3a,0xd2,0x3d,0x0c,0x82,0xbc,0x3d,0x30,0x67,0xc7,0xbd,0xd0,0x96,0x86,0x3c,0x98,0x1c,0xce,0xbc,0x54,0x44,0x09,0x3e,0x58,0xc1,0x07,0x3e,0xb8,0xb0,0x1d,0x3e,0xc0,0x81,0x0a,0x3e,0x54,0xe6,0x2d,0x3d,0x50,0xec,0xb3,0x3c,0xf0,0x2f,0xd1,0x3c,0xb8,0x63,0xfb,0x3c,0xdc,0x50,0x6d,0x3d,0x23,0x47,0x91,0xbd,0xee,0x61,0x8a,0x3d,0xa8,0x10,0xc1,0x3d,0xa0,0xf6,0xc4,0x3d,0x75,0xed,0x0c,0xbe,0x81,0xe8,0x8f,0xbd,0x90,0x08,0x4e,0x3c,0xc0,0x74,0x21,0x3b,0x80,0xe2,0x47,0x3d,0x2b,0xa2,0x26,0xbe,0xd0,0x4a,0xb8,0xbd,0xc0,0x74,0x2a,0x3e,0x58,0xe8,0xd6,0x3d,0x18,0xba,0x49,0xbd,0x48,0xba,0xd3,0x3d,0x91,0x78,0x2c,0xbe,0x33,0xd0,0xa8,0xbd,0x44,0x8e,0x12,0xbe,0xb9,0xfd,0xc3,0xbd,0x96,0xc6,0x24,0xbe,0x6e,0x93,0xdf,0xbd,0x1c,0xdf,0x0a,0x3d,0xc0,0x52,0x06,0xbd,0x08,0x33,0xcd,0x3d,0xaa,0x14,0x23,0x3e,0x18,0xfa,0x8f,0x3c,0x8c,0x4a,0x07,0xbd,0x92,0x87,0xe0,0xbd,0xda,0x8d,0x00,0xbe,0xdc,0xdb,0x05,0x3e,0xf4,0x24,0x01,0xbd,0xbc,0xfd,0x28,0xbe,0xce,0x3f,0x21,0x3e,0x80,0x0b,0x86,0x3d,0x19,0xdc,0x27,0xbe,0x57,0x67,0x81,0xbd,0x60,0x58,0x36,0x3c,0xf5,0xdf,0x22,0xbe,0xc4,0x70,0x2b,0xbe,0x10,0xea,0x48,0x3c,0xa8,0x49,0x46,0x3d,0x5e,0x40,0x2b,0x3e,0x2d,0x8c,0x25,0xbe,0x14,0x9b,0x0f,0x3e,0xcd,0x08,0xa3,0xbd,0xf9,0xbc,0x82,0xbd,0x12,0x14,0x08,0x3e,0x7c,0x51,0x5f,0x3d,0x80,0x46,0xdc,0x3d,0xdc,0x5c,0xc7,0x3d,0x89,0x82,0x13,0xbe,0xc3,0x38,0xd8,0xbd,0x53,0xc6,0xc9,0xbd,0x50,0x7d,0x3d,0xbc,0x0a,0x5f,0x90,0x3d,0x40,0x30,0x57,0x3d,0xd7,0x29,0x9d,0xbd,0xe8,0x60,0x06,0xbd,0x50,0x78,0xa7,0x3d,0x98,0x08,0xe5,0xbd,0x38,0x69,0x95,0xbc,0x7d,0x54,0xed,0xbd,0x04,0x4d,0x20,0xbd,0x9c,0x29,0x0c,0x3d,0x6c,0x17,0xc7,0x3d,0x64,0x32,0x22,0x3d,0xbb,0x99,0xc6,0xbd,0xde,0x6f,0x9b,0x3d,0xdc,0x1a,0xfe,0x3d,0x64,0x1e,0x03,0xbe,0x42,0x1c,0x0d,0xbe,0xe0,0x5c,0xa3,0x3b,0xe2,0xdf,0x71,0xbd,0x40,0xaa,0xc4,0x3c,0xb0,0xda,0xb5,0x3d,0xeb,0xad,0x2c,0xbe,0xc4,0xb8,0x50,0xbd,0x40,0x61,0x21,0x3b,0x74,0xf9,0x1a,0x3e,0xcc,0x62,0x20,0xbe,0x5c,0x68,0x4b,0x3d,0xc9,0x23,0x26,0xbe,0xbd,0x7f,0xaa,0xbd,0xba,0xd8,0x01,0x3e,0x60,0x46,0x0d,0x3c,0xd0,0xb2,0x3e,0x3d,0x30,0x25,0x30,0xbc,0x04,0xf7,0x9f,0x3d,0xc8,0xd1,0xb0,0x3d,0x9c,0x23,0xda,0x3d,0xf4,0x85,0xf9,0x3d,0xc4,0x11,0x1f,0x3d,0xa0,0x5d,0xbe,0xbc,0xb7,0xf6,0x2a,0xbe,0xe6,0xec,0x01,0x3e,0x8a,0x95,0x0f,0x3e,0xba,0x0d,0x03,0xbe,0x63,0x1a,0xdd,0xbd,0xa2,0x11,0x10,0xbe,0x8e,0x38,0x93,0xbd,0xec,0xbb,0xe2,0x3d,0x30,0x7d,0xad,0xbc,0xa5,0x79,0xda,0xbd,0x88,0xa8,0x62,0xbd,0x04,0x52,0xa9,0xbd,0x48,0xf6,0xb1,0x3c,0xdc,0x85,0xb2,0x3d,0x30,0xed,0x46,0x3d,0x4a,0x84,0x05,0xbe,0x58,0x65,0xd0,0x3d,0xdc,0xf1,0x1f,0x3d,0xa9,0xc5,0xd4,0xbd,0xb4,0x5c,0x49,0xbd,0xb8,0x2c,0xd5,0xbc,0xca,0x79,0xae,0xbd,0xda,0x57,0x99,0x3d,0x2d,0x2b,0x10,0xbe,0x0c,0x9e,0x10,0x3e,0xa6,0xa4,0x41,0xbd,0x9c,0xb1,0xca,0x3d,0x58,0xe3,0x07,0x3e,0xe8,0x19,0x70,0x3d,0x63,0xc9,0x0a,0xbe,0xfe,0x79,0x1f,0x3e,0x18,0x92,0xe3,0xbc,0xd4,0x16,0x31,0xbd,0x21,0x4c,0x88,0xbd,0xe0,0xf3,0xb1,0x3b,0x84,0x34,0x2a,0x3d,0x35,0x29,0xd3,0xbd,0xc4,0xfc,0x5b,0xbd,0xa0,0xf9,0x27,0x3e,0x7f,0x2c,0xe4,0xbd,0x98,0xf2,0x16,0xbe,0xcd,0xc7,0x03,0xbe,0x00,0xea,0x40,0x3d,0xd6,0xfe,0x24,0x3e,0x00,0x36,0x0a,0xbd,0x88,0xd6,0xa2,0x3d,0x3f,0x8e,0x15,0xbe,0xee,0x7e,0xe0,0xbd,0xae,0x37,0x04,0x3e,0x00,0x2b,0x3c,0xbb,0x50,0x88,0x4a,0x3d,0xa0,0xb2,0x7a,0xbc,0x40,0x28,0x49,0x3c,0x5b,0x29,0x21,0xbe,0x85,0xaa,0x1c,0xbe,0x3c,0x89,0xf7,0x3d,0x9e,0x44,0xee,0xbd,0x48,0xcb,0x07,0x3e,0xe0,0xc3,0xd7,0x3d,0x50,0x37,0x64,0x3d,0x9e,0xa8,0x23,0xbe,0x56,0xfc,0xfd,0xbd,0xa8,0x3a,0x24,0x3d,0x58,0xe1,0xaf,0x3d,0x40,0xbc,0x29,0xbd,0x8a,0x99,0x16,0x3e,0x5c,0x12,0xce,0x3d,0x33,0x8e,0x2a,0xbe,0xa2,0x8a,0x87,0x3d,0xb8,0x55,0x1b,0x3e,0x7a,0xdd,0x07,0xbe,0x34,0x53,0x20,0x3e,0xa4,0xd7,0x54,0xbd,0xf0,0x64,0xf8,0x3d,0x33,0x1b,0x86,0xbd,0xd4,0xe1,0x33,0x3d,0xca,0x6a,0x06,0x3e,0x80,0x88,0x96,0x3a,0x96,0x24,0x17,0x3e,0xd4,0xa7,0xbb,0x3d,0x88,0x91,0xfc,0x3d,0x38,0xb7,0x8b,0x3d,0xa0,0x63,0x20,0xbd,0xfc,0x60,0xa8,0x3d,0x00,0x4f,0xc5,0xbd,0x80,0x7a,0x29,0x3d,0x7c,0x3c,0xd6,0x3d,0xd4,0xee,0x0d,0x3e,0x57,0x45,0xa9,0xbd,0x97,0x60,0x01,0xbe,0x42,0x54,0xf4,0xbd,0x32,0xa9,0x00,0x3e,0xcd,0xc1,0x0e,0xbe,0xa0,0x47,0xa6,0x3d,0x5c,0x9d,0xb2,0x3d,0x46,0x44,0x1e,0x3e,0x10,0xe6,0x17,0x3c,0xde,0x42,0xdd,0xbd,0x5c,0x6e,0xf0,0x3d,0x74,0xc7,0xed,0xbd,0xb8,0xe0,0x9d,0xbc,0x80,0x74,0x1d,0xbb,0x54,0xcd,0x25,0x3d,0x15,0xbc,0x29,0xbe,0x1c,0x97,0xd7,0x3d,0x70,0xda,0x28,0x3c,0x70,0x77,0x63,0x3c,0x80,0x3a,0x60,0x3d,0x18,0x08,0xa0,0x3c,0xe2,0xd2,0x1e,0x3e,0x70,0x33,0x87,0x3c,0x7c,0xa5,0xdb,0xbd,0x64,0x8d,0x2a,0xbd,0xb8,0xc2,0xf7,0x3c,0xce,0x26,0x0b,0xbe,0xa0,0x0b,0x83,0x3c,0xe7,0x64,0xc8,0xbd,0xde,0xf6,0x28,0x3e,0x94,0x3f,0x9e,0x3d,0x5a,0x18,0xe0,0xbd,0xe6,0x96,0x16,0xbe,0xb8,0xa1,0xca,0xbc,0xbc,0xf1,0x22,0x3d,0x10,0xe5,0x60,0xbc,0x7e,0xf8,0x29,0xbe,0xce,0x23,0xee,0xbd,0x10,0x08,0x7a,0x3c,0xf4,0x48,0xde,0x3d,0x60,0x86,0xd2,0xbc,0xe2,0x01,0xf9,0xbd,0xc8,0x8c,0x2f,0xbd,0xc8,0xc5,0xf2,0x3c,0x0c,0x8d,0x1a,0xbd,0x52,0x41,0x93,0x3d,0x84,0x01,0x22,0xbe,0xee,0x88,0x1d,0x3e,0x10,0xfa,0xba,0x3c,0x72,0x94,0x28,0x3e,0x08,0xed,0x50,0x3d,0x24,0xa5,0x99,0x3d,0xb0,0x7e,0xb9,0x3c,0xaa,0x66,0x01,0x3e,0x30,0x77,0x00,0x3e,0xbf,0x0b,0x91,0xbd,0xe0,0x9e,0x80,0x3c,0xf8,0x8f,0xd3,0x3d,0x80,0x97,0xb6,0xbb,0xba,0xb2,0xb0,0xbd,0x50,0xcc,0x7a,0x3c,0xdc,0x0a,0x1b,0x3e,0xbf,0xa3,0x24,0xbe,0x90,0x45,0xe2,0x3d,0x60,0x03,0x40,0x3c,0xb0,0x2f,0x92,0xbc,0x76,0xee,0x2b,0xbe,0x9a,0xb6,0x2b,0x3e,0x58,0x4d,0xb5,0xbc,0x00,0x56,0xa2,0xbc,0x56,0x23,0x27,0x3e,0xea,0xb2,0xf4,0xbd,0xf8,0x2f,0xd4,0x3d,0xe7,0xc8,0xc9,0xbd,0xb8,0x0c,0x64,0xbd,0x10,0x16,0x92,0x3c,0x8e,0xe0,0x0c,0x3e,0xd0,0x02,0xab,0xbc,0x78,0x4a,0xc1,0x3d,0x5a,0x31,0x0e,0xbe,0x29,0xc4,0xe4,0xbd,0x42,0x26,0x07,0x3e,0x38,0xda,0x2b,0xbe,0x37,0x02,0x0e,0xbe,0x2c,0x49,0x4c,0xbd,0xfe,0x59,0x15,0x3e,0x65,0x23,0x8f,0xbd,0xc6,0x03,0x4f,0xbd,0x48,0xc3,0xc1,0x3c,0x8e,0xe7,0x80,0x3d,0x34,0xbf,0x11,0xbe,0x32,0x11,0x37,0xbd,0xfa,0x5a,0x83,0xbd,0x2a,0x1c,0x89,0xbd,0xc6,0x01,0x01,0x3e,0x0a,0xa0,0x05,0xbe,0x68,0x3b,0xfd,0xbd,0xc0,0x9e,0x8d,0xbc,0x20,0xe2,0xc7,0x3c,0x9c,0x6e,0x0e,0xbd,0x65,0xb6,0xe0,0xbd,0xe0,0x58,0x08,0x3c,0xc6,0xf9,0x9c,0x3d,0x5e,0x63,0x0a,0xbe,0x40,0x1e,0x9c,0xbc,0xf2,0x04,0x26,0xbe,0xf6,0x63,0xb6,0xbd,0xe0,0xc4,0xa1,0xbb,0xfc,0x18,0x7e,0xbd,0x10,0x11,0x1b,0x3d,0xac,0x5e,0x29,0xbe,0x64,0x53,0xb8,0x3d,0xfa,0x5c,0x8c,0x3d,0x58,0x02,0x17,0x3e,0x00,0x24,0xdf,0x39,0x10,0xd4,0x29,0xbc,0xd8,0x35,0x06,0x3e,0x20,0x93,0x2b,0x3d,0x6a,0xb3,0x94,0x3d,0xde,0x61,0xd5,0xbd,0xa9,0x6a,0x2a,0xbe,0x26,0xb3,0x07,0x3e,0xd0,0x0a,0xd5,0x3c,0x48,0x1c,0xbe,0xbc,0xa8,0x87,0x4f,0x3d,0x10,0x36,0x7e,0x3c,0x01,0xad,0xbe,0xbd,0x4d,0x50,0xb9,0xbd,0x9c,0xc0,0xd7,0x3d,0x50,0x60,0x25,0xbe,0x0c,0x72,0x92,0xbd,0x10,0x9a,0x1c,0x3d,0x14,0x20,0x62,0x3d,0xb9,0x9d,0xce,0xbd,0x48,0x32,0x46,0xbd,0xfc,0x62,0xce,0x3d,0x1c,0x95,0xbb,0x3d,0x9f,0x73,0xe2,0xbd,0xf0,0x91,0x3f,0x3c,0xc2,0x3d,0x6c,0xbd,0x08,0x99,0x7b,0x3d,0x0a,0x46,0x83,0x3d,0x2e,0x1c,0x74,0xbd,0xaa,0x52,0x27,0x3e,0xd0,0xc7,0xd4,0x3d,0x26,0x53,0x1a,0x3e,0x40,0x5d,0x90,0x3b,0x42,0x01,0x23,0xbe,0x4f,0x97,0x16,0xbe,0xc0,0x3f,0xfa,0xbb,0x48,0x45,0x11,0x3d,0x74,0x50,0xab,0x3d,0x6a,0x95,0x29,0x3e,0xd0,0xca,0xc1,0xbc,0xf4,0x24,0x22,0xbd,0xa6,0xb3,0x40,0xbd,0x1c,0xd7,0x40,0xbd,0x3a,0x99,0x0b,0x3e,0x79,0x1f,0x26,0xbe,0x04,0x3a,0xfe,0x3d,0x94,0xe0,0x81,0x3d,0x20,0x47,0xd0,0xbb,0xdc,0x6b,0xcd,0x3d,0x80,0xcf,0x7b,0x3d,0x0b,0x98,0x98,0xbd,0xe7,0xd9,0x1f,0xbe,0xd8,0x97,0x05,0x3d,0x40,0x3a,0x4e,0x3c,0x80,0xcb,0x4d,0xbb,0x3f,0x30,0x9c,0xbd,0xe0,0xb3,0xc6,0x3d,0x4c,0x1b,0x2b,0xbe,0x6c,0x63,0xa4,0x3d,0x74,0xfa,0xec,0x3d,0x20,0xea,0x15,0xbe,0x00,0x87,0xc6,0xba,0xb0,0xf0,0x11,0xbe,0xb4,0xf3,0x00,0xbe,0x04,0x9c,0xae,0xbd,0x70,0x98,0x7e,0x3c,0x2d,0x0f,0x2d,0xbe,0xa0,0xdd,0xe2,0x3b,0x2e,0x66,0x53,0xbd,0x70,0x97,0x9d,0x3d,0x34,0x5e,0x6e,0x3d,0x7a,0x6c,0x9f,0xbd,0x5c,0xc4,0xf8,0xbd,0xcc,0x60,0x39,0x3d,0x99,0xa8,0x94,0xbd,0x0c,0x98,0x05,0xbd,0x22,0xad,0x96,0x3d,0xb8,0xa4,0x8a,0x3d,0xb0,0xbf,0xe9,0x3d,0xdc,0x30,0x9c,0xbd,0x4a,0x68,0x09,0xbe,0x48,0x26,0x39,0xbd,0x1c,0x9a,0x28,0x3d,0x30,0x6a,0xe2,0x3c,0x20,0x40,0x3b,0xbc,0x72,0x3c,0x6e,0xbd,0x78,0xa5,0xb3,0x3d,0xa0,0xe6,0x4b,0x3d,0x60,0xca,0x17,0x3d,0xae,0xa9,0x03,0xbe,0x17,0x25,0xab,0xbd,0xf4,0x8e,0x92,0xbd,0x30,0x9d,0x80,0xbc,0x08,0xbd,0x82,0xbc,0xc1,0x0b,0xa4,0xbd,0x90,0x8f,0xba,0x3d,0x00,0x1f,0x67,0x3d,0x1c,0x75,0x22,0xbe,0x50,0x09,0x66,0x3c,0x96,0xef,0x5a,0xbd,0x78,0x74,0xb5,0x3c,0x40,0xc3,0x49,0x3c,0x34,0x41,0xe3,0x3d,0x60,0xed,0x05,0x3c,0xac,0x12,0x9b,0x3d,0x00,0x26,0xa7,0x39,0x00,0x97,0x62,0xbc,0x32,0xdd,0x7a,0xbd,0x8c,0xf3,0xf7,0x3d,0x00,0x35,0xda,0x3b,0x2e,0xeb,0x16,0xbe,0xa0,0x78,0x14,0xbc,0x02,0x2f,0x2c,0xbe,0xd8,0x90,0x2e,0xbd,0x46,0x54,0x00,0xbe,0xf8,0x86,0xec,0x3d,0x48,0x08,0x01,0x3e,0x95,0x66,0x1f,0xbe,0xc0,0xd9,0xcf,0x3d,0xc0,0xbc,0x38,0x3b,0x15,0xe8,0x1f,0xbe,0x40,0x65,0x14,0xbe,0x00,0x92,0x19,0xbd,0x73,0xf0,0x13,0xbe,0x98,0x22,0x02,0xbe,0x52,0xf7,0x1d,0xbe,0xe0,0x18,0x7d,0xbc,0xb9,0x89,0xc4,0xbd,0x50,0x99,0x93,0xbc,0x10,0xf1,0x4f,0xbc,0x38,0xd2,0x1e,0xbd,0x68,0x73,0x19,0x3d,0x72,0xb9,0xf4,0xbd,0x6a,0xc7,0xe4,0xbd,0x16,0x09,0x36,0xbd,0x58,0xd6,0xc6,0x3d,0x4e,0x80,0x0d,0x3e,0x06,0x27,0x05,0xbe,0x66,0x55,0x0b,0x3e,0x72,0x2a,0x91,0x3d,0xc0,0x6c,0x79,0xbc,0x80,0x42,0x33,0x3c,0x04,0x0c,0xcf,0x3d,0x00,0xac,0xb2,0x3d,0x14,0x72,0x1e,0x3e,0x30,0xff,0x86,0xbc,0x34,0x2e,0x92,0x3d,0xfe,0xf8,0xef,0xbd,0xac,0x04,0x90,0x3d,0x59,0x17,0x2a,0xbe,0x86,0xc7,0x1e,0xbe,0x04,0xf5,0x12,0x3e,0x3a,0xc8,0x05,0x3e,0x20,0x00,0x23,0x3e,0x50,0xc4,0x01,0x3c,0x3a,0xc2,0xe0,0xbd,0xf5,0x32,0xf5,0xbd,0x70,0xd8,0xa2,0x3d,0x5e,0x69,0x23,0x3e,0x78,0x8f,0x43,0xbd,0x23,0xfb,0x89,0xbd,0x20,0x70,0xf4,0xbd,0x99,0xa4,0x22,0xbe,0x20,0x68,0xd9,0x3d,0x80,0x99,0xb4,0x3d,0x78,0xa6,0xec,0x3d,0xb4,0x7f,0x24,0xbd,0xd0,0x19,0xc6,0x3d,0x00,0x4d,0xca,0xbd,0x25,0x4c,0x8a,0xbd,0xc0,0x05,0x03,0xbe,0x12,0x95,0x0e,0xbe,0xac,0x5e,0x12,0x3d,0xda,0x9b,0x06,0xbe,0xf4,0x24,0xad,0x3d,0xe0,0xf3,0xf7,0x3b,0xd2,0x74,0x13,0x3e,0x20,0x23,0xdc,0xbc,0x11,0x97,0x28,0xbe,0xba,0x2d,0x2a,0x3e,0x20,0x95,0x0e,0xbe,0xe8,0xea,0xe5,0x3d,0x30,0x6f,0x72,0x3d,0x64,0x4a,0x6c,0x3d,0x98,0x61,0x0e,0x3d,0xe6,0x14,0x10,0x3e,0x68,0x34,0xf2,0x3d,0x1c,0x68,0x2b,0xbd,0x4a,0x98,0x94,0x3d,0xf9,0xb2,0x2a,0xbe,0xb2,0xec,0x05,0xbe,0xfc,0xb3,0xba,0xbd,0x1c,0x0d,0x27,0x3e,0xc5,0x05,0x00,0xbe,0x18,0xe0,0x0a,0x3d,0x38,0x5f,0x03,0x3e,0x40,0x1a,0xbb,0xbd,0x3c,0xae,0xc3,0x3d,0x72,0xb7,0x17,0x3e,0x70,0xbf,0x93,0x3c,0x30,0x84,0xbe,0x3d,0x04,0xbd,0xc6,0x3d,0x2f,0xbc,0x9c,0xbd,0x63,0xd0,0x84,0xbd,0x98,0x4f,0x0c,0xbe,0xe8,0xc7,0xec,0x3c,0xe0,0x3d,0x13,0x3e,0xc4,0xbe,0xcf,0xbd,0x01,0x42,0x89,0xbd,0x84,0xd5,0x68,0xbd,0x3e,0x9a,0x72,0xbd,0x78,0x88,0xc0,0x3d,0x86,0x93,0x73,0xbd,0x61,0xb6,0x8a,0xbd,0x10,0x73,0xab,0x3d,0xa7,0x89,0x82,0xbd,0xa2,0x31,0x9e,0x3d,0xc8,0x52,0xe0,0x3c,0x72,0x4e,0xf5,0xbd,0xb0,0x44,0x62,0xbc,0x9e,0x2e,0x14,0x3e,0x76,0xaf,0xa5,0xbd,0xa0,0x00,0x1f,0x3c,0xb0,0xe6,0x0b,0x3e,0x44,0x33,0xb4,0x3d,0xf8,0xa7,0xa7,0x3d,0x9a,0x74,0x1b,0xbe,0x08,0x08,0xf3,0xbd,0x70,0xdf,0x0c,0x3e,0x06,0x8b,0x15,0x3e,0x4e,0xbf,0x21,0xbe,0x88,0xcd,0xf6,0x3d,0x90,0x78,0x77,0xbc,0x34,0x86,0xed,0xbd,0xd3,0xdf,0x06,0xbe,0x5f,0x1a,0xb5,0xbd,0x69,0xe5,0xd0,0xbd,0x00,0x19,0xf4,0xbc,0xcc,0xa9,0x27,0xbd,0x00,0x4f,0xcf,0x3b,0x20,0xaf,0x03,0x3d,0x4f,0x91,0x29,0xbe,0x00,0x70,0x4b,0x3a,0xd2,0x52,0xec,0xbd,0x00,0xa6,0xc2,0x3b,0x40,0x92,0xe6,0xbc,0x26,0x9a,0x1d,0x3e,0xc0,0x7c,0xf5,0x3c,0x2f,0x9b,0x1f,0xbe,0xe0,0x66,0x4c,0xbc,0x50,0x40,0x7f,0x3c,0x40,0x7b,0xfa,0x3b,0x3c,0x1c,0x42,0xbd,0x14,0x1a,0xca,0x3d,0x60,0x07,0xab,0xbc,0xc0,0x03,0xaf,0x3c,0x49,0x68,0xaa,0xbd,0x40,0xbb,0xa8,0x3c,0x40,0x86,0xe5,0x3d,0xe3,0x5f,0x26,0xbe,0xf6,0x84,0x7b,0xbd,0xd8,0x8b,0xfe,0xbc,0x54,0x96,0xeb,0x3d,0xd0,0xac,0x4e,0x3d,0x6e,0x43,0xb3,0xbd,0xa8,0xea,0x24,0xbe,0x68,0xb6,0xeb,0xbc,0xfa,0x5f,0x5f,0xbd,0x6c,0x94,0x06,0x3d,0x80,0x5e,0xaa,0x3d,0xec,0x7d,0x12,0x3e,0xd8,0xbb,0x2b,0xbe,0x5c,0x18,0x02,0x3d,0x74,0x67,0xe0,0x3d,0xbc,0xe9,0x09,0x3e,0x20,0x2f,0x0e,0xbe,0x2f,0xb4,0x0d,0xbe,0x38,0x54,0xf4,0x3d,0x38,0x5d,0x36,0x3d,0xae,0x1b,0x23,0xbe,0x90,0x9d,0x8b,0xbc,0x9a,0xda,0x87,0xbd,0xa8,0x96,0x82,0xbc,0xb8,0x22,0x9e,0xbc,0x30,0x00,0x92,0x3d,0x60,0xb3,0x94,0x3b,0x78,0x70,0x89,0xbd,0x1c,0xbe,0x2b,0xbd,0x2c,0x61,0x90,0x3d,0xd4,0xee,0x48,0x3d,0xa4,0x41,0x24,0xbd,0xe0,0x9e,0x85,0x3d,0x2c,0x1f,0x00,0x3d,0x4a,0xef,0x0f,0xbe,0x18,0xc0,0xc9,0x3d,0x80,0xfc,0xc0,0x3c,0x92,0x1e,0x0a,0xbe,0xe0,0x6a,0xd9,0x3d,0xc0,0xcf,0x0d,0x3b,0x00,0x1b,0xea,0x3c,0x23,0xf7,0x0b,0xbe,0x00,0x4c,0x78,0xba,0x9c,0xbe,0xcd,0x3d,0xa0,0xd6,0x63,0xbc,0x12,0x63,0x1d,0x3e,0x89,0x8b,0x0c,0xbe,0xf2,0x48,0xd2,0xbd,0x20,0x9b,0x28,0xbd,0xcc,0xee,0x90,0x3d,0xa6,0xb4,0x18,0x3e,0x74,0x9c,0x0a,0x3e,0xc8,0xcb,0x16,0x3e,0xc8,0x59,0x22,0xbe,0x10,0x88,0xbc,0xbc,0xa0,0x79,0xb6,0x3d,0x60,0xa1,0x65,0xbd,0x80,0xf4,0x7d,0xbc,0x14,0x67,0x20,0xbd,0xd0,0x6c,0xb7,0x3d,0xa0,0xeb,0x47,0xbd,0xde,0x2e,0x19,0x3e,0x50,0xf9,0x2e,0x3c,0x40,0xbe,0x1e,0xbc,0x17,0x02,0x91,0xbd,0x4c,0x5b,0x04,0x3e,0x06,0xaf,0x38,0xbd,0x0c,0x4c,0xba,0x3d,0xb0,0x11,0xbd,0xbd,0x88,0x66,0xc2,0x3d,0x78,0xed,0xc0,0xbc,0x20,0x0c,0x47,0x3d,0xbe,0xca,0xe8,0xbd,0x1d,0x6f,0x28,0xbe,0xca,0x34,0x5f,0xbd,0x41,0xa2,0xac,0xbd,0x50,0x41,0xc1,0x3c,0x9c,0xd3,0x3b,0x3d,0x80,0xdc,0xf3,0x3b,0x18,0xb6,0x88,0x3d,0x30,0xa5,0xac,0x3d,0xd8,0x76,0xee,0xbc,0x80,0x97,0x0f,0xbb,0x39,0xe4,0xa4,0xbd,0xf4,0x2a,0xfb,0x3d,0xda,0x7c,0x29,0x3e,0x44,0x49,0x09,0x3e,0x0c,0x07,0x94,0x3d,0x40,0x55,0x13,0x3d,0x34,0x87,0x81,0xbd,0x40,0xdd,0x8a,0xbb,0xf8,0xdd,0xff,0x3d,0xf4,0x99,0x0d,0xbe,0xe0,0x82,0x8c,0x3c,0x43,0x9a,0x09,0xbe,0xd4,0xc6,0xbd,0x3d,0x40,0x31,0x01,0xbb,0x0c,0x1e,0xe9,0x3d,0x2c,0xfe,0xb9,0xbd,0x00,0xe6,0xf5,0x39,0x73,0x7c,0xc5,0xbd,0xfc,0x92,0x9a,0x3d,0x40,0x0c,0x39,0xbc,0x4c,0x17,0xfd,0x3d,0xca,0x11,0x09,0x3e,0xf8,0xbf,0xab,0x3c,0x80,0x14,0x96,0x3d,0xf8,0xd1,0xc5,0x3c,0x18,0x30,0x7f,0x3d,0xfc,0xce,0xca,0xbd,0x08,0xc4,0x12,0x3e,0xb7,0x34,0xcd,0xbd,0xc0,0xc5,0x5f,0xbc,0xa2,0x7e,0x3b,0xbd,0x3d,0x4e,0xa0,0xbd,0x54,0xf4,0xf6,0x3d,0xd8,0x94,0x08,0x3e,0x18,0x02,0x90,0xbd,0x16,0x54,0x2a,0x3e,0x88,0x4a,0x0d,0x3e,0x86,0x70,0x20,0x3e,0x4d,0x05,0xfb,0xbd,0x80,0x48,0x0f,0xbd,0x5e,0x9a,0x2a,0x3e,0x3c,0x08,0xa2,0xbd,0xcb,0x35,0x20,0xbe,0xb1,0x7f,0xd9,0xbd,0xe0,0xfd,0xf0,0x3b,0x47,0xa0,0xc8,0xbd,0xf4,0x59,0x68,0x3d,0xe0,0xa8,0x9c,0x3b,0xb5,0x06,0xc9,0xbd,0x58,0x90,0x96,0xbc,0x9c,0x62,0xfb,0x3d,0xef,0xd3,0x10,0xbe,0xc3,0x1c,0xe9,0xbd,0x89,0x02,0xd4,0xbd,0xaf,0x93,0xfd,0xbd,0x3a,0x8c,0x21,0x3e,0x0a,0x75,0x96,0xbd,0x36,0x08,0x25,0x3e,0xa2,0xe9,0x59,0xbd,0xf8,0xaf,0xff,0x3d,0x7c,0x45,0xc6,0x3d,0xf4,0x81,0x20,0x3e,0xbd,0x15,0x2c,0xbe,0x0f,0x78,0x12,0xbe,0xf4,0x10,0x60,0xbd,0x16,0xf0,0xa0,0x3d,0x78,0xbd,0x6a,0xbd,0x00,0xc5,0x5e,0xbb,0x4b,0x86,0x1c,0xbe,0x44,0x09,0xfc,0x3d,0x71,0x25,0xb5,0xbd,0x1c,0x0b,0x0a,0xbd,0xc4,0x5d,0x0d,0x3e,0x84,0xab,0xac,0x3d,0x15,0xe2,0xcb,0xbd,0x10,0x2b,0x1f,0xbc,0x98,0x52,0x26,0xbe,0x94,0x53,0xd0,0x3d,0xbf,0x57,0x11,0xbe,0x8b,0x1f,0xdd,0xbd,0xc0,0x3a,0x0c,0x3e,0x9c,0x3b,0x0b,0xbe,0x74,0x8a,0xaa,0x3d,0xea,0x69,0x12,0xbe,0x20,0x42,0xc6,0xbc,0xac,0x5a,0x4a,0xbd,0x5b,0xb5,0xa5,0xbd,0x4e,0x56,0x7c,0xbd,0xa8,0xf1,0x1d,0x3d,0x06,0xaa,0xcd,0xbd,0x28,0xee,0x9e,0x3c,0xee,0xb4,0x2a,0x3e,0x30,0xe7,0xdb,0x3d,0xc2,0xc1,0x9d,0x3d,0x0f,0xcb,0xba,0xbd,0x42,0x13,0xb3,0xbd,0x74,0x4a,0x74,0xbd,0x20,0x8f,0x05,0xbe,0xdc,0xf8,0xe2,0x3d,0x2e,0x29,0x0d,0x3e,0xac,0xf6,0xd2,0x3d,0x4d,0x43,0x16,0xbe,0x50,0x08,0xc9,0xbc,0x3c,0x9a,0xbe,0x3d,0x74,0x9f,0xc2,0x3d,0xb0,0xa3,0xae,0x3d,0x74,0x98,0xe1,0x3d,0x24,0x54,0xa7,0x3d,0x00,0xee,0x71,0xbd,0xf5,0x51,0xa7,0xbd,0x8d,0x16,0x02,0xbe,0xf8,0x7b,0x2c,0x3e,0x8e,0xd8,0xc4,0xbd,0x00,0x27,0xe2,0x3c,0x20,0x45,0x0c,0x3e,0xd1,0x95,0xaa,0xbd,0x9e,0xe2,0xa2,0x3d,0x20,0x5f,0xee,0xbb,0x22,0x48,0x02,0x3e,0xa8,0x13,0xb9,0x3d,0xc2,0xf7,0x90,0xbd,0x92,0xda,0xa2,0x3d,0x98,0xfa,0xee,0x3c,0x80,0xa5,0xf5,0x3d,0x92,0xdf,0x1a,0x3e,0x80,0x1e,0x9e,0x3b,0x98,0x28,0x96,0x3d,0x9a,0x76,0x8e,0x3d,0xa8,0xb1,0xcf,0xbc,0x24,0xe5,0xa8,0x3d,0x98,0x48,0xd6,0xbd,0x62,0xf0,0x20,0xbe,0x66,0x0a,0x72,0xbd,0x30,0xe5,0xe4,0x3d,0x5b,0x0f,0x03,0xbe,0xb0,0x01,0x9f,0x3d,0xa0,0x87,0xfd,0x3d,0x80,0x8d,0x15,0x3b,0x08,0xf3,0xe2,0xbc,0xa0,0x9c,0x8a,0xbd,0xf4,0x3f,0x8b,0x3d,0x70,0x94,0x2e,0xbd,0x2b,0xe3,0xe7,0xbd,0x7c,0x9d,0x8c,0xbd,0xc4,0x39,0xdc,0x3d,0xfe,0x22,0x17,0xbe,0x90,0x91,0xab,0x3d,0xe0,0xc0,0x9c,0xbd,0xec,0xe4,0x34,0x3d,0x44,0x0e,0x68,0x3d,0x28,0x68,0xac,0x3c,0x40,0x2d,0x1d,0xbd,0xc9,0x43,0x16,0xbe,0xc0,0x4e,0x80,0x3c,0xb2,0xbd,0xd4,0xbd,0x74,0x09,0x8d,0x3d,0x44,0x3e,0x03,0xbd,0x8b,0x7d,0x19,0xbe,0x00,0x6c,0x9e,0x39,0x86,0x92,0x3f,0xbd,0x28,0xb6,0xaa,0x3c,0xce,0xfc,0x10,0x3e,0xb0,0x17,0xf1,0xbd,0x3b,0x3d,0xb6,0xbd,0x3c,0xd5,0x26,0xbe,0x18,0x82,0xb1,0x3c,0xcb,0x12,0xd1,0xbd,0x8c,0xdb,0x01,0xbd,0x20,0x37,0xe6,0xbc,0xc0,0xc6,0xba,0x3d,0xe2,0x73,0x0b,0x3e,0xda,0xfa,0x28,0x3e,0x34,0x96,0x4f,0x3d,0x78,0x35,0x0c,0x3e,0x42,0xe1,0x3d,0xbd,0xa9,0xac,0x1d,0xbe,0x08,0x93,0x6b,0x3d,0xcf,0x84,0xb1,0xbd,0xd7,0x4b,0x9c,0xbd,0x50,0x5b,0x8c,0x3d,0xee,0x4b,0xc8,0xbd,0x24,0xde,0x0a,0x3d,0x04,0xde,0xa2,0x3d,0x5f,0x02,0xb5,0xbd,0x02,0x9a,0x02,0x3e,0x12,0x9b,0xa5,0x3d,0x58,0xc9,0xc4,0x3d,0x04,0xb9,0xf7,0xbd,0x84,0x5f,0x2f,0x3d,0xe8,0x29,0x0b,0xbd,0x7c,0xb5,0x25,0x3e,0xec,0xca,0x75,0x3d,0x7a,0x12,0x2a,0x3e,0x8c,0x21,0x29,0xbd,0x14,0x10,0x9f,0xbd,0xa0,0xf4,0x92,0x3d,0x88,0x7f,0x75,0xbd,0x98,0x98,0x08,0x3d,0x6a,0x10,0x28,0x3e,0xe2,0x95,0x08,0x3e,0xf4,0x8a,0x22,0x3e,0x89,0x6a,0x9e,0xbd,0x20,0x73,0x12,0xbd,0x28,0xc3,0x15,0xbd,0xf6,0xf7,0x0a,0x3e,0x58,0x55,0x10,0x3d,0x0d,0x80,0x2b,0xbe,0xdf,0xf8,0xb0,0xbd,0x38,0xd0,0xcf,0x3d,0xa0,0xac,0x60,0xbc,0x82,0x41,0xc2,0xbd,0x90,0xd0,0xf8,0xbc,0xa8,0x2e,0x72,0xbd,0xc2,0x04,0x00,0xbe,0x6c,0xba,0xce,0x3d,0xb0,0x66,0x10,0x3c,0xb2,0x0a,0xf1,0xbd,0x18,0xf0,0x14,0x3e,0x5a,0x35,0x1a,0x3e,0xd0,0x6a,0x3a,0xbc,0x30,0xa1,0x10,0xbc,0xf0,0xa2,0x76,0xbc,0x56,0xae,0x1a,0x3e,0xe0,0x2f,0xc7,0x3c,0x38,0x5a,0x63,0x3d,0xe8,0x4d,0x80,0x3d,0xd8,0x9c,0xda,0xbd,0xa0,0x6b,0xf4,0x3d,0x50,0x1e,0xbf,0x3c,0x9f,0x07,0xa1,0xbd,0xd8,0x7e,0xda,0xbd,0xaa,0xb6,0x9e,0xbd,0x42,0xb6,0x2a,0x3e,0x02,0x9c,0x18,0x3e,0x88,0x88,0xaf,0x3d,0x28,0xf7,0x25,0x3e,0x3a,0x45,0x1b,0x3e,0x86,0xbb,0x5b,0xbd,0x64,0x63,0x24,0x3d,0xcc,0xc8,0xc9,0xbd,0xb0,0x7e,0xd6,0x3d,0x8c,0x4f,0x4e,0x3d,0x30,0xb7,0x27,0xbc,0x40,0xa9,0x61,0xbb,0x0b,0x50,0x2c,0xbe,0x33,0x24,0xa5,0xbd,0xfc,0xa0,0x96,0x3d,0x61,0x66,0xef,0xbd,0x71,0xbc,0x9a,0xbd,0x74,0x0f,0x2e,0xbd,0xf0,0x7c,0xe9,0xbc,0x48,0x3a,0xa7,0x3c,0x34,0x19,0xce,0x3d,0x18,0xdf,0x0c,0x3e,0x19,0x9e,0x94,0xbd,0x14,0x7f,0x05,0xbd,0xae,0xcf,0x19,0x3e,0x61,0x5d,0x09,0xbe,0x98,0xf8,0xe4,0x3d,0x41,0xa6,0xc9,0xbd,0xd0,0xe3,0x0f,0xbe,0x0e,0xbf,0xf7,0xbd,0x76,0x0a,0x9f,0xbd,0x70,0x4c,0xc7,0x3d,0x7a,0x24,0x0e,0x3e,0x94,0x27,0x20,0xbd,0x9e,0x89,0x07,0x3e,0xa6,0x6b,0xc6,0xbd,0x84,0x97,0x91,0x3d,0x08,0xd9,0xf6,0xbc,0x98,0x97,0x8c,0x3d,0x63,0x23,0x0e,0xbe,0x98,0x71,0x64,0x3d,0x38,0x3d,0x15,0x3e,0x1a,0xe8,0x9e,0x3d,0x7c,0xf4,0x1e,0xbd,0xac,0xba,0xf4,0xbd,0xc8,0x78,0xd9,0xbd,0xad,0x7d,0x04,0xbe,0x38,0xa5,0x84,0xbd,0x7c,0x82,0xed,0xbd,0x12,0x8c,0xf0,0xbd,0xc0,0x2a,0x95,0xbd,0xcc,0x7e,0x4b,0x3d,0x66,0x5b,0x92,0x3d,0xc7,0x6b,0x0d,0xbe,0xda,0x51,0x47,0xbd,0x30,0x0e,0xbd,0xbc,0x73,0xa1,0xe2,0xbd,0xae,0x21,0xfa,0xbd,0x9a,0x5b,0x02,0xbe,0x30,0xa5,0x79,0x3c,0x9c,0x1b,0xf4,0x3d,0xaa,0x10,0x0e,0x3e,0xb5,0x97,0x13,0xbe,0x22,0xfe,0xff,0xff,0x04,0x00,0x00,0x00,0x0c,0x00,0x00,0x00,0xff,0xff,0xff,0xff,0x2e,0x00,0x00,0x00,0x40,0x00,0x00,0x00,0xf8,0xf1,0xff,0xff,0xfc,0xf1,0xff,0xff,0x0f,0x00,0x00,0x00,0x4d,0x4c,0x49,0x52,0x20,0x43,0x6f,0x6e,0x76,0x65,0x72,0x74,0x65,0x64,0x2e,0x00,0x01,0x00,0x00,0x00,0x14,0x00,0x00,0x00,0x00,0x00,0x0e,0x00,0x18,0x00,0x14,0x00,0x10,0x00,0x0c,0x00,0x08,0x00,0x04,0x00,0x0e,0x00,0x00,0x00,0x14,0x00,0x00,0x00,0x1c,0x00,0x00,0x00,0x94,0x03,0x00,0x00,0x98,0x03,0x00,0x00,0x9c,0x03,0x00,0x00,0x04,0x00,0x00,0x00,0x6d,0x61,0x69,0x6e,0x00,0x00,0x00,0x00,0x0e,0x00,0x00,0x00,0x4c,0x03,0x00,0x00,0xe8,0x02,0x00,0x00,0xb0,0x02,0x00,0x00,0x70,0x02,0x00,0x00,0x2c,0x02,0x00,0x00,0xf0,0x01,0x00,0x00,0xb8,0x01,0x00,0x00,0x6c,0x01,0x00,0x00,0x30,0x01,0x00,0x00,0xec,0x00,0x00,0x00,0xb8,0x00,0x00,0x00,0x74,0x00,0x00,0x00,0x40,0x00,0x00,0x00,0x04,0x00,0x00,0x00,0x5a,0xfd,0xff,0xff,0x14,0x00,0x00,0x00,0x00,0x00,0x00,0x0a,0x14,0x00,0x00,0x00,0x18,0x00,0x00,0x00,0x07,0x00,0x00,0x00,0xe6,0xfe,0xff,0xff,0x01,0x00,0x00,0x00,0x01,0x00,0x00,0x00,0x1b,0x00,0x00,0x00,0x03,0x00,0x00,0x00,0x16,0x00,0x00,0x00,0x18,0x00,0x00,0x00,0x1a,0x00,0x00,0x00,0x92,0xfd,0xff,0xff,0x14,0x00,0x00,0x00,0x00,0x00,0x00,0x09,0x14,0x00,0x00,0x00,0x18,0x00,0x00,0x00,0x06,0x00,0x00,0x00,0x1e,0xff,0xff,0xff,0x00,0x00,0x80,0x3f,0x01,0x00,0x00,0x00,0x1a,0x00,0x00,0x00,0x01,0x00,0x00,0x00,0x19,0x00,0x00,0x00,0xc2,0xfd,0xff,0xff,0x14,0x00,0x00,0x00,0x00,0x00,0x00,0x20,0x18,0x00,0x00,0x00,0x1c,0x00,0x00,0x00,0x05,0x00,0x00,0x00,0x18,0xff,0xff,0xff,0x01,0x00,0x00,0x00,0x01,0x00,0x00,0x00,0x01,0x00,0x00,0x00,0x19,0x00,0x00,0x00,0x04,0x00,0x00,0x00,0x14,0x00,0x00,0x00,0x07,0x00,0x00,0x00,0x06,0x00,0x00,0x00,0x0b,0x00,0x00,0x00,0x02,0xfe,0xff,0xff,0x14,0x00,0x00,0x00,0x00,0x00,0x00,0x09,0x14,0x00,0x00,0x00,0x18,0x00,0x00,0x00,0x06,0x00,0x00,0x00,0x8e,0xff,0xff,0xff,0x00,0x00,0x80,0x3f,0x01,0x00,0x00,0x00,0x18,0x00,0x00,0x00,0x01,0x00,0x00,0x00,0x17,0x00,0x00,0x00,0x32,0xfe,0xff,0xff,0x14,0x00,0x00,0x00,0x00,0x00,0x00,0x20,0x18,0x00,0x00,0x00,0x1c,0x00,0x00,0x00,0x05,0x00,0x00,0x00,0x88,0xff,0xff,0xff,0x01,0x00,0x00,0x00,0x01,0x00,0x00,0x00,0x01,0x00,0x00,0x00,0x17,0x00,0x00,0x00,0x04,0x00,0x00,0x00,0x14,0x00,0x00,0x00,0x08,0x00,0x00,0x00,0x07,0x00,0x00,0x00,0x0b,0x00,0x00,0x00,0x72,0xfe,0xff,0xff,0x1c,0x00,0x00,0x00,0x00,0x00,0x00,0x09,0x1c,0x00,0x00,0x00,0x20,0x00,0x00,0x00,0x06,0x00,0x00,0x00,0x00,0x00,0x06,0x00,0x08,0x00,0x04,0x00,0x06,0x00,0x00,0x00,0x00,0x00,0x80,0x3f,0x01,0x00,0x00,0x00,0x16,0x00,0x00,0x00,0x01,0x00,0x00,0x00,0x15,0x00,0x00,0x00,0xaa,0xfe,0xff,0xff,0x1c,0x00,0x00,0x00,0x00,0x00,0x00,0x20,0x20,0x00,0x00,0x00,0x24,0x00,0x00,0x00,0x05,0x00,0x00,0x00,0x08,0x00,0x0c,0x00,0x08,0x00,0x04,0x00,0x08,0x00,0x00,0x00,0x01,0x00,0x00,0x00,0x01,0x00,0x00,0x00,0x01,0x00,0x00,0x00,0x15,0x00,0x00,0x00,0x04,0x00,0x00,0x00,0x14,0x00,0x00,0x00,0x09,0x00,0x00,0x00,0x08,0x00,0x00,0x00,0x0b,0x00,0x00,0x00,0xf2,0xfe,0xff,0xff,0x14,0x00,0x00,0x00,0x00,0x00,0x00,0x08,0x10,0x00,0x00,0x00,0x14,0x00,0x00,0x00,0x04,0x00,0x00,0x00,0x3c,0xf4,0xff,0xff,0x01,0x00,0x00,0x00,0x14,0x00,0x00,0x00,0x03,0x00,0x00,0x00,0x13,0x00,0x00,0x00,0x03,0x00,0x00,0x00,0xff,0xff,0xff,0xff,0x26,0xff,0xff,0xff,0x14,0x00,0x00,0x00,0x00,0x00,0x00,0x08,0x14,0x00,0x00,0x00,0x18,0x00,0x00,0x00,0x04,0x00,0x00,0x00,0xc6,0xff,0xff,0xff,0x00,0x00,0x00,0x01,0x01,0x00,0x00,0x00,0x13,0x00,0x00,0x00,0x03,0x00,0x00,0x00,0x12,0x00,0x00,0x00,0x04,0x00,0x00,0x00,0xff,0xff,0xff,0xff,0x5e,0xff,0xff,0xff,0x1c,0x00,0x00,0x00,0x00,0x00,0x00,0x08,0x1c,0x00,0x00,0x00,0x20,0x00,0x00,0x00,0x04,0x00,0x00,0x00,0x00,0x00,0x06,0x00,0x08,0x00,0x07,0x00,0x06,0x00,0x00,0x00,0x00,0x00,0x00,0x01,0x01,0x00,0x00,0x00,0x12,0x00,0x00,0x00,0x03,0x00,0x00,0x00,0x11,0x00,0x00,0x00,0x05,0x00,0x00,0x00,0xff,0xff,0xff,0xff,0x9e,0xff,0xff,0xff,0x14,0x00,0x00,0x00,0x00,0x00,0x00,0x1b,0x10,0x00,0x00,0x00,0x14,0x00,0x00,0x00,0x03,0x00,0x00,0x00,0xe8,0xf4,0xff,0xff,0x01,0x00,0x00,0x00,0x11,0x00,0x00,0x00,0x02,0x00,0x00,0x00,0x10,0x00,0x00,0x00,0x0c,0x00,0x00,0x00,0x00,0x00,0x0a,0x00,0x10,0x00,0x0c,0x00,0x08,0x00,0x04,0x00,0x0a,0x00,0x00,0x00,0x0c,0x00,0x00,0x00,0x10,0x00,0x00,0x00,0x02,0x00,0x00,0x00,0x01,0x00,0x00,0x00,0x10,0x00,0x00,0x00,0x02,0x00,0x00,0x00,0x0f,0x00,0x00,0x00,0x01,0x00,0x00,0x00,0x00,0x00,0x0e,0x00,0x18,0x00,0x14,0x00,0x10,0x00,0x0c,0x00,0x0b,0x00,0x04,0x00,0x0e,0x00,0x00,0x00,0x20,0x00,0x00,0x00,0x00,0x00,0x00,0x01,0x2c,0x00,0x00,0x00,0x30,0x00,0x00,0x00,0x01,0x00,0x00,0x00,0x0c,0x00,0x14,0x00,0x13,0x00,0x0c,0x00,0x08,0x00,0x07,0x00,0x0c,0x00,0x00,0x00,0x00,0x00,0x00,0x01,0x01,0x00,0x00,0x00,0x01,0x00,0x00,0x00,0x00,0x00,0x00,0x01,0x01,0x00,0x00,0x00,0x0f,0x00,0x00,0x00,0x03,0x00,0x00,0x00,0x0e,0x00,0x00,0x00,0x02,0x00,0x00,0x00,0x0a,0x00,0x00,0x00,0x00,0x00,0x0e,0x00,0x14,0x00,0x00,0x00,0x10,0x00,0x0c,0x00,0x0b,0x00,0x04,0x00,0x0e,0x00,0x00,0x00,0x10,0x00,0x00,0x00,0x00,0x00,0x00,0x34,0x0c,0x00,0x00,0x00,0x10,0x00,0x00,0x00,0xb4,0xf5,0xff,0xff,0x01,0x00,0x00,0x00,0x0e,0x00,0x00,0x00,0x02,0x00,0x00,0x00,0x00,0x00,0x00,0x00,0x0d,0x00,0x00,0x00,0x01,0x00,0x00,0x00,0x1b,0x00,0x00,0x00,0x01,0x00,0x00,0x00,0x00,0x00,0x00,0x00,0x1c,0x00,0x00,0x00,0xf4,0x09,0x00,0x00,0x9c,0x09,0x00,0x00,0x3c,0x09,0x00,0x00,0xe4,0x08,0x00,0x00,0xa4,0x08,0x00,0x00,0x64,0x08,0x00,0x00,0x24,0x08,0x00,0x00,0xe4,0x07,0x00,0x00,0xa4,0x07,0x00,0x00,0x64,0x07,0x00,0x00,0x28,0x07,0x00,0x00,0xe4,0x06,0x00,0x00,0xa4,0x06,0x00,0x00,0x44,0x06,0x00,0x00,0xc4,0x05,0x00,0x00,0x0c,0x05,0x00,0x00,0x7c,0x04,0x00,0x00,0x0c,0x04,0x00,0x00,0x94,0x03,0x00,0x00,0x18,0x03,0x00,0x00,0xb8,0x02,0x00,0x00,0x50,0x02,0x00,0x00,0xf0,0x01,0x00,0x00,0x88,0x01,0x00,0x00,0x28,0x01,0x00,0x00,0xc0,0x00,0x00,0x00,0x60,0x00,0x00,0x00,0x04,0x00,0x00,0x00,0x92,0xf6,0xff,0xff,0x00,0x00,0x00,0x01,0x14,0x00,0x00,0x00,0x1c,0x00,0x00,0x00,0x1c,0x00,0x00,0x00,0x1c,0x00,0x00,0x00,0x34,0x00,0x00,0x00,0x02,0x00,0x00,0x00,0xff,0xff,0xff,0xff,0x09,0x00,0x00,0x00,0x78,0xf6,0xff,0xff,0x1b,0x00,0x00,0x00,0x53,0x74,0x61,0x74,0x65,0x66,0x75,0x6c,0x50,0x61,0x72,0x74,0x69,0x74,0x69,0x6f,0x6e,0x65,0x64,0x43,0x61,0x6c,0x6c,0x5f,0x31,0x3a,0x30,0x00,0x02,0x00,0x00,0x00,0x01,0x00,0x00,0x00,0x09,0x00,0x00,0x00,0xea,0xf6,0xff,0xff,0x00,0x00,0x00,0x01,0x14,0x00,0x00,0x00,0x1c,0x00,0x00,0x00,0x1c,0x00,0x00,0x00,0x1b,0x00,0x00,0x00,0x38,0x00,0x00,0x00,0x02,0x00,0x00,0x00,0xff,0xff,0xff,0xff,0x03,0x00,0x00,0x00,0xd0,0xf6,0xff,0xff,0x1f,0x00,0x00,0x00,0x73,0x65,0x71,0x75,0x65,0x6e,0x74,0x69,0x61,0x6c,0x5f,0x31,0x2f,0x6c,0x61,0x6d,0x62,0x64,0x61,0x5f,0x31,0x2f,0x53,0x6f,0x66,0x74,0x6d,0x61,0x78,0x5f,0x32,0x00,0x02,0x00,0x00,0x00,0x01,0x00,0x00,0x00,0x03,0x00,0x00,0x00,0x46,0xf7,0xff,0xff,0x00,0x00,0x00,0x01,0x14,0x00,0x00,0x00,0x1c,0x00,0x00,0x00,0x1c,0x00,0x00,0x00,0x1a,0x00,0x00,0x00,0x40,0x00,0x00,0x00,0x02,0x00,0x00,0x00,0xff,0xff,0xff,0xff,0x03,0x00,0x00,0x00,0x2c,0xf7,0xff,0xff,0x25,0x00,0x00,0x00,0x73,0x65,0x71,0x75,0x65,0x6e,0x74,0x69,0x61,0x6c,0x5f,0x31,0x2f,0x6c,0x61,0x6d,0x62,0x64,0x61,0x5f,0x31,0x2f,0x73,0x74,0x72,0x69,0x64,0x65,0x64,0x5f,0x73,0x6c,0x69,0x63,0x65,0x5f,0x38,0x00,0x00,0x00,0x02,0x00,0x00,0x00,0x01,0x00,0x00,0x00,0x03,0x00,0x00,0x00,0xaa,0xf7,0xff,0xff,0x00,0x00,0x00,0x01,0x14,0x00,0x00,0x00,0x1c,0x00,0x00,0x00,0x1c,0x00,0x00,0x00,0x19,0x00,0x00,0x00,0x38,0x00,0x00,0x00,0x02,0x00,0x00,0x00,0xff,0xff,0xff,0xff,0x02,0x00,0x00,0x00,0x90,0xf7,0xff,0xff,0x1f,0x00,0x00,0x00,0x73,0x65,0x71,0x75,0x65,0x6e,0x74,0x69,0x61,0x6c,0x5f,0x31,0x2f,0x6c,0x61,0x6d,0x62,0x64,0x61,0x5f,0x31,0x2f,0x53,0x6f,0x66,0x74,0x6d,0x61,0x78,0x5f,0x31,0x00,0x02,0x00,0x00,0x00,0x01,0x00,0x00,0x00,0x02,0x00,0x00,0x00,0x06,0xf8,0xff,0xff,0x00,0x00,0x00,0x01,0x14,0x00,0x00,0x00,0x1c,0x00,0x00,0x00,0x1c,0x00,0x00,0x00,0x18,0x00,0x00,0x00,0x40,0x00,0x00,0x00,0x02,0x00,0x00,0x00,0xff,0xff,0xff,0xff,0x02,0x00,0x00,0x00,0xec,0xf7,0xff,0xff,0x25,0x00,0x00,0x00,0x73,0x65,0x71,0x75,0x65,0x6e,0x74,0x69,0x61,0x6c,0x5f,0x31,0x2f,0x6c,0x61,0x6d,0x62,0x64,0x61,0x5f,0x31,0x2f,0x73,0x74,0x72,0x69,0x64,0x65,0x64,0x5f,0x73,0x6c,0x69,0x63,0x65,0x5f,0x35,0x00,0x00,0x00,0x02,0x00,0x00,0x00,0x01,0x00,0x00,0x00,0x02,0x00,0x00,0x00,0x6a,0xf8,0xff,0xff,0x00,0x00,0x00,0x01,0x14,0x00,0x00,0x00,0x1c,0x00,0x00,0x00,0x1c,0x00,0x00,0x00,0x17,0x00,0x00,0x00,0x38,0x00,0x00,0x00,0x02,0x00,0x00,0x00,0xff,0xff,0xff,0xff,0x04,0x00,0x00,0x00,0x50,0xf8,0xff,0xff,0x1d,0x00,0x00,0x00,0x73,0x65,0x71,0x75,0x65,0x6e,0x74,0x69,0x61,0x6c,0x5f,0x31,0x2f,0x6c,0x61,0x6d,0x62,0x64,0x61,0x5f,0x31,0x2f,0x53,0x6f,0x66,0x74,0x6d,0x61,0x78,0x00,0x00,0x00,0x02,0x00,0x00,0x00,0x01,0x00,0x00,0x00,0x04,0x00,0x00,0x00,0xc6,0xf8,0xff,0xff,0x00,0x00,0x00,0x01,0x14,0x00,0x00,0x00,0x1c,0x00,0x00,0x00,0x1c,0x00,0x00,0x00,0x16,0x00,0x00,0x00,0x40,0x00,0x00,0x00,0x02,0x00,0x00,0x00,0xff,0xff,0xff,0xff,0x04,0x00,0x00,0x00,0xac,0xf8,0xff,0xff,0x25,0x00,0x00,0x00,0x73,0x65,0x71,0x75,0x65,0x6e,0x74,0x69,0x61,0x6c,0x5f,0x31,0x2f,0x6c,0x61,0x6d,0x62,0x64,0x61,0x5f,0x31,0x2f,0x73,0x74,0x72,0x69,0x64,0x65,0x64,0x5f,0x73,0x6c,0x69,0x63,0x65,0x5f,0x32,0x00,0x00,0x00,0x02,0x00,0x00,0x00,0x01,0x00,0x00,0x00,0x04,0x00,0x00,0x00,0x2a,0xf9,0xff,0xff,0x00,0x00,0x00,0x01,0x14,0x00,0x00,0x00,0x1c,0x00,0x00,0x00,0x1c,0x00,0x00,0x00,0x15,0x00,0x00,0x00,0x38,0x00,0x00,0x00,0x02,0x00,0x00,0x00,0xff,0xff,0xff,0xff,0x09,0x00,0x00,0x00,0x10,0xf9,0xff,0xff,0x1d,0x00,0x00,0x00,0x73,0x65,0x71,0x75,0x65,0x6e,0x74,0x69,0x61,0x6c,0x5f,0x31,0x2f,0x64,0x65,0x6e,0x73,0x65,0x5f,0x32,0x5f,0x31,0x2f,0x4d,0x61,0x74,0x4d,0x75,0x6c,0x00,0x00,0x00,0x02,0x00,0x00,0x00,0x01,0x00,0x00,0x00,0x09,0x00,0x00,0x00,0x86,0xf9,0xff,0xff,0x00,0x00,0x00,0x01,0x14,0x00,0x00,0x00,0x1c,0x00,0x00,0x00,0x1c,0x00,0x00,0x00,0x14,0x00,0x00,0x00,0x54,0x00,0x00,0x00,0x02,0x00,0x00,0x00,0xff,0xff,0xff,0xff,0x10,0x00,0x00,0x00,0x6c,0xf9,0xff,0xff,0x39,0x00,0x00,0x00,0x73,0x65,0x71,0x75,0x65,0x6e,0x74,0x69,0x61,0x6c,0x5f,0x31,0x2f,0x64,0x65,0x6e,0x73,0x65,0x5f,0x31,0x5f,0x32,0x2f,0x4d,0x61,0x74,0x4d,0x75,0x6c,0x3b,0x73,0x65,0x71,0x75,0x65,0x6e,0x74,0x69,0x61,0x6c,0x5f,0x31,0x2f,0x64,0x65,0x6e,0x73,0x65,0x5f,0x31,0x5f,0x32,0x2f,0x52,0x65,0x6c,0x75,0x00,0x00,0x00,0x02,0x00,0x00,0x00,0x01,0x00,0x00,0x00,0x10,0x00,0x00,0x00,0xfe,0xf9,0xff,0xff,0x00,0x00,0x00,0x01,0x14,0x00,0x00,0x00,0x1c,0x00,0x00,0x00,0x1c,0x00,0x00,0x00,0x13,0x00,0x00,0x00,0x50,0x00,0x00,0x00,0x02,0x00,0x00,0x00,0xff,0xff,0xff,0xff,0x20,0x00,0x00,0x00,0xe4,0xf9,0xff,0xff,0x35,0x00,0x00,0x00,0x73,0x65,0x71,0x75,0x65,0x6e,0x74,0x69,0x61,0x6c,0x5f,0x31,0x2f,0x64,0x65,0x6e,0x73,0x65,0x5f,0x31,0x2f,0x4d,0x61,0x74,0x4d,0x75,0x6c,0x3b,0x73,0x65,0x71,0x75,0x65,0x6e,0x74,0x69,0x61,0x6c,0x5f,0x31,0x2f,0x64,0x65,0x6e,0x73,0x65,0x5f,0x31,0x2f,0x52,0x65,0x6c,0x75,0x00,0x00,0x00,0x02,0x00,0x00,0x00,0x01,0x00,0x00,0x00,0x20,0x00,0x00,0x00,0x72,0xfa,0xff,0xff,0x00,0x00,0x00,0x01,0x14,0x00,0x00,0x00,0x1c,0x00,0x00,0x00,0x1c,0x00,0x00,0x00,0x12,0x00,0x00,0x00,0x48,0x00,0x00,0x00,0x02,0x00,0x00,0x00,0xff,0xff,0xff,0xff,0x40,0x00,0x00,0x00,0x58,0xfa,0xff,0xff,0x2c,0x00,0x00,0x00,0x73,0x65,0x71,0x75,0x65,0x6e,0x74,0x69,0x61,0x6c,0x5f,0x31,0x2f,0x67,0x6c,0x6f,0x62,0x61,0x6c,0x5f,0x61,0x76,0x65,0x72,0x61,0x67,0x65,0x5f,0x70,0x6f,0x6f,0x6c,0x69,0x6e,0x67,0x31,0x64,0x5f,0x31,0x2f,0x4d,0x65,0x61,0x6e,0x00,0x00,0x00,0x00,0x02,0x00,0x00,0x00,0x01,0x00,0x00,0x00,0x40,0x00,0x00,0x00,0xde,0xfa,0xff,0xff,0x00,0x00,0x00,0x01,0x14,0x00,0x00,0x00,0x20,0x00,0x00,0x00,0x20,0x00,0x00,0x00,0x11,0x00,0x00,0x00,0x64,0x00,0x00,0x00,0x03,0x00,0x00,0x00,0xff,0xff,0xff,0xff,0x2e,0x00,0x00,0x00,0x40,0x00,0x00,0x00,0xc8,0xfa,0xff,0xff,0x44,0x00,0x00,0x00,0x73,0x65,0x71,0x75,0x65,0x6e,0x74,0x69,0x61,0x6c,0x5f,0x31,0x2f,0x63,0x6f,0x6e,0x76,0x31,0x64,0x5f,0x31,0x2f,0x52,0x65,0x6c,0x75,0x3b,0x73,0x65,0x71,0x75,0x65,0x6e,0x74,0x69,0x61,0x6c,0x5f,0x31,0x2f,0x63,0x6f,0x6e,0x76,0x31,0x64,0x5f,0x31,0x2f,0x63,0x6f,0x6e,0x76,0x6f,0x6c,0x75,0x74,0x69,0x6f,0x6e,0x2f,0x53,0x71,0x75,0x65,0x65,0x7a,0x65,0x00,0x00,0x00,0x00,0x03,0x00,0x00,0x00,0x01,0x00,0x00,0x00,0x2e,0x00,0x00,0x00,0x40,0x00,0x00,0x00,0x6a,0xfb,0xff,0xff,0x00,0x00,0x00,0x01,0x14,0x00,0x00,0x00,0x24,0x00,0x00,0x00,0x24,0x00,0x00,0x00,0x10,0x00,0x00,0x00,0x88,0x00,0x00,0x00,0x04,0x00,0x00,0x00,0xff,0xff,0xff,0xff,0x01,0x00,0x00,0x00,0x2e,0x00,0x00,0x00,0x40,0x00,0x00,0x00,0x58,0xfb,0xff,0xff,0x66,0x00,0x00,0x00,0x73,0x65,0x71,0x75,0x65,0x6e,0x74,0x69,0x61,0x6c,0x5f,0x31,0x2f,0x63,0x6f,0x6e,0x76,0x31,0x64,0x5f,0x31,0x2f,0x52,0x65,0x6c,0x75,0x3b,0x73,0x65,0x71,0x75,0x65,0x6e,0x74,0x69,0x61,0x6c,0x5f,0x31,0x2f,0x63,0x6f,0x6e,0x76,0x31,0x64,0x5f,0x31,0x2f,0x63,0x6f,0x6e,0x76,0x6f,0x6c,0x75,0x74,0x69,0x6f,0x6e,0x2f,0x53,0x71,0x75,0x65,0x65,0x7a,0x65,0x3b,0x73,0x65,0x71,0x75,0x65,0x6e,0x74,0x69,0x61,0x6c,0x5f,0x31,0x2f,0x63,0x6f,0x6e,0x76,0x31,0x64,0x5f,0x31,0x2f,0x63,0x6f,0x6e,0x76,0x6f,0x6c,0x75,0x74,0x69,0x6f,0x6e,0x00,0x00,0x04,0x00,0x00,0x00,0x01,0x00,0x00,0x00,0x01,0x00,0x00,0x00,0x2e,0x00,0x00,0x00,0x40,0x00,0x00,0x00,0x1e,0xfc,0xff,0xff,0x00,0x00,0x00,0x01,0x14,0x00,0x00,0x00,0x24,0x00,0x00,0x00,0x24,0x00,0x00,0x00,0x0f,0x00,0x00,0x00,0x50,0x00,0x00,0x00,0x04,0x00,0x00,0x00,0xff,0xff,0xff,0xff,0x01,0x00,0x00,0x00,0x30,0x00,0x00,0x00,0x06,0x00,0x00,0x00,0x0c,0xfc,0xff,0xff,0x2c,0x00,0x00,0x00,0x73,0x65,0x71,0x75,0x65,0x6e,0x74,0x69,0x61,0x6c,0x5f,0x31,0x2f,0x63,0x6f,0x6e,0x76,0x31,0x64,0x5f,0x31,0x2f,0x63,0x6f,0x6e,0x76,0x6f,0x6c,0x75,0x74,0x69,0x6f,0x6e,0x2f,0x45,0x78,0x70,0x61,0x6e,0x64,0x44,0x69,0x6d,0x73,0x00,0x00,0x00,0x00,0x04,0x00,0x00,0x00,0x01,0x00,0x00,0x00,0x01,0x00,0x00,0x00,0x30,0x00,0x00,0x00,0x06,0x00,0x00,0x00,0xee,0xfc,0xff,0xff,0x00,0x00,0x00,0x01,0x14,0x00,0x00,0x00,0x14,0x00,0x00,0x00,0x0e,0x00,0x00,0x00,0x00,0x00,0x00,0x02,0x40,0x00,0x00,0x00,0x74,0xfc,0xff,0xff,0x30,0x00,0x00,0x00,0x73,0x65,0x71,0x75,0x65,0x6e,0x74,0x69,0x61,0x6c,0x5f,0x31,0x2f,0x63,0x6f,0x6e,0x76,0x31,0x64,0x5f,0x31,0x2f,0x63,0x6f,0x6e,0x76,0x6f,0x6c,0x75,0x74,0x69,0x6f,0x6e,0x2f,0x45,0x78,0x70,0x61,0x6e,0x64,0x44,0x69,0x6d,0x73,0x2f,0x64,0x69,0x6d,0x00,0x00,0x00,0x00,0x00,0x00,0x00,0x00,0x4a,0xfd,0xff,0xff,0x00,0x00,0x00,0x01,0x14,0x00,0x00,0x00,0x14,0x00,0x00,0x00,0x0d,0x00,0x00,0x00,0x00,0x00,0x00,0x02,0x20,0x00,0x00,0x00,0xd0,0xfc,0xff,0xff,0x10,0x00,0x00,0x00,0x61,0x72,0x69,0x74,0x68,0x2e,0x63,0x6f,0x6e,0x73,0x74,0x61,0x6e,0x74,0x31,0x31,0x00,0x00,0x00,0x00,0x00,0x00,0x00,0x00,0x86,0xfd,0xff,0xff,0x00,0x00,0x00,0x01,0x14,0x00,0x00,0x00,0x14,0x00,0x00,0x00,0x0c,0x00,0x00,0x00,0x00,0x00,0x00,0x02,0x20,0x00,0x00,0x00,0x0c,0xfd,0xff,0xff,0x10,0x00,0x00,0x00,0x61,0x72,0x69,0x74,0x68,0x2e,0x63,0x6f,0x6e,0x73,0x74,0x61,0x6e,0x74,0x31,0x30,0x00,0x00,0x00,0x00,0x01,0x00,0x00,0x00,0x02,0x00,0x00,0x00,0x22,0xfe,0xff,0xff,0x00,0x00,0x00,0x01,0x10,0x00,0x00,0x00,0x10,0x00,0x00,0x00,0x0b,0x00,0x00,0x00,0x1c,0x00,0x00,0x00,0x48,0xfd,0xff,0xff,0x0f,0x00,0x00,0x00,0x61,0x72,0x69,0x74,0x68,0x2e,0x63,0x6f,0x6e,0x73,0x74,0x61,0x6e,0x74,0x39,0x00,0x01,0x00,0x00,0x00,0x40,0x00,0x00,0x00,0xfe,0xfd,0xff,0xff,0x00,0x00,0x00,0x01,0x14,0x00,0x00,0x00,0x14,0x00,0x00,0x00,0x0a,0x00,0x00,0x00,0x00,0x00,0x00,0x02,0x1c,0x00,0x00,0x00,0x84,0xfd,0xff,0xff,0x0f,0x00,0x00,0x00,0x61,0x72,0x69,0x74,0x68,0x2e,0x63,0x6f,0x6e,0x73,0x74,0x61,0x6e,0x74,0x38,0x00,0x01,0x00,0x00,0x00,0x02,0x00,0x00,0x00,0x3a,0xfe,0xff,0xff,0x00,0x00,0x00,0x01,0x14,0x00,0x00,0x00,0x14,0x00,0x00,0x00,0x09,0x00,0x00,0x00,0x00,0x00,0x00,0x02,0x1c,0x00,0x00,0x00,0xc0,0xfd,0xff,0xff,0x0f,0x00,0x00,0x00,0x61,0x72,0x69,0x74,0x68,0x2e,0x63,0x6f,0x6e,0x73,0x74,0x61,0x6e,0x74,0x37,0x00,0x01,0x00,0x00,0x00,0x02,0x00,0x00,0x00,0x76,0xfe,0xff,0xff,0x00,0x00,0x00,0x01,0x14,0x00,0x00,0x00,0x14,0x00,0x00,0x00,0x08,0x00,0x00,0x00,0x00,0x00,0x00,0x02,0x1c,0x00,0x00,0x00,0xfc,0xfd,0xff,0xff,0x0f,0x00,0x00,0x00,0x61,0x72,0x69,0x74,0x68,0x2e,0x63,0x6f,0x6e,0x73,0x74,0x61,0x6e,0x74,0x36,0x00,0x01,0x00,0x00,0x00,0x02,0x00,0x00,0x00,0xb2,0xfe,0xff,0xff,0x00,0x00,0x00,0x01,0x14,0x00,0x00,0x00,0x14,0x00,0x00,0x00,0x07,0x00,0x00,0x00,0x00,0x00,0x00,0x02,0x1c,0x00,0x00,0x00,0x38,0xfe,0xff,0xff,0x0f,0x00,0x00,0x00,0x61,0x72,0x69,0x74,0x68,0x2e,0x63,0x6f,0x6e,0x73,0x74,0x61,0x6e,0x74,0x35,0x00,0x01,0x00,0x00,0x00,0x02,0x00,0x00,0x00,0x4a,0xff,0xff,0xff,0x00,0x00,0x00,0x01,0x10,0x00,0x00,0x00,0x10,0x00,0x00,0x00,0x06,0x00,0x00,0x00,0x1c,0x00,0x00,0x00,0x70,0xfe,0xff,0xff,0x0f,0x00,0x00,0x00,0x61,0x72,0x69,0x74,0x68,0x2e,0x63,0x6f,0x6e,0x73,0x74,0x61,0x6e,0x74,0x34,0x00,0x02,0x00,0x00,0x00,0x20,0x00,0x00,0x00,0x40,0x00,0x00,0x00,0x86,0xff,0xff,0xff,0x00,0x00,0x00,0x01,0x10,0x00,0x00,0x00,0x10,0x00,0x00,0x00,0x05,0x00,0x00,0x00,0x1c,0x00,0x00,0x00,0xac,0xfe,0xff,0xff,0x0f,0x00,0x00,0x00,0x61,0x72,0x69,0x74,0x68,0x2e,0x63,0x6f,0x6e,0x73,0x74,0x61,0x6e,0x74,0x33,0x00,0x02,0x00,0x00,0x00,0x10,0x00,0x00,0x00,0x20,0x00,0x00,0x00,0xc2,0xff,0xff,0xff,0x00,0x00,0x00,0x01,0x10,0x00,0x00,0x00,0x10,0x00,0x00,0x00,0x04,0x00,0x00,0x00,0x1c,0x00,0x00,0x00,0xe8,0xfe,0xff,0xff,0x0f,0x00,0x00,0x00,0x61,0x72,0x69,0x74,0x68,0x2e,0x63,0x6f,0x6e,0x73,0x74,0x61,0x6e,0x74,0x32,0x00,0x02,0x00,0x00,0x00,0x09,0x00,0x00,0x00,0x10,0x00,0x00,0x00,0x00,0x00,0x16,0x00,0x18,0x00,0x14,0x00,0x00,0x00,0x10,0x00,0x0c,0x00,0x08,0x00,0x00,0x00,0x00,0x00,0x00,0x00,0x07,0x00,0x16,0x00,0x00,0x00,0x00,0x00,0x00,0x01,0x10,0x00,0x00,0x00,0x10,0x00,0x00,0x00,0x03,0x00,0x00,0x00,0x1c,0x00,0x00,0x00,0x3c,0xff,0xff,0xff,0x0f,0x00,0x00,0x00,0x61,0x72,0x69,0x74,0x68,0x2e,0x63,0x6f,0x6e,0x73,0x74,0x61,0x6e,0x74,0x31,0x00,0x04,0x00,0x00,0x00,0x40,0x00,0x00,0x00,0x01,0x00,0x00,0x00,0x03,0x00,0x00,0x00,0x06,0x00,0x00,0x00,0x00,0x00,0x16,0x00,0x1c,0x00,0x18,0x00,0x17,0x00,0x10,0x00,0x0c,0x00,0x08,0x00,0x00,0x00,0x00,0x00,0x00,0x00,0x07,0x00,0x16,0x00,0x00,0x00,0x00,0x00,0x00,0x01,0x14,0x00,0x00,0x00,0x14,0x00,0x00,0x00,0x02,0x00,0x00,0x00,0x00,0x00,0x00,0x02,0x1c,0x00,0x00,0x00,0x9c,0xff,0xff,0xff,0x0e,0x00,0x00,0x00,0x61,0x72,0x69,0x74,0x68,0x2e,0x63,0x6f,