#ifndef _MODEL_DATA_H_
#define _MODEL_DATA_H_
const unsigned char model[] = {0x1c,0x00,0x00,0x00,0x54,0x46,0x4c,0x33,0x14,0x00,0x20,0x00,0x1c,0x00,0x18,0x00,0x14,0x00,0x10,0x00,0x0c,0x00,0x00,0x00,0x08,0x00,0x04,0x00,0x14,0x00,0x00,0x00,0x1c,0x00,0x00,0x00,0x8c,0x00,0x00,0x00,0xdc,0x00,0x00,0x00,0x10,0x25,0x00,0x00,0x20,0x25,0x00,0x00,0xcc,0x36,0x00,0x00,0x03,0x00,0x00,0x00,0x01,0x00,0x00,0x00,0x04,0x00,0x00,0x00,0x3a,0xd7,0xff,0xff,0x0c,0x00,0x00,0x00,0x1c,0x00,0x00,0x00,0x3c,0x00,0x00,0x00,0x0f,0x00,0x00,0x00,0x73,0x65,0x72,0x76,0x69,0x6e,0x67,0x5f,0x64,0x65,0x66,0x61,0x75,0x6c,0x74,0x00,0x01,0x00,0x00,0x00,0x04,0x00,0x00,0x00,0x30,0xd9,0xff,0xff,0x21,0x00,0x00,0x00,0x04,0x00,0x00,0x00,0x08,0x00,0x00,0x00,0x6f,0x75,0x74,0x70,0x75,0x74,0x5f,0x30,0x00,0x00,0x00,0x00,0x01,0x00,0x00,0x00,0x04,0x00,0x00,0x00,0x8a,0xd9,0xff,0xff,0x04,0x00,0x00,0x00,0x0c,0x00,0x00,0x00,0x6b,0x65,0x72,0x61,0x73,0x5f,0x74,0x65,0x6e,0x73,0x6f,0x72,0x00,0x00,0x00,0x00,0x02,0x00,0x00,0x00,0x2c,0x00,0x00,0x00,0x04,0x00,0x00,0x00,0x7c,0xd9,0xff,0xff,0x24,0x00,0x00,0x00,0x04,0x00,0x00,0x00,0x13,0x00,0x00,0x00,0x43,0x4f,0x4e,0x56,0x45,0x52,0x53,0x49,0x4f,0x4e,0x5f,0x4d,0x45,0x54,0x41,0x44,0x41,0x54,0x41,0x00,0xa0,0xd9,0xff,0xff,0x23,0x00,0x00,0x00,0x04,0x00,0x00,0x00,0x13,0x00,0x00,0x00,0x6d,0x69,0x6e,0x5f,0x72,0x75,0x6e,0x74,0x69,0x6d,0x65,0x5f,0x76,0x65,0x72,0x73,0x69,0x6f,0x6e,0x00,0x25,0x00,0x00,0x00,0x30,0x24,0x00,0x00,0x28,0x24,0x00,0x00,0x0c,0x24,0x00,0x00,0xf0,0x23,0x00,0x00,0xd4,0x23,0x00,0x00,0xc4,0x0b,0x00,0x00,0x34,0x07,0x00,0x00,0xa4,0x02,0x00,0x00,0x8c,0x02,0x00,0x00,0x74,0x02,0x00,0x00,0x5c,0x02,0x00,0x00,0x44,0x02,0x00,0x00,0xf4,0x01,0x00,0x00,0x64,0x01,0x00,0x00,0x4c,0x01,0x00,0x00,0x38,0x01,0x00,0x00,0x24,0x01,0x00,0x00,0x1c,0x01,0x00,0x00,0x14,0x01,0x00,0x00,0x0c,0x01,0x00,0x00,0x04,0x01,0x00,0x00,0xfc,0x00,0x00,0x00,0xf4,0x00,0x00,0x00,0xec,0x00,0x00,0x00,0xe4,0x00,0x00,0x00,0xdc,0x00,0x00,0x00,0xd4,0x00,0x00,0x00,0xcc,0x00,0x00,0x00,0xc4,0x00,0x00,0x00,0xbc,0x00,0x00,0x00,0xb4,0x00,0x00,0x00,0xac,0x00,0x00,0x00,0xa4,0x00,0x00,0x00,0x9c,0x00,0x00,0x00,0x94,0x00,0x00,0x00,0x74,0x00,0x00,0x00,0x04,0x00,0x00,0x00,0x92,0xda,0xff,0xff,0x04,0x00,0x00,0x00,0x60,0x00,0x00,0x00,0x10,0x00,0x00,0x00,0x00,0x00,0x00,0x00,0x08,0x00,0x0e,0x00,0x08,0x00,0x04,0x00,0x08,0x00,0x00,0x00,0x10,0x00,0x00,0x00,0x24,0x00,0x00,0x00,0x00,0x00,0x06,0x00,0x08,0x00,0x04,0x00,0x06,0x00,0x00,0x00,0x04,0x00,0x00,0x00,0x00,0x00,0x00,0x00,0x0c,0x00,0x18,0x00,0x14,0x00,0x10,0x00,0x0c,0x00,0x04,0x00,0x0c,0x00,0x00,0x00,0x29,0xe8,0xba,0xf2,0xcf,0x26,0xf1,0x52,0x02,0x00,0x00,0x00,0x02,0x00,0x00,0x00,0x04,0x00,0x00,0x00,0x06,0x00,0x00,0x00,0x32,0x2e,0x31,0x39,0x2e,0x30,0x00,0x00,0xfe,0xda,0xff,0xff,0x04,0x00,0x00,0x00,0x10,0x00,0x00,0x00,0x31,0x2e,0x31,0x30,0x2e,0x30,0x00,0x00,0x00,0x00,0x00,0x00,0x00,0x00,0x00,0x00,0x60,0xcb,0xff,0xff,0x64,0xcb,0xff,0xff,0x68,0xcb,0xff,0xff,0x6c,0xcb,0xff,0xff,0x70,0xcb,0xff,0xff,0x74,0xcb,0xff,0xff,0x78,0xcb,0xff,0xff,0x7c,0xcb,0xff,0xff,0x80,0xcb,0xff,0xff,0x84,0xcb,0xff,0xff,0x88,0xcb,0xff,0xff,0x8c,0xcb,0xff,0xff,0x90,0xcb,0xff,0xff,0x94,0xcb,0xff,0xff,0x98,0xcb,0xff,0xff,0x9c,0xcb,0xff,0xff,0xa0,0xcb,0xff,0xff,0xa4,0xcb,0xff,0xff,0x62,0xdb,0xff,0xff,0x04,0x00,0x00,0x00,0x04,0x00,0x00,0x00,0xfd,0xff,0xff,0xff,0x72,0xdb,0xff,0xff,0x04,0x00,0x00,0x00,0x04,0x00,0x00,0x00,0x01,0x00,0x00,0x00,0x82,0xdb,0xff,0xff,0x04,0x00,0x00,0x00,0x08,0x00,0x00,0x00,0x01,0x00,0x00,0x00,0x01,0x00,0x00,0x00,0x96,0xdb,0xff,0xff,0x04,0x00,0x00,0x00,0x80,0x00,0x00,0x00,0x00,0x00,0x00,0x00,0x00,0x00,0x00,0x00,0x00,0x00,0x00,0x00,0x00,0x00,0x00,0x00,0x00,0x00,0x00,0x00,0x00,0x00,0x00,0x00,0x00,0x00,0x00,0x00,0x00,0x00,0x00,0x00,0x00,0x00,0x00,0x00,0x00,0x00,0x00,0x00,0x00,0x00,0x00,0x00,0x00,0x00,0x00,0x00,0x00,0x00,0x00,0x00,0x00,0x00,0x00,0x00,0x00,0x00,0x00,0x00,0x00,0x00,0x00,0x00,0x00,0x00,0x00,0x00,0x00,0x00,0x00,0x00,0x00,0x00,0x00,0x00,0x00,0x00,0x00,0x00,0x00,0x00,0x00,0x00,0x00,0x00,0x00,0x00,0x00,0x00,0x00,0x00,0x00,0x00,0x00,0x00,0x00,0x00,0x00,0x00,0x00,0x00,0x00,0x00,0x00,0x00,0x00,0x00,0x00,0x00,0x00,0x00,0x00,0x00,0x00,0x00,0x00,0x00,0x00,0x00,0x00,0x00,0x00,0x00,0x00,0x00,0x00,0x00,0x22,0xdc,0xff,0xff,0x04,0x00,0x00,0x00,0x40,0x00,0x00,0x00,0x00,0x00,0x00,0x00,0x00,0x00,0x00,0x00,0x00,0x00,0x00,0x00,0x00,0x00,0x00,0x00,0x00,0x00,0x00,0x00,0x00,0x00,0x00,0x00,0x00,0x00,0x00,0x00,0x00,0x00,0x00,0x00,0x00,0x00,0x00,0x00,0x00,0x00,0x00,0x00,0x00,0x00,0x00,0x00,0x00,0x00,0x00,0x00,0x00,0x00,0x00,0x00,0x00,0x00,0x00,0x00,0x00,0x00,0x00,0x00,0x00,0x00,0x00,0x00,0x6e,0xdc,0xff,0xff,0x04,0x00,0x00,0x00,0x08,0x00,0x00,0x00,0x00,0x00,0x00,0x00,0x00,0x00,0x00,0x00,0x82,0xdc,0xff,0xff,0x04,0x00,0x00,0x00,0x08,0x00,0x00,0x00,0x00,0x00,0x00,0x00,0x04,0x00,0x00,0x00,0x96,0xdc,0xff,0xff,0x04,0x00,0x00,0x00,0x08,0x00,0x00,0x00,0x00,0x00,0x00,0x00,0x06,0x00,0x00,0x00,0xaa,0xdc,0xff,0xff,0x04,0x00,0x00,0x00,0x08,0x00,0x00,0x00,0x00,0x00,0x00,0x00,0x09,0x00,0x00,0x00,0xbe,0xdc,0xff,0xff,0x04,0x00,0x00,0x00,0x80,0x04,0x00,0x00,0xb8,0x5a,0x2e,0xbd,0x80,0x33,0xf0,0x3d,0x0a,0x45,0x89,0xbe,0xc0,0x34,0x85,0xbe,0xb7,0x35,0x64,0xbe,0x5d,0x2e,0xa5,0xbe,0x50,0x2e,0xca,0xbc,0xdf,0x84,0x82,0x3e,0x40,0x5f,0x3d,0x3c,0x64,0x00,0xf1,0x3d,0x0e,0xc7,0x80,0xbe,0x0a,0x24,0x65,0x3e,0x58,0xa0,0x06,0xbd,0x22,0x78,0x5b,0x3e,0xcf,0xec,0x90,0xbe,0x5d,0x8e,0x4d,0xbe,0xae,0x90,0x18,0x3e,0xf0,0x0c,0xa8,0xbc,0xb8,0x80,0x92,0xbd,0xf2,0x8e,0x5f,0xbe,0x59,0x36,0x89,0x3e,0xb4,0x92,0xde,0x3d,0xbc,0x8e,0xa9,0x3d,0x3e,0xed,0x4b,0x3e,0x35,0x32,0xbc,0x3e,0xe4,0x81,0xa5,0xbd,0x02,0xa1,0x24,0x3e,0x87,0xc9,0x82,0x3e,0x44,0xac,0xf1,0xbd,0x71,0xaa,0xaa,0x3e,0x38,0xb1,0x5c,0xbe,0xdb,0xf8,0x83,0x3e,0x9a,0xcd,0xbf,0xbe,0x66,0x6e,0x3e,0x3e,0x96,0xe0,0x3a,0x3e,0x00,0x54,0x5c,0xbe,0x0a,0x30,0x43,0x3e,0xd4,0xbf,0x79,0xbe,0x70,0x21,0x07,0xbd,0xa0,0x67,0x2f,0x3d,0x06,0x98,0x72,0x3e,0x70,0x62,0xa3,0x3d,0xa2,0x8a,0x27,0xbe,0xfb,0x16,0x9b,0x3e,0x12,0xd3,0x90,0xbe,0x60,0xce,0x68,0xbc,0x5c,0x9a,0x90,0xbe,0x1b,0xfe,0xba,0x3e,0x0c,0xd1,0x52,0xbe,0x58,0xd4,0x52,0xbe,0x7e,0x26,0x1a,0x3e,0x1c,0x2a,0xfb,0x3d,0x3f,0x7f,0xc0,0x3e,0xe7,0x56,0xbd,0xbe,0x5f,0xb2,0xad,0x3e,0xd5,0x3a,0xae,0x3e,0xe6,0xef,0x03,0xbe,0x80,0x03,0xd8,0x3c,0x33,0x5b,0x9f,0x3e,0x47,0x19,0x99,0x3e,0x60,0xe4,0x1d,0x3d,0x2c,0x43,0x9f,0xbe,0xf4,0x63,0xe4,0xbd,0x70,0x5b,0x1d,0xbd,0x50,0xf5,0x68,0x3d,0x12,0xaf,0x5f,0x3e,0xe0,0xe5,0xf6,0xbd,0x80,0xea,0x35,0x3d,0xa1,0xce,0x88,0x3e,0xa0,0x72,0xa0,0xbe,0xec,0x52,0x9d,0xbd,0x18,0x42,0xc0,0x3d,0x8e,0xa5,0x36,0x3e,0x4d,0x45,0xc3,0x3e,0xca,0x80,0x63,0x3e,0x20,0x10,0x26,0xbe,0xc9,0x2d,0x82,0x3e,0xc4,0x3a,0x7f,0xbe,0x07,0xbb,0x8b,0x3e,0x18,0x9e,0x93,0xbd,0x6f,0x9a,0xae,0x3e,0x5c,0xf1,0xa8,0x3d,0x3a,0x8e,0x1f,0x3e,0x1f,0x3f,0x40,0xbe,0xd0,0x26,0x6d,0xbd,0x12,0x83,0x0f,0x3e,0x3f,0x2f,0x95,0x3e,0x68,0xa2,0x7e,0xbd,0x40,0xc6,0x29,0x3c,0x02,0xa1,0x19,0xbe,0xce,0xa6,0x6e,0x3e,0xbe,0xe8,0x6f,0x3e,0x54,0x18,0x8f,0x3d,0x3c,0x71,0xd2,0xbd,0x37,0x5c,0x9d,0xbe,0x27,0x02,0x86,0x3e,0x19,0x8f,0x88,0x3e,0xaa,0x1a,0x67,0x3e,0x0e,0x1e,0x15,0xbe,0x7a,0xaa,0x0c,0x3e,0xba,0xec,0x2c,0x3e,0x2f,0xf9,0xb8,0x3e,0x1b,0x57,0x5c,0xbe,0x10,0xf1,0xb0,0x3c,0x67,0x23,0xaa,0x3e,0x14,0x38,0x6e,0xbe,0x10,0xf4,0xa2,0x3c,0x61,0x24,0x8b,0x3e,0x31,0xad,0x94,0xbe,0xea,0xd6,0x53,0x3e,0x90,0x16,0xca,0xbc,0x22,0x2f,0x8f,0xbe,0x62,0x68,0x39,0x3e,0xf5,0x2f,0x68,0xbe,0x0a,0xf3,0xa3,0xbe,0xbd,0x49,0xbf,0x3e,0xc0,0x32,0x98,0xbd,0x56,0xdc,0x9a,0xbe,0x13,0x3c,0x84,0x3e,0xab,0xda,0x41,0xbe,0x3a,0x37,0x6c,0xbe,0x58,0xfc,0x89,0x3d,0xc0,0x12,0x97,0x3b,0xd2,0xe0,0x8b,0xbe,0x40,0x2c,0xbe,0x3d,0xd2,0x92,0x10,0x3e,0xba,0xa2,0x61,0x3e,0x00,0x3f,0x8e,0xba,0xc4,0x33,0x81,0xbe,0x95,0x1a,0xb8,0x3e,0xb0,0x7e,0x11,0x3d,0x3f,0xa6,0x14,0xbe,0xe2,0xd0,0x77,0x3e,0x90,0x24,0xe5,0x3c,0x00,0x9d,0x8a,0x3c,0x08,0x64,0xfa,0xbd,0x18,0x5c,0xca,0x3d,0xbe,0x43,0x9d,0xbe,0x97,0x59,0x8d,0x3e,0x5b,0x67,0x46,0xbe,0x88,0xe3,0x84,0xbd,0x00,0x8a,0x81,0xbd,0xb0,0x7e,0x83,0xbc,0x60,0x85,0xbe,0xbe,0x0c,0x5d,0xb0,0xbd,0x70,0x8a,0x25,0x3d,0xf0,0x4e,0x8f,0x3d,0x40,0x60,0x86,0xbe,0xd9,0xb0,0x96,0x3e,0x00,0x1b,0xa1,0xbd,0x36,0x3f,0x71,0xbe,0x1b,0x86,0xbe,0xbe,0x55,0x99,0xaa,0xbe,0xd8,0xb1,0x74,0xbe,0x69,0x8d,0xad,0x3e,0xed,0xf2,0xa0,0x3e,0x60,0x46,0x18,0xbe,0xc5,0xc9,0xb9,0xbe,0x3e,0xe2,0x39,0xbe,0x96,0x66,0xaa,0xbe,0xe0,0x9b,0xac,0x3c,0x37,0x50,0xab,0x3e,0x70,0x5b,0x46,0xbd,0x9a,0xa0,0x13,0x3e,0x40,0x37,0x9c,0x3b,0x0a,0x52,0x58,0x3e,0x70,0x18,0xbc,0x3c,0xbe,0x8b,0xa2,0xbe,0x9d,0x36,0x14,0xbe,0xf4,0xa6,0xe7,0x3d,0x35,0x8e,0x41,0xbe,0x33,0xce,0xb5,0xbe,0x80,0x9f,0x57,0xbc,0x4a,0x00,0x5d,0x3e,0x2a,0xf1,0x20,0x3e,0x67,0xa4,0x9c,0x3e,0x38,0xaa,0xfe,0xbd,0x52,0xff,0x47,0x3e,0x80,0x06,0x8b,0x3b,0x10,0x3c,0xbb,0x3c,0x60,0x42,0x1d,0x3d,0x0d,0x8e,0x3f,0xbe,0x94,0xb8,0xc0,0xbd,0x28,0x6b,0xc1,0xbe,0x34,0x34,0xc2,0xbd,0x14,0x12,0x86,0x3d,0x60,0xf7,0x8c,0xbe,0x20,0x18,0x69,0xbd,0x6a,0x39,0xba,0xbe,0x22,0xe6,0x01,0x3e,0x00,0x42,0xe0,0x3c,0x10,0xa5,0xaa,0xbc,0xdb,0xf2,0xc0,0x3e,0xca,0x67,0x2e,0x3e,0xaa,0xb9,0x5a,0x3e,0x00,0xa8,0x78,0xba,0x1b,0x98,0x94,0x3e,0x95,0x46,0xc2,0xbe,0x80,0xb8,0x00,0xbb,0x04,0x2b,0xc1,0x3d,0x82,0xcf,0x1d,0x3e,0x60,0xca,0x60,0xbc,0x28,0xf2,0x63,0xbd,0x40,0x8b,0xf9,0xbc,0x0b,0x0d,0xbe,0x3e,0x3c,0xfd,0xf5,0x3d,0x07,0x44,0xae,0x3e,0xe0,0x72,0x8d,0xbc,0xe0,0x19,0x75,0xbd,0xc2,0xfc,0x03,0x3e,0x9e,0x28,0x94,0xbe,0x8b,0xba,0x8d,0xbe,0xe0,0x99,0x1f,0xbc,0x5b,0x78,0x95,0x3e,0xb4,0xe0,0xb8,0xbe,0x3a,0xbb,0x91,0xbe,0x81,0x31,0xc3,0xbe,0x00,0xe6,0xd0,0x3c,0x81,0x07,0x91,0x3e,0xa0,0x25,0xbd,0x3d,0x0f,0x70,0xa9,0xbe,0xad,0x3b,0xaf,0x3e,0x7e,0xff,0x6c,0x3e,0x23,0x54,0x93,0x3e,0x79,0xdf,0xa2,0xbe,0x06,0xc1,0x5d,0x3e,0xc0,0x30,0xae,0x3b,0xc8,0xa9,0xf1,0xbd,0xaf,0x40,0xc3,0x3e,0xf9,0xe2,0xa3,0x3e,0xd2,0xa4,0x0c,0x3e,0x68,0x43,0x0c,0x3d,0xc7,0x4e,0xc1,0x3e,0xd0,0xce,0xed,0xbd,0xcc,0xe9,0xa2,0x3d,0xc6,0x02,0x58,0xbe,0xdb,0x20,0x8b,0x3e,0xdb,0x63,0x82,0xbe,0x08,0xd6,0x35,0xbd,0xfa,0x30,0x19,0x3e,0x80,0x56,0x7b,0x3b,0xdf,0x2e,0x9f,0xbe,0xc0,0x9b,0x6a,0xbe,0xc4,0x11,0x92,0xbe,0x84,0x97,0x94,0xbe,0x82,0x15,0xc0,0xbe,0xc4,0x37,0xa9,0xbe,0xbb,0x0c,0xb7,0xbe,0x12,0x8c,0x49,0x3e,0xb0,0x6c,0x92,0xbd,0xf8,0xd0,0x6e,0x3d,0x38,0x71,0xbd,0x3d,0x44,0x0d,0x82,0x3d,0xcc,0xf4,0xd0,0x3d,0xc0,0x8b,0xbc,0xbc,0x2c,0x00,0xef,0x3d,0xb8,0xbf,0x10,0xbd,0x3e,0x18,0x7f,0x3e,0x0f,0x91,0xaf,0x3e,0xf4,0x87,0x06,0xbe,0xaa,0xab,0x2a,0x3e,0x98,0x20,0x49,0xbe,0x00,0xd1,0x0f,0x3c,0x80,0x88,0xef,0xbb,0xf8,0xb7,0x9b,0x3d,0x04,0xfc,0x82,0xbe,0x3d,0x5f,0xbc,0xbe,0x40,0xa1,0xfc,0x3b,0x8e,0x8c,0x1a,0x3e,0x5d,0x5a,0x8e,0x3e,0xb4,0xbe,0xfc,0x3d,0xc6,0x03,0x21,0x3e,0x72,0xfe,0x97,0xbe,0xde,0x6e,0x9c,0xbe,0xc0,0x6a,0xa2,0xbe,0x0c,0x82,0xce,0x3d,0x8c,0x02,0x5b,0xbe,0x87,0xa8,0xaa,0x3e,0x35,0x11,0xa0,0x3e,0x67,0x78,0x0c,0xbe,0x60,0x34,0x3e,0x3d,0x44,0xc3,0x96,0xbd,0xa1,0x37,0xb3,0x3e,0x7e,0xd5,0x7d,0xbe,0x21,0x60,0x8e,0x3e,0x84,0xa2,0xbd,0xbe,0x30,0xb6,0x9c,0x3c,0x76,0x9c,0x4a,0x3e,0x4a,0xe1,0xff,0xff,0x04,0x00,0x00,0x00,0x80,0x04,0x00,0x00,0x34,0xbe,0x68,0x3e,0x39,0x22,0x65,0xbe,0xc0,0xc3,0x4e,0xbe,0x66,0xc2,0x46,0x3e,0x0c,0xfc,0x99,0x3d,0x93,0xed,0x36,0xbe,0x80,0x6d,0x01,0x3e,0x68,0x0c,0x10,0xbd,0xa6,0x63,0xed,0xbd,0xb0,0x79,0xe2,0x3d,0x98,0x1c,0x6f,0x3d,0xb6,0xd1,0x1d,0x3e,0x74,0x0b,0xdb,0x3d,0xe8,0x68,0x77,0xbe,0xcf,0x04,0x11,0xbe,0xc8,0xa7,0x5d,0x3e,0x17,0x91,0x7b,0xbe,0x9c,0x62,0xc8,0x3d,0x0a,0xf3,0xdc,0xbd,0xaa,0x26,0x21,0x3e,0xf6,0x47,0x03,0xbe,0x30,0xf0,0xee,0x3c,0xc6,0xb4,0x93,0x3e,0x64,0xa9,0x57,0x3e,0x40,0xd3,0x7a,0xbe,0xd0,0xba,0xb2,0xbc,0x0c,0xcb,0x96,0x3e,0x8e,0x51,0x20,0xbe,0x28,0x68,0x4f,0x3d,0x58,0x92,0x6e,0x3e,0xd0,0x15,0x5c,0x3e,0xb0,0x12,0x5f,0x3e,0x14,0xe9,0x73,0xbe,0x00,0x1a,0xb4,0x3b,0xf4,0x65,0x81,0x3e,0x13,0x3b,0x97,0xbe,0x22,0xf0,0x19,0x3e,0x98,0xc7,0x59,0x3e,0xd4,0x03,0x6e,0x3e,0x34,0xc9,0x99,0xbe,0xa0,0x4a,0x50,0xbc,0xb7,0x5d,0x2d,0xbe,0x28,0x9f,0x78,0x3e,0x00,0x07,0xcd,0xba,0x98,0x30,0x63,0x3e,0x00,0xc6,0xd8,0x3d,0xbf,0x27,0x82,0xbe,0x88,0x7d,0x1d,0xbe,0xc4,0x25,0xd0,0x3d,0xb4,0x10,0x7c,0xbe,0x42,0xfd,0xd7,0xbd,0x3e,0xd2,0x0d,0x3e,0x56,0x5d,0xee,0xbd,0x78,0x2a,0xaf,0x3d,0x78,0xe7,0x89,0x3d,0x8c,0xba,0x97,0x3e,0x48,0xa4,0x69,0x3e,0x40,0xee,0x32,0x3c,0x26,0xd1,0x31,0x3e,0xca,0x0a,0x1d,0xbe,0xd0,0xb8,0xf4,0xbc,0xd0,0xeb,0x8e,0x3c,0xc6,0x3b,0x8b,0x3e,0x8a,0xba,0xf7,0xbd,0xf6,0x4a,0x76,0xbe,0x42,0xb1,0x1a,0x3e,0x90,0x95,0x02,0xbe,0xbe,0x43,0x96,0xbe,0xe0,0x9c,0x6f,0x3e,0xd6,0x07,0x0d,0xbe,0x70,0x5e,0xa5,0xbc,0x70,0xcd,0x0d,0x3e,0xb0,0xe6,0x1b,0xbd,0xe0,0x19,0x25,0x3d,0xc4,0x43,0x5d,0x3e,0x88,0xea,0x5f,0x3e,0xc2,0xf3,0x88,0xbe,0x90,0x2a,0x30,0xbd,0x18,0xa8,0xfc,0x3d,0xe0,0x4a,0xcc,0x3d,0x50,0x81,0x3a,0x3d,0xec,0xd1,0x94,0x3e,0xaa,0x08,0x63,0xbe,0xf8,0x26,0x86,0xbd,0x28,0xd9,0x4e,0x3e,0xd2,0xfd,0x99,0x3e,0xc0,0x80,0x86,0x3c,0x0a,0x89,0xb7,0xbd,0x48,0x68,0x6d,0xbe,0x00,0xac,0x2d,0x3e,0x70,0x3d,0x14,0x3d,0xca,0x8e,0x84,0x3e,0xb4,0xb8,0x80,0xbe,0xcd,0xcd,0x48,0xbe,0xb0,0xeb,0x66,0xbe,0xe8,0x7f,0x73,0x3e,0x40,0xd4,0x3c,0xbd,0xfc,0x5c,0xb5,0x3d,0xf8,0xdd,0x5c,0x3d,0xc4,0x58,0x95,0xbd,0x20,0x0b,0x80,0x3e,0xfa,0x62,0x4a,0xbe,0x0e,0x68,0x3d,0x3e,0x64,0x8b,0x8f,0x3e,0x00,0x7c,0x36,0x3b,0xca,0x17,0x42,0x3e,0x8f,0x25,0x82,0xbe,0xd2,0xd3,0x69,0xbe,0x68,0xd3,0x93,0xbe,0xa4,0x79,0x49,0x3e,0x50,0x7d,0x78,0xbd,0xbe,0x64,0xb5,0xbd,0x8a,0x85,0x4b,0xbe,0x5c,0x19,0xf4,0xbd,0x08,0x22,0x21,0x3e,0xec,0x41,0x63,0x3e,0x74,0x5a,0x59,0x3e,0xd4,0xbe,0x4b,0x3e,0xb0,0xf4,0x85,0x3e,0x78,0x89,0xd8,0x3d,0x4c,0x79,0xe3,0x3d,0xf7,0x21,0x42,0xbe,0x7b,0x2d,0x56,0xbe,0x42,0x42,0x10,0xbe,0x70,0x62,0x44,0xbe,0x98,0x1e,0x14,0x3e,0x10,0xe8,0xe5,0x3d,0x84,0xb9,0x4f,0x3e,0xa2,0xa1,0x4b,0xbe,0xa4,0x26,0x58,0x3e,0xd3,0xcb,0x19,0xbe,0x08,0xbb,0x59,0x3e,0xb6,0x7e,0x87,0x3e,0x6e,0xb9,0xe6,0xbd,0x58,0xa0,0x90,0x3e,0xd0,0xf9,0x5e,0x3d,0x00,0x52,0x7f,0xbd,0xd4,0xfc,0x1d,0x3e,0x40,0x53,0x0f,0x3c,0xa0,0x32,0x9b,0xbc,0x92,0x9c,0x45,0x3e,0xf8,0xda,0x64,0xbd,0xcc,0x6f,0x8a,0x3d,0x99,0x31,0x0f,0xbe,0x83,0x28,0x92,0xbe,0xb2,0x87,0xfe,0xbd,0x8e,0x39,0xe6,0xbd,0xdb,0xc4,0x08,0xbe,0x18,0x5d,0x9a,0x3e,0x62,0xfd,0x23,0xbe,0xde,0x09,0x1f,0xbe,0x40,0xae,0x3e,0xbd,0xb8,0x7d,0x91,0x3e,0xac,0x3b,0x80,0xbe,0xee,0x80,0x1e,0x3e,0x30,0xa2,0x91,0xbe,0x29,0x97,0x69,0xbe,0x58,0xd9,0xc5,0xbd,0xba,0xe5,0xec,0xbd,0x8e,0x73,0x06,0xbe,0x94,0xd6,0x50,0x3e,0x4c,0x5e,0x8f,0x3d,0x30,0x98,0x3b,0x3d,0xcc,0x56,0xcb,0x3d,0x30,0xf0,0xde,0xbc,0x24,0x87,0x68,0x3e,0x80,0xe0,0x98,0x3e,0xa4,0xe3,0x6a,0x3e,0x28,0xd1,0xad,0x3d,0x8a,0x10,0x32,0xbe,0xfa,0x6d,0x47,0xbe,0x35,0x95,0x50,0xbe,0xf4,0x72,0x4b,0x3e,0x6a,0x6f,0x54,0xbe,0x7c,0x47,0x6e,0x3e,0xb2,0xce,0x01,0xbe,0x6c,0x14,0xe2,0xbd,0xb4,0xd2,0xe5,0x3d,0x1d,0x80,0x30,0xbe,0x52,0xfa,0x89,0xbd,0x00,0x98,0x79,0x3c,0x00,0x98,0x6f,0xbd,0x00,0x04,0xa4,0x39,0x76,0x28,0x87,0x3e,0x14,0x64,0x29,0x3e,0xb4,0x2d,0x6e,0x3e,0xce,0x3a,0x2f,0x3e,0x3e,0x25,0x85,0x3e,0x20,0xd9,0x6b,0xbd,0x7c,0xca,0x55,0x3e,0x58,0xcb,0x7b,0x3d,0x6e,0x01,0x88,0x3e,0xe4,0x19,0x57,0x3e,0xb6,0x6c,0x34,0xbe,0x1c,0x32,0x96,0x3e,0x18,0x22,0xb6,0xbd,0xc6,0x68,0x64,0xbe,0x0c,0x40,0xea,0x3d,0x12,0xd7,0x8d,0x3e,0x8c,0xf7,0xc0,0xbd,0xb8,0x9c,0x71,0x3e,0xe5,0x46,0x5c,0xbe,0x30,0xfa,0x4c,0xbe,0xe6,0x39,0x00,0xbe,0x16,0xe9,0xe5,0xbd,0xb4,0xa3,0x18,0x3e,0x3e,0x81,0x72,0xbe,0x14,0x32,0xc3,0xbd,0x2f,0x5c,0x33,0xbe,0x7e,0x7a,0x96,0x3e,0xaf,0xc7,0x85,0xbe,0xa0,0x06,0x5a,0x3e,0xe4,0x74,0xd8,0x3d,0x32,0x33,0x0b,0x3e,0xdc,0x53,0x1b,0x3e,0x31,0x2c,0x90,0xbe,0x08,0x4b,0x7d,0xbe,0x8a,0x51,0x50,0xbe,0x2c,0x09,0x96,0x3e,0xfa,0x10,0x46,0xbe,0x20,0x11,0xa9,0x3d,0x98,0x1e,0x85,0x3e,0xac,0x9f,0x36,0x3e,0x60,0x2e,0x7e,0xbd,0xad,0x3e,0x8a,0xbe,0xb0,0xf0,0x25,0x3d,0xf2,0xa1,0x93,0x3e,0x30,0xb5,0xf1,0xbc,0x16,0x8e,0x2a,0xbe,0x8b,0xc5,0x6c,0xbe,0xd8,0xfe,0xe2,0xbd,0x05,0x47,0x96,0xbe,0x00,0xa1,0xb6,0xbb,0xf8,0x91,0x5d,0x3d,0x52,0x29,0x6c,0xbe,0xa3,0xc0,0x01,0xbe,0x40,0x2f,0xad,0x3d,0xd2,0x1d,0x14,0x3e,0xc6,0x69,0x19,0x3e,0xbc,0xae,0x00,0xbe,0x30,0xdf,0x43,0x3e,0xfc,0x4f,0x76,0x3e,0x8c,0x56,0x72,0x3e,0x64,0x65,0x69,0x3e,0x1c,0x4d,0x63,0xbe,0xa0,0x99,0x60,0x3e,0x74,0xfd,0xa3,0x3d,0x9c,0x87,0x38,0x3e,0x44,0x3e,0x24,0xbe,0x30,0x66,0x7e,0xbe,0xc8,0xef,0xf3,0x3d,0xbc,0xf0,0x5b,0x3e,0x04,0x3d,0xc9,0x3d,0x3e,0xcd,0x4a,0x3e,0x7e,0x37,0x89,0x3e,0x30,0x3d,0xab,0x3d,0xba,0xf9,0x95,0x3e,0xc0,0xfe,0x10,0x3d,0x5e,0x6c,0x73,0xbe,0xb4,0xf8,0x0d,0x3e,0xd3,0xf7,0x10,0xbe,0x0c,0xea,0xdd,0x3d,0x34,0xee,0x6a,0x3e,0xf0,0x4b,0x0b,0x3e,0x38,0xc8,0x62,0xbe,0x64,0x0e,0x7f,0x3e,0x67,0xc3,0x96,0xbe,0x86,0xe8,0xb6,0xbd,0xf2,0x8b,0x67,0xbe,0x8f,0x0f,0x45,0xbe,0xa4,0x4f,0x4a,0xbe,0xd1,0x75,0x5c,0xbe,0x62,0x3b,0x49,0x3e,0x98,0xf2,0x67,0xbd,0xac,0x98,0x04,0x3e,0xf8,0xb0,0x76,0x3e,0x31,0x88,0x6f,0xbe,0xe4,0x52,0xf7,0x3d,0x20,0x41,0xb5,0xbd,0xb0,0x6a,0x93,0x3c,0x2e,0x2e,0x96,0x3e,0x1e,0x9c,0xf3,0xbd,0x68,0x44,0x6f,0x3d,0xe0,0x1d,0x08,0x3e,0xb4,0x37,0x3e,0xbe,0xc4,0x44,0x93,0x3e,0x49,0x57,0x34,0xbe,0x80,0x3b,0xd1,0x3c,0xd6,0xe5,0xff,0xff,0x04,0x00,0x00,0x00,0x00,0x18,0x00,0x00,0xe8,0x89,0x46,0xbe,0x7c,0x67,0x33,0x3e,0x8a,0xca,0x20,0xbe,0x70,0x64,0xd4,0xbc,0x08,0xdc,0xb4,0x3d,0x88,0xa9,0xa2,0xbd,0x98,0x7e,0x3c,0x3d,0xb0,0x4c,0xf0,0x3d,0xf4,0xda,0x3c,0xbd,0x8d,0x0c,0x38,0xbe,0xc0,0x5d,0x47,0x3e,0xb0,0x42,0x80,0x3c,0x90,0xee,0xc1,0x3d,0xbd,0x98,0x31,0xbe,0xac,0x0f,0x29,0x3d,0x36,0xaa,0x2a,0xbe,0x56,0x04,0x8a,0xbd,0x51,0x89,0xde,0xbd,0xa0,0x57,0xff,0x3d,0x9c,0x45,0x19,0xbd,0x3b,0x56,0x29,0xbe,0x6a,0xc3,0x30,0x3e,0x9c,0x6e,0xb6,0xbd,0xae,0x9f,0x02,0x3e,0x2e,0x46,0x4e,0xbe,0xf0,0x0a,0x4d,0xbc,0x98,0x49,0x46,0xbe,0x8c,0x33,0x19,0x3e,0x02,0xbf,0x20,0xbe,0xbc,0xb3,0xff,0xbd,0x28,0x63,0x2c,0xbe,0x60,0x32,0x52,0xbc,0x60,0xee,0x22,0xbd,0xcc,0xe5,0x07,0xbd,0xc0,0xea,0x06,0xbe,0xc6,0x10,0x41,0x3e,0xba,0x6e,0x09,0x3e,0x4f,0xa6,0xf7,0xbd,0xb4,0xc9,0xff,0x3d,0xb2,0x94,0x42,0x3e,0xc8,0x00,0x35,0x3e,0xe0,0x6c,0x76,0xbd,0xbc,0x54,0xc0,0x3d,0x10,0x93,0x11,0xbe,0xd4,0xd9,0x50,0xbd,0x64,0xcc,0x68,0xbd,0x44,0x9c,0x13,0x3e,0x56,0x33,0x04,0xbe,0xb8,0x43,0x73,0x3d,0x6c,0x87,0x95,0x3d,0xb4,0x4a,0x19,0x3e,0x70,0xd0,0x40,0xbd,0xec,0x14,0xf4,0x3d,0xde,0xf3,0x16,0x3e,0xc8,0xe1,0xf4,0xbc,0xba,0xb3,0x02,0x3e,0xe0,0x28,0x34,0x3d,0x00,0x05,0x9b,0xbc,0x7c,0x1d,0xb0,0x3d,0x4c,0x58,0x1f,0x3e,0xe6,0xb5,0xd3,0xbd,0xff,0x32,0x1a,0xbe,0x92,0xcb,0xe2,0xbd,0x2a,0xb2,0x0c,0x3e,0x70,0x16,0xe8,0x3d,0x7f,0xee,0xbe,0xbd,0x00,0x77,0xfc,0xbb,0x18,0x20,0xc3,0x3d,0x00,0x34,0x5c,0x39,0x04,0x6d,0x44,0xbe,0x94,0xab,0x2b,0x3d,0x2c,0xd4,0xd8,0x3d,0xde,0xb4,0xa8,0xbd,0x62,0x63,0x31,0x3e,0x38,0xb6,0x3b,0xbe,0x6c,0x5b,0x00,0x3e,0x19,0x26,0x11,0xbe,0x3c,0x0b,0x7e,0xbd,0xe8,0x23,0x40,0xbd,0xc2,0xbc,0x33,0x3e,0x40,0x05,0x0a,0x3e,0x30,0xdb,0x7a,0xbd,0x78,0x33,0xd4,0x3c,0xf4,0x94,0xa7,0x3d,0xb4,0xbe,0xff,0xbd,0x26,0xa7,0x25,0xbe,0x14,0x12,0x2d,0xbe,0x58,0xf0,0x16,0x3d,0xb8,0xa7,0x84,0x3c,0x8c,0x98,0x05,0xbd,0x78,0x89,0x16,0x3d,0xab,0x82,0xd1,0xbd,0xb8,0x81,0xae,0xbd,0x6a,0xc3,0x08,0x3e,0x58,0x89,0xf9,0xbd,0xb3,0x80,0xf6,0xbd,0xc0,0x14,0xcd,0x3d,0x92,0xf5,0x37,0x3e,0x64,0x7b,0x09,0xbe,0xf8,0x65,0xbe,0x3d,0x0f,0x5e,0xb3,0xbd,0x50,0x83,0x8e,0xbc,0xc0,0x5c,0x92,0xbd,0x78,0xbd,0x08,0x3e,0x34,0x4f,0xac,0x3d,0x94,0xe3,0xbb,0x3d,0xb4,0x65,0x1b,0x3e,0xf1,0xe3,0xbc,0xbd,0x74,0xa8,0x29,0xbe,0x1c,0x7a,0x0b,0xbe,0x40,0x34,0x38,0xbe,0xf2,0xe9,0x03,0x3e,0xc8,0x80,0x0b,0xbe,0x16,0x8e,0x1e,0x3e,0x8f,0x16,0x36,0xbe,0x84,0xe6,0x63,0xbd,0x92,0x61,0xf6,0xbd,0x3c,0xd4,0x33,0x3e,0xd4,0x27,0x41,0x3e,0x3c,0xe3,0xb0,0x3d,0x71,0x42,0x1b,0xbe,0x70,0x28,0x0b,0x3e,0x89,0x0a,0xd3,0xbd,0x13,0x81,0xa7,0xbd,0x0c,0x85,0xbd,0xbd,0x55,0x43,0x45,0xbe,0x31,0xd3,0xc9,0xbd,0xa8,0x0c,0xb7,0x3d,0x20,0xb4,0x2e,0xbe,0x34,0x18,0x56,0xbd,0x54,0x46,0x47,0x3e,0x0c,0x2a,0x22,0x3e,0xbc,0x63,0xf6,0x3d,0x84,0xed,0x46,0x3e,0x68,0x43,0xf3,0x3c,0xa0,0xd5,0x22,0xbd,0xa8,0x01,0x0d,0x3e,0xf0,0x00,0x17,0x3d,0x49,0xfd,0xf9,0xbd,0xb0,0x4b,0x3e,0xbc,0x5a,0x4b,0x11,0x3e,0xb0,0xd2,0x26,0x3e,0x30,0x87,0x55,0x3d,0x5c,0x86,0x2f,0x3d,0x10,0xbe,0xaf,0x3d,0x68,0x4a,0xd9,0x3d,0xc5,0xff,0x43,0xbe,0xf0,0x08,0x92,0x3c,0xfe,0x02,0xa1,0xbd,0x59,0x9d,0xa6,0xbd,0xc8,0x35,0x88,0x3d,0xca,0xe4,0x42,0x3e,0x74,0x03,0x41,0x3e,0x10,0xa7,0x86,0x3d,0x3a,0x18,0x11,0x3e,0x56,0xa0,0xef,0xbd,0xd4,0x2c,0x21,0xbe,0xcc,0x3d,0xe6,0x3d,0xc6,0x77,0x47,0x3e,0xd8,0x5c,0x9c,0xbc,0xb8,0x58,0xfd,0x3d,0x7f,0xf5,0x00,0xbe,0x10,0xb4,0x65,0xbc,0x2b,0x1e,0xc6,0xbd,0x0a,0x67,0x1d,0xbe,0xba,0x91,0x1d,0x3e,0x94,0xa0,0xb3,0x3d,0x8b,0x1b,0x25,0xbe,0xfc,0x96,0x2a,0xbe,0xfc,0x22,0x1b,0x3e,0xc9,0xe1,0xc9,0xbd,0x22,0xa4,0xb9,0xbd,0x00,0xcc,0x13,0x3a,0xb0,0x1d,0xdc,0xbc,0x20,0x88,0x64,0x3d,0xb8,0xd8,0xcb,0x3d,0xa0,0xeb,0xfa,0xbd,0x92,0x4a,0x1b,0xbe,0x4a,0x4d,0x20,0x3e,0x28,0xe2,0xf2,0x3d,0x83,0xc1,0xff,0xbd,0xd0,0x4e,0x4f,0x3e,0xe5,0xf1,0xfd,0xbd,0xa8,0xcb,0x79,0xbd,0x9e,0xd2,0x20,0x3e,0xc8,0xf1,0xa6,0xbc,0x32,0x00,0x43,0xbe,0xb8,0x81,0x38,0x3e,0x4a,0xba,0x44,0xbe,0x50,0xe4,0x10,0x3d,0xfc,0xa3,0x1e,0xbd,0xdc,0xf2,0xad,0x3d,0x48,0x77,0xf1,0x3d,0xe0,0x9b,0xdb,0xbc,0x29,0x31,0x4b,0xbe,0x94,0xdd,0xcf,0x3d,0xc0,0x26,0x05,0x3d,0x16,0xe9,0xa4,0xbd,0x04,0x7b,0x7f,0xbd,0x50,0x72,0x9b,0xbc,0x8d,0x47,0x42,0xbe,0xf0,0x0f,0x7c,0xbc,0x82,0x09,0xba,0xbd,0x64,0x62,0x31,0xbe,0x1e,0x39,0x20,0xbe,0xe0,0xd0,0x26,0x3e,0x6a,0x30,0xb2,0xbd,0x10,0x1b,0x3f,0xbc,0x78,0x3e,0xc9,0x3d,0x50,0x3b,0xa0,0xbd,0x58,0xeb,0xb0,0x3d,0xb4,0xd2,0x9d,0xbd,0x10,0x59,0xaf,0x3d,0x52,0x67,0x98,0xbd,0xde,0x89,0x10,0x3e,0xc8,0x3e,0xb1,0x3d,0x04,0x9c,0x03,0xbd,0xa2,0x76,0xb3,0xbd,0x24,0xa7,0xc3,0xbd,0x60,0xb2,0x3c,0x3d,0x4c,0x76,0x68,0xbd,0x6e,0xf9,0xe8,0xbd,0x04,0xe2,0xed,0x3d,0x96,0xed,0x33,0xbe,0x00,0x8c,0x91,0x3c,0xc0,0x1d,0xe5,0xbc,0x90,0xe9,0x53,0x3d,0x90,0x2a,0xd1,0x3c,0x50,0xdc,0xb9,0xbc,0xe0,0x08,0xca,0xbc,0x90,0xb1,0x6f,0xbd,0x40,0x21,0x9b,0xbd,0x2c,0x1a,0xee,0x3d,0x34,0xda,0x26,0x3d,0x90,0x5b,0x13,0x3e,0x18,0x4c,0xa0,0xbc,0x5b,0x0c,0x47,0xbe,0xd0,0x0a,0x41,0x3e,0xcc,0x15,0x4f,0xbd,0xc0,0x0c,0x4d,0x3c,0x50,0x46,0x8d,0x3d,0xa0,0xb1,0x8b,0x3c,0xbc,0x5b,0xd8,0x3d,0x18,0xb5,0x8c,0x3d,0x3c,0xcf,0x9d,0xbd,0xe4,0x8e,0x34,0x3d,0xec,0x7c,0x06,0xbe,0x50,0xc8,0x91,0xbc,0xec,0xc4,0x43,0x3e,0xf2,0xb8,0x26,0xbe,0xd1,0x45,0x1d,0xbe,0xdc,0x57,0x44,0x3e,0xf4,0xb9,0xb8,0x3d,0x5c,0x69,0x37,0x3d,0x58,0x08,0x3f,0xbe,0x88,0x43,0x9d,0x3d,0x54,0x2d,0x03,0x3d,0x40,0xb6,0x10,0x3e,0x90,0xb9,0x29,0x3e,0xcc,0x60,0xf1,0x3d,0x1a,0xb4,0x1b,0x3e,0xe0,0xd2,0x8b,0x3d,0xd8,0xb2,0x50,0x3d,0xf4,0x5a,0xdf,0xbd,0x34,0x27,0xde,0x3d,0xe4,0x6e,0x38,0xbd,0x44,0xf0,0xb1,0x3d,0xca,0x92,0x4d,0x3e,0x0e,0xe1,0x2a,0x3e,0x80,0x42,0xbe,0xbb,0x90,0x19,0xe5,0x3d,0x58,0x98,0xeb,0xbc,0x4e,0x7e,0x4b,0x3e,0x00,0x8e,0xec,0x3d,0xb0,0x31,0xce,0x3d,0x3e,0x0e,0x34,0x3e,0x70,0x85,0x46,0x3e,0x08,0xca,0x0b,0x3d,0x9c,0xec,0x8f,0x3d,0x40,0x3c,0x35,0x3d,0xc4,0x9a,0x8b,0x3d,0x38,0xec,0x2a,0xbe,0x94,0xe4,0x37,0x3e,0x7e,0xc4,0xaf,0xbd,0x28,0xba,0xbc,0xbc,0xb0,0xbe,0x7f,0x3d,0x91,0x57,0x33,0xbe,0x40,0x3f,0xad,0x3d,0x16,0xec,0x1d,0x3e,0xc0,0x86,0x3b,0x3c,0x00,0x85,0x95,0xbb,0xd1,0x36,0xcf,0xbd,0xc8,0xe1,0xff,0x3d,0xee,0xc0,0x87,0xbd,0x3a,0x60,0xe1,0xbd,0xc8,0xbb,0xce,0xbd,0x68,0x67,0xd6,0x3d,0xfc,0x80,0x07,0xbe,0x80,0xf7,0xf2,0x3b,0xf4,0xcb,0x33,0xbd,0x40,0x57,0xe9,0xbd,0xae,0x41,0x47,0xbe,0x00,0x44,0xc3,0xbb,0x9e,0xf2,0x1e,0xbe,0x03,0xfc,0x2b,0xbe,0xb6,0x14,0x3d,0xbe,0x08,0xbe,0x35,0x3e,0x9e,0xf7,0xfa,0xbd,0x3e,0xec,0x2b,0x3e,0x74,0x0b,0x9b,0xbd,0xc0,0x5b,0x9b,0xbc,0xfe,0x3a,0x36,0xbe,0xe0,0x23,0x80,0x3d,0x30,0x9b,0x08,0x3c,0x46,0xb5,0x13,0x3e,0x6c,0x72,0x7e,0xbd,0x58,0x90,0x6d,0xbd,0xbc,0x86,0x36,0xbe,0x60,0xe8,0xe9,0x3d,0x0e,0xf8,0x3a,0x3e,0xc3,0xc4,0xa9,0xbd,0x44,0x8a,0x2a,0x3e,0xae,0x8b,0x18,0xbe,0x74,0x5b,0xe2,0xbd,0xb7,0xdd,0xfc,0xbd,0x40,0x70,0xbc,0x3d,0xc8,0x10,0xb6,0xbc,0x06,0x89,0x39,0x3e,0x3c,0xe8,0xc9,0x3d,0xf9,0x7b,0x02,0xbe,0x04,0x06,0x22,0xbe,0xaf,0x07,0xec,0xbd,0x8c,0xed,0x14,0x3e,0x28,0x64,0x19,0xbe,0xf4,0x68,0xfe,0x3d,0x10,0xfb,0x0b,0x3d,0x14,0x3a,0xc7,0x3d,0x40,0x5c,0xbc,0xbb,0x7a,0xb9,0x42,0x3e,0x80,0xfe,0x2b,0xbd,0x30,0xca,0x79,0x3c,0xc8,0x28,0x9b,0x3d,0xf8,0xf6,0xd0,0x3d,0x73,0xac,0xd5,0xbd,0x60,0xed,0x82,0xbc,0x00,0x7e,0x4f,0x3a,0x8a,0xfa,0x23,0xbe,0x92,0x2d,0x45,0x3e,0x56,0x56,0x95,0xbd,0x1e,0x5e,0x83,0xbd,0x6e,0xbf,0x04,0xbe,0x66,0x86,0x3d,0x3e,0x18,0x5e,0x8d,0x3c,0xc8,0xe2,0xb8,0x3d,0x28,0x32,0x65,0xbd,0x55,0x62,0xe6,0xbd,0xe7,0x9a,0x20,0xbe,0xb0,0xaa,0xc4,0x3d,0xd6,0x45,0x24,0x3e,0x9a,0x36,0x1f,0x3e,0x30,0xd4,0x26,0xbd,0xa0,0x16,0x70,0x3c,0x6c,0xe9,0xae,0x3d,0x80,0x9c,0x1f,0x3d,0x54,0x93,0x28,0x3e,0xa8,0x36,0xfc,0x3d,0x7e,0x32,0xb7,0xbd,0x48,0x99,0x98,0x3d,0x58,0x44,0xf2,0xbd,0xee,0xaa,0x31,0x3e,0xc6,0xc2,0x97,0xbd,0x7c,0xbe,0xbc,0x3d,0x18,0x71,0x45,0xbe,0x86,0x63,0x96,0xbd,0xec,0x90,0x02,0xbe,0xf0,0x0d,0x39,0x3c,0x39,0x88,0x2f,0xbe,0x00,0x81,0x28,0x3d,0x20,0x0b,0x0e,0xbe,0x54,0xcb,0x10,0xbe,0xd0,0x5c,0x9f,0xbd,0xf8,0xf8,0xa4,0xbc,0xa5,0x1b,0x37,0xbe,0x26,0x6d,0x0b,0x3e,0x4e,0xda,0x33,0x3e,0x9e,0x3e,0x30,0x3e,0x62,0xc8,0x98,0xbd,0xb4,0x23,0xa3,0x3d,0x96,0x83,0x30,0x3e,0x00,0x32,0xee,0x3b,0x3c,0x99,0x95,0xbd,0x14,0xc8,0x28,0xbd,0x88,0xe3,0xec,0x3d,0x80,0xa2,0x6f,0x3d,0x48,0x71,0xca,0xbc,0x94,0x4f,0x03,0xbd,0xf8,0xb9,0xaa,0x3d,0x9c,0x29,0xe7,0xbd,0x40,0x21,0x0d,0x3e,0x50,0x89,0x05,0x3c,0xa0,0xd4,0xac,0xbc,0x80,0xb2,0xb1,0xba,0xf8,0x5b,0x85,0xbc,0xb4,0x10,0xef,0x3d,0x64,0x6d,0x3e,0xbd,0xa8,0xde,0xa7,0x3c,0x2a,0x56,0x89,0xbd,0x02,0xcd,0x1f,0x3e,0xb3,0xe7,0x34,0xbe,0x14,0x4c,0x23,0xbe,0x38,0x8d,0x7a,0xbd,0x76,0x32,0x03,0xbe,0xd3,0x64,0xa9,0xbd,0x18,0xc0,0xf8,0xbc,0x14,0x90,0x0c,0x3e,0xe0,0xba,0x53,0xbd,0x33,0xed,0xd9,0xbd,0x68,0x15,0x66,0xbd,0xe0,0x44,0x1d,0x3e,0xe0,0xea,0x50,0x3d,0x76,0x8b,0x94,0xbd,0x45,0xdf,0xfc,0xbd,0x75,0x7d,0xaf,0xbd,0x98,0xdf,0x6f,0x3d,0xf0,0x9e,0x23,0xbd,0x39,0x72,0x3f,0xbe,0x08,0xfd,0x61,0x3d,0xc0,0x14,0x19,0x3e,0xa0,0x48,0x0a,0x3c,0x80,0x17,0xc3,0x3b,0x70,0x8c,0x6d,0xbc,0xfc,0xd4,0x1d,0xbe,0x33,0x6b,0xb3,0xbd,0xb8,0x60,0x3d,0x3d,0x7c,0x76,0xcc,0xbd,0x78,0xdc,0xcd,0xbc,0xdc,0x81,0x0a,0xbe,0x80,0x7a,0xb0,0xba,0x12,0x2e,0x1f,0xbe,0x00,0xd7,0xde,0x3c,0x40,0xc9,0x35,0x3d,0xf7,0x7a,0x42,0xbe,0x40,0xc7,0xb9,0x3d,0xc6,0xea,0x87,0xbd,0xe8,0x31,0x9c,0xbd,0x6c,0x4a,0xba,0x3d,0x38,0x11,0x39,0x3d,0x90,0x0d,0x6b,0x3d,0x40,0x4d,0x7a,0x3c,0xfc,0x7f,0x55,0xbd,0x24,0x0a,0x84,0x3d,0x2b,0x24,0xe9,0xbd,0xd8,0x7c,0xbe,0x3c,0x9e,0xc0,0x33,0x3e,0xe6,0x2b,0x1c,0x3e,0x00,0xf5,0x07,0x3d,0x0a,0x1a,0x85,0xbd,0xb8,0xbb,0x76,0xbd,0x98,0x39,0x98,0x3d,0xb6,0xfb,0x3c,0x3e,0xe8,0xb1,0xc6,0x3c,0xf8,0xfd,0xeb,0x3d,0xb9,0xe4,0xbf,0xbd,0x34,0x84,0xea,0xbd,0x2a,0x43,0x38,0xbe,0x00,0x0a,0xee,0xbb,0xe7,0x3a,0xdf,0xbd,0x4d,0x5a,0xa4,0xbd,0x84,0x7c,0x3b,0x3e,0xe0,0xaf,0xbe,0xbb,0xca,0x5f,0x3a,0xbe,0x54,0x67,0xcc,0xbd,0xc0,0xf4,0x33,0xbc,0xb0,0x0a,0x1b,0x3c,0x40,0x0d,0x11,0xbc,0x00,0x6c,0xf1,0x3c,0x70,0x68,0x3b,0x3e,0xd4,0x2b,0xdd,0xbd,0xa8,0x19,0x4c,0xbd,0xe2,0x76,0x43,0x3e,0x1f,0x00,0x50,0xbe,0x3e,0x0b,0x31,0x3e,0x10,0xb7,0xfa,0x3c,0x30,0xeb,0x4e,0x3d,0xf6,0xd8,0x48,0x3e,0xac,0xab,0x12,0x3e,0x0c,0x71,0x03,0xbd,0x34,0xd6,0xed,0xbd,0x28,0x7b,0x99,0xbc,0x8b,0x64,0x4d,0xbe,0xa0,0xb8,0xea,0xbc,0x04,0xd4,0x3c,0x3e,0x64,0xb0,0xed,0xbd,0x2f,0xd6,0xbd,0xbd,0x20,0xff,0xdb,0x3b,0xad,0x9d,0x1f,0xbe,0x2c,0x18,0x1c,0xbe,0xfc,0x6a,0x1a,0x3d,0x67,0x3e,0x42,0xbe,0x7c,0xec,0xa4,0x3d,0xe4,0xd9,0xb9,0x3d,0x85,0x5b,0x4b,0xbe,0x84,0x27,0x42,0xbe,0xae,0x0b,0x02,0x3e,0xb1,0x15,0x23,0xbe,0xd2,0x83,0x10,0xbe,0x28,0x90,0x06,0x3e,0x7c,0x02,0xa2,0x3d,0xc0,0xf7,0xb8,0x3d,0x6c,0x68,0x2b,0x3d,0xc0,0x95,0xf7,0xbd,0xfa,0x2a,0x14,0xbe,0xd4,0x22,0xc9,0x3d,0xfc,0xe7,0x4c,0xbd,0x5e,0x49,0x0f,0xbe,0x82,0x4c,0x32,0x3e,0x02,0xfe,0x04,0xbe,0x80,0x1d,0xd8,0xbc,0xc4,0x29,0x9a,0x3d,0xa8,0x09,0x90,0x3d,0x00,0x7a,0xce,0xbb,0xbc,0x2c,0x03,0x3e,0x98,0x3e,0x39,0x3e,0x28,0xe3,0xa7,0xbc,0xfc,0x58,0x8e,0x3d,0x60,0x8f,0x35,0x3d,0xb0,0xb7,0xa4,0x3d,0x2f,0x4b,0xcc,0xbd,0x0d,0xde,0x36,0xbe,0x6e,0x1f,0x4f,0x3e,0x64,0xc3,0x14,0x3e,0x1c,0xff,0x39,0x3e,0xfc,0x81,0x0f,0x3e,0xac,0x56,0x08,0x3d,0x60,0x7c,0x95,0xbb,0x01,0xdd,0xba,0xbd,0x60,0xfa,0xfc,0x3d,0x10,0xab,0xf6,0x3d,0x92,0xfc,0x1a,0x3e,0x7e,0xb3,0x4b,0x3e,0x6f,0xf9,0x50,0xbe,0x78,0xda,0x5d,0x3d,0x60,0x8e,0x6c,0x3d,0x26,0xe8,0x29,0x3e,0x32,0x81,0x14,0x3e,0xe0,0x37,0xfe,0x3c,0xa4,0x62,0xc7,0x3d,0x2c,0x63,0xa6,0x3d,0x05,0x20,0x13,0xbe,0x90,0x55,0x56,0x3c,0x78,0x0b,0x6d,0x3d,0xd0,0x80,0x05,0xbe,0x98,0xe8,0x47,0x3e,0x60,0xe0,0x02,0xbd,0x00,0x2d,0x5c,0x3d,0xe0,0x22,0xfd,0xbb,0xf0,0xa7,0x41,0x3e,0xa1,0x88,0xf9,0xbd,0x30,0xa6,0x52,0xbd,0x80,0x7a,0x85,0x3a,0xda,0x64,0x8e,0xbd,0xe8,0x9f,0x93,0xbd,0xfc,0xe4,0x22,0xbe,0x13,0x4f,0x3a,0xbe,0xb1,0xb5,0xaf,0xbd,0xb0,0x58,0xe0,0xbc,0x12,0x80,0x1c,0x3e,0x70,0x2c,0xe0,0x3d,0xf8,0xb3,0x17,0x3e,0x6c,0x71,0x1e,0xbe,0x38,0x3a,0x34,0xbe,0x2d,0x76,0x4d,0xbe,0xd4,0x42,0x64,0xbd,0xec,0xaa,0xf9,0x3d,0x14,0x2c,0xcd,0xbd,0x24,0x5e,0x3a,0xbd,0x0a,0xce,0x2e,0x3e,0xdc,0xa3,0x45,0x3e,0x04,0xac,0x28,0xbd,0xc0,0x09,0x79,0xbb,0x78,0x57,0xc3,0xbc,0x48,0x58,0xee,0x3d,0x08,0xcd,0x2c,0x3e,0xe7,0xc7,0x0d,0xbe,0xb2,0x02,0x15,0xbe,0x46,0x72,0x4d,0xbe,0xdd,0x04,0xa8,0xbd,0x34,0x96,0x30,0x3e,0x74,0x78,0x19,0x3e,0x48,0xf6,0x9a,0xbd,0xb8,0x2c,0x97,0x3c,0x14,0xa9,0x49,0xbe,0x0e,0x54,0x0b,0xbe,0xa8,0xc7,0xe6,0x3d,0x78,0x53,0x41,0x3d,0x18,0xcc,0x99,0x3c,0x50,0xe4,0x0d,0xbc,0x44,0x86,0xab,0x3d,0xf8,0x3f,0x08,0xbd,0x40,0x0d,0x33,0x3e,0x54,0x9e,0x3c,0xbd,0x60,0x31,0xd7,0x3b,0xc6,0xc2,0x48,0x3e,0x60,0x87,0xce,0xbb,0x6f,0x67,0x42,0xbe,0x74,0x67,0x0e,0xbd,0xba,0xbb,0x21,0x3e,0x18,0xad,0x44,0x3e,0xe5,0x3d,0xd4,0xbd,0x32,0x4b,0x12,0xbe,0xfa,0xc0,0xf6,0xbd,0x80,0x9d,0xb7,0xbc,0x90,0xe8,0xb6,0x3c,0x11,0x9f,0x1a,0xbe,0x00,0x3b,0x51,0xbb,0x62,0xef,0x33,0xbe,0xef,0x8f,0x16,0xbe,0x4a,0x1c,0x16,0x3e,0x05,0x81,0xcd,0xbd,0x08,0x29,0xb8,0xbc,0xf5,0x1c,0x18,0xbe,0x78,0x47,0xd7,0x3c,0xf0,0x0c,0x00,0x3e,0xd7,0x65,0x46,0xbe,0xbb,0x78,0x47,0xbe,0x60,0xd8,0x8e,0xbb,0xe0,0xc9,0xf6,0x3d,0x3e,0x3d,0xf5,0xbd,0x56,0x7e,0x32,0x3e,0xf4,0xe6,0x20,0x3e,0x98,0x99,0x75,0x3d,0xc0,0x77,0x57,0xbd,0x60,0x7a,0x22,0xbc,0xda,0x3f,0xf2,0xbd,0x1d,0x45,0x43,0xbe,0x3a,0x29,0x1e,0xbe,0x93,0xab,0xab,0xbd,0xae,0x1f,0x9f,0xbd,0x50,0x44,0x8b,0xbc,0xc6,0x4f,0x1b,0x3e,0x30,0x6c,0x3e,0x3e,0xb2,0x0a,0x9a,0xbd,0xb2,0xda,0x9a,0xbd,0xd2,0xee,0x27,0x3e,0x84,0xab,0x19,0xbd,0x80,0x13,0x32,0x3d,0x60,0x97,0x86,0xbb,0x0d,0x61,0xdf,0xbd,0xc4,0x75,0x2a,0x3d,0xe4,0x63,0xb9,0x3d,0x39,0xb0,0x37,0xbe,0x6c,0x1a,0x14,0x3d,0x0c,0x86,0xc4,0x3d,0xc5,0x7d,0x3e,0xbe,0x40,0x90,0x70,0x3d,0x58,0x98,0x15,0xbd,0xb8,0xce,0x30,0x3e,0x22,0x6d,0x2c,0xbe,0xd1,0x49,0xe4,0xbd,0x10,0x6b,0xad,0xbd,0x6c,0xa2,0x95,0xbd,0x30,0xf4,0x58,0x3d,0x78,0x81,0x7c,0xbd,0x3c,0x3c,0x92,0x3d,0x5a,0xf6,0x20,0xbe,0x78,0xe9,0xd6,0x3c,0xdb,0x02,0x37,0xbe,0x38,0xaa,0xcb,0xbc,0x23,0x18,0x12,0xbe,0x3c,0xdc,0xec,0x3d,0xbc,0x51,0xe3,0x3d,0x12,0xce,0xeb,0xbd,0xb4,0x44,0xcc,0xbd,0x28,0x0f,0xed,0x3d,0xaf,0xda,0xe7,0xbd,0xd2,0x87,0xe4,0xbd,0x2e,0x23,0x2b,0xbe,0xcc,0x0c,0x0b,0x3d,0x2c,0xf1,0x3f,0x3e,0xe2,0x2f,0x11,0xbe,0x7a,0x00,0x04,0x3e,0x0b,0x25,0x1d,0xbe,0x36,0xc7,0x12,0xbe,0x80,0xf5,0x43,0xbe,0x48,0xb6,0x93,0x3d,0x68,0xd3,0xf3,0xbd,0xf4,0xde,0x00,0xbe,0xac,0x82,0xc9,0x3d,0xb2,0xd9,0x17,0xbe,0x33,0xa9,0xc6,0xbd,0x56,0x04,0x21,0xbe,0x80,0xbe,0x17,0xbb,0xf4,0xb1,0x27,0x3e,0x54,0xed,0x91,0x3d,0x00,0x0b,0x68,0x3c,0x1c,0x74,0xa9,0x3d,0x23,0xd9,0xae,0xbd,0xf0,0x6a,0xbd,0x3d,0xb0,0xbd,0x4c,0x3e,0x08,0xd1,0x29,0xbd,0xfc,0xd5,0x3d,0xbd,0x22,0x2f,0x31,0x3e,0x88,0x87,0xf1,0x3d,0xcc,0xb5,0x3c,0x3e,0x40,0x19,0x0b,0x3c,0x9e,0x42,0x3d,0x3e,0x5e,0xf7,0x95,0xbd,0x18,0x3f,0x27,0x3d,0xc0,0xfd,0xe3,0x3d,0x56,0x6d,0x03,0x3e,0xfe,0x68,0x42,0x3e,0xb6,0x8c,0x4b,0xbe,0x22,0x9f,0x3d,0x3e,0x61,0x3b,0xd0,0xbd,0x88,0x7b,0x92,0x3c,0x00,0x22,0xc6,0xbb,0xe0,0x2c,0x03,0x3e,0x84,0xb5,0x91,0x3d,0xe0,0x0f,0x35,0x3e,0xc8,0x50,0x99,0x3c,0xac,0x62,0xec,0xbd,0xff,0x89,0xc6,0xbd,0xc0,0x54,0xa1,0x3c,0xa8,0x4d,0xce,0x3d,0xec,0xe3,0xba,0x3d,0xac,0x7a,0x34,0x3e,0x00,0x55,0xed,0x3d,0xc0,0x65,0x1d,0xbd,0x80,0x52,0x75,0xbc,0x66,0x88,0x27,0x3e,0xb8,0x16,0xf0,0x3d,0x54,0x39,0x8a,0x3d,0x16,0x9e,0x04,0x3e,0x50,0x23,0x2e,0xbc,0x47,0x25,0xee,0xbd,0x3b,0x8f,0x25,0xbe,0x40,0x4a,0x52,0xbc,0x08,0xfb,0x4e,0xbe,0xfc,0x57,0xf2,0x3d,0x30,0x88,0xd7,0x3d,0x3c,0xb0,0x50,0xbd,0x20,0xe6,0x7a,0x3d,0x08,0xb7,0x22,0xbe,0x48,0x63,0xb6,0xbd,0x68,0x82,0x08,0xbd,0x08,0x5c,0xdb,0x3d,0x75,0x4c,0x29,0xbe,0xb8,0xeb,0x3a,0x3e,0xf0,0x41,0x17,0xbc,0x96,0x11,0x39,0xbe,0xf8,0x50,0xb5,0x3d,0xf8,0x7a,0x21,0x3e,0xe0,0xf3,0xff,0x3d,0x84,0x80,0x30,0xbd,0xc4,0x85,0xa2,0x3d,0x1c,0x31,0xbb,0x3d,0xf8,0x9d,0x9b,0xbd,0xfa,0xb9,0x02,0x3e,0xa0,0xb0,0x2f,0xbe,0x02,0xeb,0x24,0x3e,0x60,0xd8,0xe3,0xbc,0x98,0xd0,0xf5,0xbd,0xe8,0x84,0xc3,0x3d,0xf8,0x2e,0x15,0xbd,0x00,0x70,0xf9,0x38,0x32,0x0b,0x4c,0x3e,0x70,0x95,0xbe,0x3c,0xee,0x1a,0x2e,0xbe,0x8c,0x59,0x33,0x3d,0xf8,0x2a,0xbf,0xbd,0xb2,0x88,0x97,0xbd,0x6e,0xb9,0x0a,0x3e,0x8c,0xbf,0x04,0x3e,0x52,0x12,0x4e,0x3e,0x04,0x4c,0x37,0xbd,0x92,0x67,0x4d,0x3e,0x44,0x28,0xd3,0x3d,0xb8,0x79,0xc7,0x3d,0xa3,0x2f,0x4e,0xbe,0x10,0x3a,0x1f,0xbe,0xa0,0x2d,0x4f,0x3d,0x86,0xfc,0x38,0xbe,0xe8,0x68,0xf1,0x3d,0x48,0xf9,0xfb,0x3c,0xfc,0x66,0x31,0xbe,0xba,0x3c,0x37,0x3e,0x60,0x92,0x54,0xbd,0x10,0x3a,0x36,0xbe,0x0c,0x06,0x9c,0x3d,0x90,0x5a,0x78,0x3d,0x41,0xc4,0x12,0xbe,0x0a,0xfa,0x3c,0x3e,0x2e,0x35,0x03,0xbe,0x00,0x28,0x1e,0x3e,0xc3,0x51,0xd8,0xbd,0xc0,0x9b,0x3c,0xbc,0x4e,0xc3,0x32,0x3e,0xde,0x4f,0x3e,0xbe,0x30,0x3c,0x76,0x3c,0xe5,0x39,0x49,0xbe,0xae,0x0c,0x4d,0x3e,0x74,0x04,0xcc,0x3d,0x51,0xfa,0x13,0xbe,0x74,0x73,0x9c,0xbd,0x78,0x05,0x51,0xbd,0xbc,0xb4,0xfc,0x3d,0x9c,0x4f,0x08,0xbe,0xf0,0xe3,0xa8,0xbc,0xd0,0xa4,0xfe,0x3d,0xe4,0x7e,0xf5,0xbd,0x34,0x24,0x33,0xbe,0x3f,0xf7,0x16,0xbe,0x04,0x4c,0x06,0xbd,0x3c,0x4d,0x88,0x3d,0x5a,0x4e,0x30,0xbe,0x5c,0x30,0xd9,0x3d,0x46,0x5d,0x2c,0x3e,0x02,0x0d,0x01,0x3e,0x00,0x27,0x19,0xbd,0xfc,0x28,0x6c,0xbd,0x84,0xe4,0x3c,0x3e,0xf8,0xc9,0xe3,0x3c,0x11,0xc1,0xde,0xbd,0x80,0xb8,0xff,0x3d,0xc8,0x6a,0xc8,0x3d,0xbc,0xbc,0x18,0xbe,0x44,0x4c,0x2e,0x3d,0x30,0xc4,0xb0,0x3c,0x30,0xcd,0x53,0xbd,0x84,0x15,0xa1,0x3d,0xc0,0x7d,0xec,0x3d,0x88,0xd7,0xfd,0xbc,0xd2,0x49,0x26,0x3e,0x20,0x40,0x00,0x3c,0xa2,0xcb,0x2f,0x3e,0xc4,0xcd,0xea,0xbd,0xc1,0xe1,0x1e,0xbe,0x84,0xdc,0xa9,0x3d,0xa8,0x31,0x48,0x3d,0x01,0x65,0xf1,0xbd,0x44,0xf9,0xa2,0xbd,0x50,0x96,0xb1,0xbc,0xb0,0x3a,0x4e,0x3e,0x30,0x87,0xa7,0x3c,0xec,0x06,0xd6,0x3d,0xec,0x34,0xc6,0x3d,0xc4,0x74,0x35,0x3e,0x48,0x81,0xf7,0x3d,0xca,0x04,0x23,0xbe,0xb9,0x1d,0xee,0xbd,0x86,0xa5,0x15,0xbe,0x80,0x18,0xd4,0x3c,0x8c,0xd2,0x28,0x3d,0xc8,0x36,0xc7,0xbc,0xd4,0x13,0xbe,0xbd,0xf0,0x73,0x4e,0x3e,0xa0,0x27,0xfb,0x3c,0x60,0x38,0xd7,0x3c,0xda,0x93,0x0e,0x3e,0xa0,0x67,0x22,0xbc,0xe4,0x01,0x03,0xbe,0xf8,0x77,0x9d,0xbc,0xfc,0xdb,0x8a,0x3d,0x24,0x16,0xd7,0x3d,0x51,0x3c,0x2a,0xbe,0x6c,0x5f,0x2f,0xbe,0x00,0xed,0x85,0x3d,0x6c,0x8f,0x66,0xbd,0x7f,0x84,0x1d,0xbe,0x78,0xbf,0x3f,0x3d,0xf0,0x52,0x32,0x3d,0xb0,0x76,0xeb,0xbc,0x36,0xd8,0x10,0x3e,0x68,0xfc,0x07,0x3d,0x9e,0x0e,0x0f,0x3e,0x74,0x36,0x87,0x3d,0x40,0x83,0x20,0x3e,0xe8,0x9e,0xe6,0xbd,0xc0,0x8e,0x7b,0x3b,0x98,0x65,0xc5,0xbc,0x32,0xd6,0x3d,0x3e,0xc8,0x0e,0x47,0xbd,0x08,0x69,0xbe,0x3d,0x98,0x6a,0x31,0x3e,0xde,0x98,0x1f,0xbe,0x69,0x43,0xca,0xbd,0x9c,0x34,0x25,0x3e,0x86,0xe0,0x09,0xbe,0x84,0x33,0xae,0x3d,0x8c,0x42,0xeb,0x3d,0xa0,0xd3,0x3d,0xbc,0x48,0xb5,0xbb,0x3d,0x52,0xd7,0x13,0xbe,0x00,0xe1,0xcf,0x3d,0x90,0x9c,0xf4,0x3d,0xb4,0x1b,0xdf,0x3d,0xc0,0x05,0x9a,0xbc,0x14,0x96,0x93,0xbd,0x70,0x6e,0xf5,0x3d,0xc0,0x54,0xd6,0xbd,0x54,0x10,0x25,0x3e,0x10,0xff,0xfe,0x3d,0x43,0xc9,0xdd,0xbd,0x80,0xd4,0x91,0x3d,0x54,0x5b,0x84,0x3d,0xfa,0x14,0xa3,0xbd,0xf6,0xb4,0xfd,0xbd,0xac,0x17,0x19,0x3e,0xa2,0xb9,0x99,0xbd,0x6e,0x13,0x05,0x3e,0x4a,0xc0,0xc7,0xbd,0x00,0x8e,0xa5,0x3c,0xa3,0x66,0x2d,0xbe,0x14,0xcb,0x89,0xbd,0xe8,0x18,0x1b,0x3e,0xea,0xf2,0x86,0xbd,0x3c,0x91,0x81,0x3d,0x4e,0x71,0x3b,0x3e,0x92,0xda,0x2b,0xbe,0x64,0x7b,0x0f,0x3e,0xde,0xf8,0x09,0x3e,0xda,0x48,0x06,0x3e,0x35,0xa2,0xe2,0xbd,0x7a,0xe4,0x33,0x3e,0x42,0x19,0x13,0xbe,0xde,0xe3,0x8c,0xbd,0x48,0xab,0x13,0x3d,0x1c,0x38,0x80,0xbd,0xde,0xa8,0x03,0x3e,0x78,0x02,0xcb,0xbd,0x70,0x80,0x07,0x3c,0xf6,0x13,0x4e,0x3e,0x74,0x9f,0xa4,0x3d,0x0a,0x39,0x1c,0x3e,0x48,0xc9,0x58,0x3d,0x8e,0xff,0x48,0x3e,0x4e,0xb8,0x22,0xbe,0xf2,0x0b,0xfe,0xbd,0x3c,0xc8,0x8c,0x3d,0xd8,0xc3,0x1b,0x3e,0xc0,0x6a,0xef,0xbb,0x6c,0x23,0x2b,0x3d,0x5e,0xe9,0x23,0xbe,0xc0,0x5c,0xf2,0x3b,0x80,0x27,0x22,0xbd,0x3e,0x73,0xa0,0xbd,0x84,0x41,0x4e,0xbd,0x87,0x70,0x23,0xbe,0x2e,0xfb,0x11,0x3e,0xf8,0x29,0x0a,0x3d,0x40,0x3d,0x1e,0xbd,0x33,0xd8,0x22,0xbe,0x98,0xdf,0xa2,0x3d,0xc6,0x78,0x2a,0x3e,0x0a,0x78,0x97,0xbd,0x18,0x19,0xb4,0x3d,0xa4,0xbb,0xb4,0x3d,0x92,0xbd,0x08,0x3e,0x84,0x64,0x3c,0x3e,0x2a,0xfc,0x34,0x3e,0x00,0x32,0x53,0xbb,0x26,0xcc,0x24,0xbe,0xf4,0x26,0x56,0xbd,0xdc,0x28,0xb2,0x3d,0x50,0x7d,0xa3,0x3c,0xe0,0x72,0xf3,0x3d,0xb0,0x6f,0x84,0x3c,0xf6,0x36,0x80,0xbd,0x90,0xda,0x94,0xbd,0xcd,0x80,0x29,0xbe,0xd3,0x26,0x4d,0xbe,0x42,0xf8,0xc3,0xbd,0xa3,0xd2,0x34,0xbe,0x68,0x2b,0x60,0xbd,0xef,0xb3,0x45,0xbe,0xab,0xdb,0x07,0xbe,0xb0,0x89,0x02,0xbe,0x62,0x1b,0x34,0xbe,0xf4,0xea,0xfd,0xbd,0x14,0xc7,0x10,0xbe,0x3c,0x4d,0x9d,0x3d,0x70,0x2c,0x8e,0x3d,0x60,0x59,0xcd,0x3d,0x07,0x3e,0x44,0xbe,0x2c,0xa1,0x36,0xbe,0x4e,0xa9,0x3b,0x3e,0x9e,0x7c,0x24,0xbe,0x40,0xe6,0x89,0x3c,0x04,0xff,0xbb,0x3d,0x40,0xe5,0xc2,0xbb,0x3c,0xda,0x23,0xbd,0x98,0x52,0x29,0xbe,0x58,0xe4,0xb4,0x3d,0xa0,0x5e,0x0e,0x3e,0xbe,0xe7,0x25,0xbe,0x68,0xa8,0x89,0x3d,0x5b,0xd5,0xe6,0xbd,0xd8,0xa0,0x94,0xbc,0x77,0x88,0xf4,0xbd,0x58,0x26,0xff,0x3d,0xc3,0x9c,0x38,0xbe,0x1a,0x3b,0x14,0x3e,0x60,0x47,0x93,0xbc,0x11,0x27,0xb6,0xbd,0x0a,0xfd,0x11,0x3e,0xec,0x32,0x4c,0x3e,0x52,0xf9,0xf3,0xbd,0xd8,0x01,0xfe,0x3d,0x40,0xdc,0xca,0xbc,0xfe,0xa3,0x4b,0x3e,0x06,0x06,0x91,0xbd,0xf8,0xce,0x31,0x3d,0x7c,0xd6,0x36,0x3d,0xd8,0x07,0x52,0x3d,0x78,0xd5,0xe0,0x3d,0x62,0xb0,0x14,0xbe,0x9c,0xa8,0x4c,0x3e,0xb8,0xa5,0xa0,0xbc,0x44,0xd9,0x13,0x3d,0xde,0xd4,0x96,0xbd,0x21,0xe6,0xac,0xbd,0xf8,0x4a,0x2d,0xbd,0xce,0x18,0x04,0x3e,0x00,0xc7,0xfc,0xbb,0x70,0x3c,0xc9,0x3c,0x7c,0x14,0x02,0x3e,0x9c,0x8f,0xe0,0x3d,0x00,0xa7,0x11,0xbd,0x78,0xde,0xc8,0x3d,0xd9,0x98,0x13,0xbe,0xa6,0xd7,0x8b,0xbd,0x00,0x8a,0xbb,0x3a,0x9a,0xdb,0x30,0x3e,0xbc,0xab,0x2c,0x3e,0x2c,0xfc,0xe1,0x3d,0xdc,0x00,0x1d,0xbd,0x5f,0xf9,0x2b,0xbe,0x6c,0xbd,0x35,0x3e,0x95,0x92,0xa6,0xbd,0xac,0x30,0xfc,0x3d,0x20,0x90,0x51,0x3d,0x46,0xe5,0x4c,0xbe,0x91,0xf4,0x29,0xbe,0x78,0xb4,0x40,0xbd,0x74,0xf2,0x87,0x3d,0x24,0x74,0x81,0xbd,0x90,0x8a,0x27,0xbc,0xb0,0x8e,0x9b,0x3d,0xf8,0xef,0xc8,0x3d,0xe7,0x3e,0xab,0xbd,0x3c,0xc2,0xe1,0xbd,0x33,0x9e,0x2c,0xbe,0x82,0x41,0x1c,0x3e,0xe4,0x42,0x8a,0x3d,0x18,0x0b,0xf0,0x3d,0x75,0x16,0x03,0xbe,0xb4,0x93,0xdc,0x3d,0xd8,0x71,0xbb,0x3d,0xd9,0x85,0x50,0xbe,0x81,0x1a,0xde,0xbd,0x44,0x66,0x2b,0x3d,0x6e,0xf7,0x14,0x3e,0x9c,0xbf,0x9f,0x3d,0xd0,0x0e,0x44,0x3d,0x79,0x73,0x48,0xbe,0xd0,0x4e,0x1c,0x3d,0xc6,0x37,0x37,0xbe,0x14,0x77,0xf6,0x3d,0xd4,0xcd,0xe5,0x3d,0xac,0x67,0x40,0xbd,0xa0,0x30,0x43,0x3e,0xd8,0xc5,0x4a,0x3d,0xfc,0x3b,0x50,0xbd,0x94,0x1c,0x12,0xbe,0x6c,0x2e,0xe0,0x3d,0xce,0xd8,0x91,0xbd,0xc2,0xeb,0x19,0x3e,0x7a,0x8b,0x0f,0xbe,0x88,0xf5,0x8d,0x3d,0xe8,0x7e,0xe0,0x3d,0x70,0x8f,0x8e,0xbd,0x30,0xb4,0x7c,0x3d,0x5e,0x3e,0x3e,0x3e,0x1a,0x96,0x3d,0xbe,0x50,0x4c,0x0c,0x3d,0xac,0xfb,0x0d,0xbd,0x4c,0x0c,0xec,0x3d,0x38,0x7b,0x06,0x3e,0x25,0xd1,0x42,0xbe,0x4c,0x5b,0x09,0xbd,0xf2,0xfe,0xe6,0xbd,0xa4,0x89,0x46,0x3e,0x5c,0x5b,0xa2,0x3d,0x1d,0xb3,0x1d,0xbe,0x34,0xc3,0xec,0x3d,0xe8,0x9d,0x25,0x3d,0xf2,0x62,0x82,0xbd,0x92,0xc9,0x38,0xbe,0x18,0xca,0x71,0xbd,0xf0,0x6d,0xea,0xbc,0xd8,0xa5,0xf0,0xbd,0x28,0xd3,0x96,0x3d,0x74,0x8e,0x80,0xbd,0xd8,0x59,0x93,0x3c,0x64,0x17,0x1e,0xbe,0x00,0xb7,0x02,0x3a,0x9a,0xe0,0x31,0xbe,0x22,0x73,0x33,0x3e,0x6e,0x39,0x47,0x3e,0x24,0x41,0x80,0x3d,0xe8,0x6b,0xb0,0xbc,0x20,0x12,0xd6,0xbc,0x82,0x60,0x02,0x3e,0x48,0xe6,0x13,0xbd,0xd7,0x4b,0x2b,0xbe,0x88,0x99,0x2a,0xbd,0x7c,0x5f,0x20,0x3d,0x38,0xe1,0xae,0xbc,0xa1,0x78,0x2c,0xbe,0xda,0xfc,0xb9,0xbd,0x38,0xe8,0x3e,0xbd,0x3c,0x4b,0xa1,0x3d,0xca,0x87,0x18,0x3e,0xde,0x8d,0x20,0xbe,0x17,0x62,0xbc,0xbd,0x38,0xa6,0x8e,0x3c,0xb0,0xe7,0xda,0x3d,0x24,0xc8,0x5c,0xbd,0x64,0xd0,0x86,0x3d,0x2e,0xb4,0x2d,0xbe,0x08,0xef,0x0d,0xbe,0xc4,0xde,0x39,0xbd,0xd8,0x26,0xe8,0xbc,0xb2,0x4e,0x48,0x3e,0x4b,0x60,0x1c,0xbe,0xa4,0xe0,0x58,0xbd,0x6c,0xea,0x0e,0xbe,0xde,0xa4,0x4a,0x3e,0x56,0x39,0x49,0x3e,0x41,0xce,0xd6,0xbd,0xae,0x87,0x00,0x3e,0x38,0xb2,0x0a,0xbd,0x97,0xd7,0xd7,0xbd,0x67,0x4d,0xa9,0xbd,0x28,0x26,0x16,0x3e,0xaa,0xf1,0x38,0x3e,0x30,0x8a,0x1b,0xbd,0x20,0x71,0x30,0x3e,0xb4,0x46,0x1a,0x3e,0xb6,0x11,0x43,0xbe,0x00,0x97,0xff,0xba,0xbe,0xfd,0x0d,0xbe,0xe2,0x0a,0x37,0x3e,0xbc,0x96,0x3f,0xbe,0x40,0xfb,0x73,0x3d,0x40,0x8b,0xaa,0xbb,0xd0,0xff,0x4c,0x3d,0x46,0x57,0x4f,0x3e,0x59,0xcd,0xb7,0xbd,0xa0,0xa6,0x66,0x3d,0x22,0x30,0x2e,0x3e,0x18,0xc7,0xfa,0x3d,0x46,0xfe,0x45,0x3e,0xe8,0x92,0xec,0xbc,0xe0,0xd2,0x16,0x3c,0xa0,0x4f,0xdb,0x3c,0x80,0xc4,0x0b,0x3c,0x38,0x95,0x9c,0x3d,0x3c,0xde,0xbb,0x3d,0x18,0x28,0xeb,0x3d,0xa0,0xfa,0x0d,0x3e,0x9c,0x5d,0x44,0xbd,0x30,0x56,0xec,0x3d,0xe0,0x27,0x27,0x3d,0xfc,0xe7,0x3a,0x3d,0xbe,0xda,0x37,0x3e,0xf4,0x6d,0xcf,0xbd,0xc2,0x3f,0x30,0xbe,0x2c,0xb6,0x4e,0xbd,0xb8,0x4a,0xbb,0x3c,0x44,0xbc,0x45,0xbe,0xd0,0xa1,0x96,0x3d,0x4a,0x7f,0x3e,0xbe,0x11,0x02,0xff,0xbd,0xaf,0x26,0xf6,0xbd,0xe8,0xfd,0x4e,0x3d,0x66,0x9f,0x3f,0x3e,0xc0,0x65,0x23,0x3e,0x54,0x98,0x2d,0x3e,0x96,0x12,0x41,0xbe,0xa4,0x1f,0xe4,0x3d,0x20,0x9c,0x98,0xbb,0xfe,0x11,0x88,0xbd,0xc5,0xbb,0x31,0xbe,0xee,0x1a,0x4f,0x3e,0xa4,0x42,0x02,0x3d,0xa4,0x12,0xe8,0xbd,0xd8,0x03,0xa6,0x3d,0xc0,0x13,0x61,0xbc,0x06,0x5b,0x05,0x3e,0xa8,0xf9,0xbf,0x3c,0x68,0xf9,0x4c,0x3e,0x7c,0x82,0x02,0xbd,0x12,0xe1,0x93,0xbd,0xb4,0x17,0x29,0x3e,0xca,0xed,0x00,0xbe,0x74,0x56,0x19,0x3e,0x91,0x96,0x32,0xbe,0x40,0x88,0xf1,0x3d,0x22,0xda,0x1b,0xbe,0x08,0xfd,0x6f,0x3d,0xd3,0xb5,0x1f,0xbe,0xe0,0x69,0x21,0xbc,0xce,0x8e,0x10,0x3e,0x20,0x6d,0xc5,0x3c,0xe4,0x89,0x3d,0x3e,0xfc,0x62,0x85,0x3d,0x70,0xdf,0x71,0x3c,0x50,0xa9,0x43,0x3d,0x4a,0xb6,0x46,0x3e,0xde,0x1d,0x24,0xbe,0x86,0x57,0xf5,0xbd,0x1e,0x5d,0x1d,0x3e,0xe6,0xcf,0x80,0xbd,0xb4,0xec,0x89,0x3d,0xe0,0xa3,0x85,0xbd,0x7a,0x36,0x3b,0x3e,0x98,0xe8,0x33,0x3e,0x8e,0x18,0xf3,0xbd,0x78,0x68,0x53,0x3d,0x60,0x9b,0x09,0xbe,0xb4,0x14,0x05,0xbe,0x2c,0x79,0x8c,0x3d,0xc0,0x67,0xb9,0x3c,0x3d,0x5d,0x1e,0xbe,0x4f,0x45,0xb4,0xbd,0x45,0x67,0xcf,0xbd,0xee,0x1b,0x48,0xbe,0x88,0x96,0xa6,0x3c,0xb8,0x3c,0x43,0xbe,0xe3,0xd2,0xa4,0xbd,0x50,0xf1,0xce,0x3d,0x50,0x27,0xa0,0x3d,0xda,0x05,0x41,0xbe,0xe0,0xdd,0xd3,0xbb,0x20,0x13,0xe9,0x3c,0xc8,0x06,0x0f,0x3e,0xe0,0x2c,0x9f,0xbb,0x74,0x3d,0x05,0xbe,0x98,0x76,0x38,0xbe,0xa9,0x70,0x3c,0xbe,0xa0,0xa0,0x8b,0xbb,0xc0,0xde,0x12,0xbb,0xa8,0xcf,0x61,0x3d,0xb4,0xa7,0x8e,0x3d,0x84,0x5e,0x0b,0x3e,0xc4,0xb2,0xe5,0x3d,0x6c,0xa8,0x41,0x3e,0x32,0x4e,0x82,0xbd,0x5c,0xa6,0x20,0x3e,0x97,0xaa,0x27,0xbe,0xf2,0x24,0x13,0xbe,0xad,0x7b,0x43,0xbe,0x64,0x2f,0x90,0xbd,0x92,0x08,0x9b,0xbd,0xbc,0xe7,0x1b,0xbe,0x51,0x2e,0xfd,0xbd,0x80,0x76,0x07,0x3d,0x30,0xd9,0x44,0x3e,0x88,0x66,0x29,0xbe,0xf0,0x78,0x8c,0xbd,0xc8,0x1e,0xfc,0xbd,0x24,0x60,0x21,0x3e,0x30,0xef,0xbd,0x3d,0xd0,0xd3,0x30,0x3c,0xf8,0xbb,0xa7,0xbc,0x38,0xa2,0x21,0x3d,0xcd,0xf2,0x21,0xbe,0x6a,0xe2,0x8d,0xbd,0x70,0xfe,0x94,0x3d,0x88,0x6f,0xad,0x3d,0x9e,0x85,0x38,0x3e,0xdc,0xd6,0x15,0xbd,0x00,0xe1,0x5f,0x3d,0xb3,0xcb,0xc5,0xbd,0x44,0x05,0x18,0x3e,0xa0,0xf2,0x0b,0xbc,0xf3,0xab,0x0d,0xbe,0xa4,0xa5,0x35,0x3e,0x1b,0xee,0x4a,0xbe,0xd0,0x08,0x76,0x3d,0x48,0xd5,0x20,0x3e,0x28,0x64,0x15,0x3e,0x18,0xa3,0xb6,0x3d,0xcf,0x97,0x11,0xbe,0xf2,0xfb,0x23,0x3e,0xdc,0x88,0x2b,0xbe,0xa4,0xd9,0xa7,0xbd,0x7f,0xb1,0x45,0xbe,0xe8,0x61,0x54,0x3d,0x00,0x7b,0x9a,0x3b,0xac,0x72,0x08,0xbe,0x8a,0x0c,0x05,0x3e,0x5a,0x46,0x30,0xbe,0x40,0x22,0x44,0xbd,0x2b,0x68,0xdf,0xbd,0xcc,0xb2,0x05,0x3e,0xd8,0xb0,0x5f,0x3d,0x70,0x6f,0x13,0xbe,0x2c,0x79,0xe3,0x3d,0x82,0x95,0x31,0x3e,0x26,0x76,0xa0,0xbd,0xfa,0xa9,0x10,0x3e,0x5c,0x26,0xaa,0x3d,0xe8,0x60,0x1f,0x3e,0xfc,0xa7,0x5c,0xbd,0x10,0x83,0x17,0x3e,0x40,0xce,0x5d,0x3c,0x2c,0xcc,0xd1,0x3d,0x50,0x44,0x05,0x3e,0x5e,0x38,0x92,0xbd,0x44,0xa8,0x13,0xbd,0xe6,0xd3,0x39,0xbe,0x56,0x9f,0xc2,0xbd,0xc4,0x73,0x37,0x3d,0x84,0x95,0xcb,0x3d,0xdc,0x66,0x23,0xbd,0x65,0x7d,0x40,0xbe,0x00,0x9f,0xc5,0x3d,0x1c,0x1e,0xc8,0x3d,0x1b,0x26,0xe0,0xbd,0x6a,0xd4,0x41,0x3e,0x04,0xbc,0xf2,0x3d,0xf8,0x70,0x2a,0x3e,0x59,0x6e,0xa7,0xbd,0x40,0x97,0xa9,0x3d,0xb8,0x8d,0xa1,0x3d,0xd4,0x26,0x3a,0x3e,0x4c,0x99,0xb7,0xbd,0x18,0x18,0xfb,0x3d,0xd8,0x3d,0x1e,0xbe,0xac,0xd1,0x8d,0xbd,0x64,0xa1,0x40,0xbd,0x04,0xdc,0x9c,0x3d,0x45,0xe4,0xa2,0xbd,0x1c,0xa0,0x00,0x3e,0x48,0x00,0x7f,0xbd,0xfa,0x5d,0x1b,0x3e,0x24,0x59,0xfc,0x3d,0xd8,0x20,0xc0,0x3d,0xfe,0x59,0x3b,0xbe,0x88,0x9e,0x9a,0x3c,0xf0,0x8c,0xa3,0xbc,0x54,0xfe,0x9e,0x3d,0x64,0x93,0x0d,0xbe,0x4c,0x29,0x2b,0xbd,0xee,0x38,0x1d,0x3e,0xfa,0x55,0x32,0x3e,0x94,0x49,0xb0,0x3d,0xd8,0x14,0x1a,0x3d,0xdc,0x03,0x52,0xbd,0x20,0xa0,0x26,0xbd,0xc4,0x17,0xf1,0x3d,0x30,0xc3,0xb9,0xbd,0x6c,0xbc,0x23,0xbe,0x6c,0x3a,0x3c,0xbd,0xb9,0x38,0x4d,0xbe,0x7e,0x92,0x8e,0xbd,0x68,0xc2,0xce,0x3c,0xb6,0xae,0x3d,0x3e,0x50,0x56,0xa7,0xbd,0xc0,0xd6,0x86,0x3d,0x7c,0x53,0xee,0xbd,0x1a,0xfa,0x00,0xbe,0xc8,0x61,0x1d,0xbe,0xc8,0xe2,0x2e,0xbe,0xb4,0xca,0x2a,0xbe,0xf2,0xa5,0x47,0x3e,0xab,0x94,0x3f,0xbe,0xb0,0x54,0x80,0xbd,0x2a,0x3d,0xac,0xbd,0x90,0x5b,0x76,0x3d,0xbc,0x97,0x3e,0xbe,0xda,0xf0,0x1b,0x3e,0xf0,0xbf,0xc5,0x3d,0x14,0xdb,0xe4,0x3d,0xda,0x45,0x35,0xbe,0x60,0x9b,0x9d,0x3c,0xb3,0x61,0x0d,0xbe,0xb3,0xa1,0xa2,0xbd,0x84,0x2d,0xe4,0x3d,0x90,0x13,0x3d,0x3c,0x1d,0x75,0x38,0xbe,0x64,0x26,0x9f,0xbd,0x88,0x6a,0xd2,0x3d,0xec,0xd3,0xa0,0xbd,0xa2,0x9a,0x49,0x3e,0x2f,0xa3,0x20,0xbe,0x1a,0x69,0xa3,0xbd,0x18,0x28,0x02,0x3e,0x70,0x02,0x51,0x3e,0x74,0xa5,0xeb,0x3d,0x10,0x2f,0x24,0xbe,0x44,0x4d,0x15,0xbe,0x30,0x9c,0x59,0x3d,0xa9,0x95,0x25,0xbe,0xa6,0xed,0x45,0xbe,0x58,0x8e,0xd6,0x3d,0x61,0xda,0x3a,0xbe,0xe0,0xe6,0x98,0x3b,0x98,0x1f,0x2d,0xbd,0xa0,0x8d,0x83,0xbd,0x00,0xae,0xe4,0xbc,0xe0,0x47,0x66,0xbd,0x34,0xd7,0x2b,0x3e,0x88,0x58,0xc2,0xbd,0x00,0xf0,0xe0,0xb8,0x00,0x0c,0xd1,0xb9,0x23,0x86,0xda,0xbd,0xe9,0x82,0xe8,0xbd,0x44,0xfa,0xe8,0x3d,0xeb,0x70,0xbc,0xbd,0x6d,0xd8,0x3f,0xbe,0x98,0x74,0xda,0xbc,0x5e,0x01,0x31,0xbe,0x7a,0xd4,0x21,0x3e,0x70,0xca,0x87,0xbc,0xc0,0xc5,0xa0,0x3c,0x60,0xe9,0xd0,0x3d,0xb8,0x6e,0x47,0x3e,0xe0,0xc3,0x30,0x3c,0x70,0xcd,0x6a,0xbc,0x84,0x6f,0xe0,0xbd,0x20,0x7f,0x53,0x3c,0x8e,0xc4,0x25,0xbe,0x10,0x37,0x0b,0xbd,0x58,0x9b,0x42,0xbe,0x9a,0xce,0xf5,0xbd,0x2b,0x01,0xb9,0xbd,0x84,0x5b,0xf9,0xbd,0xd0,0x6b,0xa1,0x3d,0x02,0xf2,0xdd,0xbd,0x9e,0x38,0x17,0x3e,0x36,0x5c,0x3c,0x3e,0xd0,0x1a,0x71,0x3d,0x26,0x94,0x0c,0xbe,0x1b,0x83,0x50,0xbe,0xb1,0x07,0x3b,0xbe,0x9a,0x04,0x2b,0x3e,0x3e,0x93,0x43,0x3e,0xeb,0xec,0x42,0xbe,0xd8,0x8a,0xfc,0x3d,0xd0,0x74,0xb5,0x3d,0x3c,0xc0,0x45,0x3e,0xbc,0x23,0x8f,0x3d,0x96,0xfe,0x94,0xbd,0x84,0x67,0x48,0x3e,0xad,0x4d,0xe2,0xbd,0xa4,0xa4,0x11,0xbe,0xec,0xb2,0xd8,0xbd,0x70,0x9c,0x1a,0x3d,0x70,0x4b,0x17,0xbe,0x8c,0xf0,0xd9,0x3d,0x68,0x8b,0xb5,0xbc,0x54,0x02,0x19,0x3e,0x48,0x25,0x57,0x3d,0x24,0xcc,0xa7,0x3d,0x3d,0x38,0xac,0xbd,0x54,0xb1,0x18,0xbe,0x40,0x2a,0x25,0x3e,0x44,0x7c,0x34,0x3e,0x2c,0x94,0x88,0xbd,0xfc,0x77,0x0e,0x3e,0xf7,0x8f,0x14,0xbe,0x7c,0xb5,0x41,0x3e,0xe4,0x37,0x0a,0x3e,0xec,0x98,0x69,0xbd,0x56,0x35,0x30,0x3e,0xd0,0x02,0xe4,0x3d,0x5c,0x7e,0x97,0x3d,0x18,0x16,0x6c,0x3d,0xb0,0x0d,0x3f,0x3d,0xae,0x89,0x12,0xbe,0xb0,0xfc,0x6f,0x3d,0x82,0x3d,0x31,0xbe,0x10,0x3c,0xb2,0xbc,0xec,0x0b,0x87,0xbd,0x10,0xd9,0x80,0x3d,0x4e,0xf6,0x43,0x3e,0x78,0x9d,0x74,0x3d,0xd8,0x7d,0xf5,0x3c,0xbd,0xbe,0x05,0xbe,0x5e,0x99,0x06,0xbe,0xa0,0xf3,0x24,0xbd,0xcc,0x14,0x36,0x3e,0x3c,0x2e,0x93,0x3d,0xb6,0x71,0x3b,0x3e,0x60,0x60,0x03,0xbe,0x0c,0x32,0xac,0x3d,0xfa,0x89,0x35,0x3e,0x64,0xbf,0x37,0xbd,0x00,0x0a,0x72,0x3d,0xea,0xc7,0x0a,0x3e,0x6c,0x9c,0xc4,0xbd,0x50,0x53,0x1c,0x3d,0xec,0x9c,0x09,0x3d,0xf2,0x2a,0xfe,0xbd,0xa0,0xcc,0x39,0x3e,0x00,0x94,0x4b,0x3d,0x38,0x3d,0x4c,0x3d,0xb0,0x92,0xc5,0x3c,0xa4,0x74,0xc8,0x3d,0x24,0xd1,0xa8,0x3d,0x00,0xf0,0xf5,0x3d,0x0c,0x49,0x4f,0xbe,0xd8,0x5f,0x90,0xbd,0x2e,0x87,0x44,0x3e,0x4a,0x82,0x42,0x3e,0xb8,0x01,0x91,0x3d,0x28,0x8c,0x7f,0x3d,0xa0,0x27,0xbf,0x3d,0x34,0x9a,0x2c,0x3e,0x26,0xfd,0x22,0x3e,0x2e,0x5b,0x05,0xbe,0xe4,0x67,0xb0,0xbd,0x00,0x78,0x84,0x38,0x90,0x59,0x30,0x3e,0xfc,0x33,0x1f,0xbd,0x60,0x37,0xeb,0xbd,0x40,0xe6,0x8f,0x3b,0x1e,0xda,0x29,0xbe,0x54,0xbe,0xfd,0x3d,0x28,0x72,0x40,0x3e,0x62,0x7a,0x1c,0xbe,0xca,0x32,0xa9,0xbd,0xe1,0xb4,0x40,0xbe,0xe2,0xfd,0xff,0xff,0x04,0x00,0x00,0x00,0x0c,0x00,0x00,0x00,0xff,0xff,0xff,0xff,0x3e,0x00,0x00,0x00,0x10,0x00,0x00,0x00,0xfa,0xfd,0xff,0xff,0x04,0x00,0x00,0x00,0x0c,0x00,0x00,0x00,0xff,0xff,0xff,0xff,0x1f,0x00,0x00,0x00,0x10,0x00,0x00,0x00,0x12,0xfe,0xff,0xff,0x04,0x00,0x00,0x00,0x0c,0x00,0x00,0x00,0xff,0xff,0xff,0xff,0x1d,0x00,0x00,0x00,0x20,0x00,0x00,0x00,0x70,0xee,0xff,0xff,0x74,0xee,0xff,0xff,0x0f,0x00,0x00,0x00,0x4d,0x4c,0x49,0x52,0x20,0x43,0x6f,0x6e,0x76,0x65,0x72,0x74,0x65,0x64,0x2e,0x00,0x01,0x00,0x00,0x00,0x14,0x00,0x00,0x00,0x00,0x00,0x0e,0x00,0x18,0x00,0x14,0x00,0x10,0x00,0x0c,0x00,0x08,0x00,0x04,0x00,0x0e,0x00,0x00,0x00,0x14,0x00,0x00,0x00,0x1c,0x00,0x00,0x00,0x60,0x04,0x00,0x00,0x64,0x04,0x00,0x00,0x68,0x04,0x00,0x00,0x04,0x00,0x00,0x00,0x6d,0x61,0x69,0x6e,0x00,0x00,0x00,0x00,0x12,0x00,0x00,0x00,0x18,0x04,0x00,0x00,0xb4,0x03,0x00,0x00,0x7c,0x03,0x00,0x00,0x40,0x03,0x00,0x00,0xec,0x02,0x00,0x00,0xc4,0x02,0x00,0x00,0x94,0x02,0x00,0x00,0x4c,0x02,0x00,0x00,0x24,0x02,0x00,0x00,0xf0,0x01,0x00,0x00,0xb8,0x01,0x00,0x00,0x6c,0x01,0x00,0x00,0x30,0x01,0x00,0x00,0xec,0x00,0x00,0x00,0xb8,0x00,0x00,0x00,0x74,0x00,0x00,0x00,0x40,0x00,0x00,0x00,0x04,0x00,0x00,0x00,0x9e,0xfc,0xff,0xff,0x14,0x00,0x00,0x00,0x00,0x00,0x00,0x0a,0x14,0x00,0x00,0x00,0x18,0x00,0x00,0x00,0x08,0x00,0x00,0x00,0xe6,0xfe,0xff,0xff,0x01,0x00,0x00,0x00,0x01,0x00,0x00,0x00,0x21,0x00,0x00,0x00,0x03,0x00,0x00,0x00,0x1c,0x00,0x00,0x00,0x1e,0x00,0x00,0x00,0x20,0x00,0x00,0x00,0xd6,0xfc,0xff,0xff,0x14,0x00,0x00,0x00,0x00,0x00,0x00,0x09,0x14,0x00,0x00,0x00,0x18,0x00,0x00,0x00,0x07,0x00,0x00,0x00,0x1e,0xff,0xff,0xff,0x00,0x00,0x80,0x3f,0x01,0x00,0x00,0x00,0x20,0x00,0x00,0x00,0x01,0x00,0x00,0x00,0x1f,0x00,0x00,0x00,0x06,0xfd,0xff,0xff,0x14,0x00,0x00,0x00,0x00,0x00,0x00,0x20,0x18,0x00,0x00,0x00,0x1c,0x00,0x00,0x00,0x06,0x00,0x00,0x00,0x18,0xff,0xff,0xff,0x01,0x00,0x00,0x00,0x01,0x00,0x00,0x00,0x01,0x00,0x00,0x00,0x1f,0x00,0x00,0x00,0x04,0x00,0x00,0x00,0x1a,0x00,0x00,0x00,0x08,0x00,0x00,0x00,0x07,0x00,0x00,0x00,0x0d,0x00,0x00,0x00,0x46,0xfd,0xff,0xff,0x14,0x00,0x00,0x00,0x00,0x00,0x00,0x09,0x14,0x00,0x00,0x00,0x18,0x00,0x00,0x00,0x07,0x00,0x00,0x00,0x8e,0xff,0xff,0xff,0x00,0x00,0x80,0x3f,0x01,0x00,0x00,0x00,0x1e,0x00,0x00,0x00,0x01,0x00,0x00,0x00,0x1d,0x00,0x00,0x00,0x76,0xfd,0xff,0xff,0x14,0x00,0x00,0x00,0x00,0x00,0x00,0x20,0x18,0x00,0x00,0x00,0x1c,0x00,0x00,0x00,0x06,0x00,0x00,0x00,0x88,0xff,0xff,0xff,0x01,0x00,0x00,0x00,0x01,0x00,0x00,0x00,0x01,0x00,0x00,0x00,0x1d,0x00,0x00,0x00,0x04,0x00,0x00,0x00,0x1a,0x00,0x00,0x00,0x09,0x00,0x00,0x00,0x08,0x00,0x00,0x00,0x0d,0x00,0x00,0x00,0xb6,0xfd,0xff,0xff,0x1c,0x00,0x00,0x00,0x00,0x00,0x00,0x09,0x1c,0x00,0x00,0x00,0x20,0x00,0x00,0x00,0x07,0x00,0x00,0x00,0x00,0x00,0x06,0x00,0x08,0x00,0x04,0x00,0x06,0x00,0x00,0x00,0x00,0x00,0x80,0x3f,0x01,0x00,0x00,0x00,0x1c,0x00,0x00,0x00,0x01,0x00,0x00,0x00,0x1b,0x00,0x00,0x00,0xee,0xfd,0xff,0xff,0x1c,0x00,0x00,0x00,0x00,0x00,0x00,0x20,0x20,0x00,0x00,0x00,0x24,0x00,0x00,0x00,0x06,0x00,0x00,0x00,0x08,0x00,0x0c,0x00,0x08,0x00,0x04,0x00,0x08,0x00,0x00,0x00,0x01,0x00,0x00,0x00,0x01,0x00,0x00,0x00,0x01,0x00,0x00,0x00,0x1b,0x00,0x00,0x00,0x04,0x00,0x00,0x00,0x1a,0x00,0x00,0x00,0x0a,0x00,0x00,0x00,0x09,0x00,0x00,0x00,0x0d,0x00,0x00,0x00,0x36,0xfe,0xff,0xff,0x14,0x00,0x00,0x00,0x00,0x00,0x00,0x08,0x10,0x00,0x00,0x00,0x14,0x00,0x00,0x00,0x05,0x00,0x00,0x00,0xc4,0xf0,0xff,0xff,0x01,0x00,0x00,0x00,0x1a,0x00,0x00,0x00,0x03,0x00,0x00,0x00,0x19,0x00,0x00,0x00,0x06,0x00,0x00,0x00,0xff,0xff,0xff,0xff,0x6a,0xfe,0xff,0xff,0x14,0x00,0x00,0x00,0x00,0x00,0x00,0x1b,0x10,0x00,0x00,0x00,0x14,0x00,0x00,0x00,0x04,0x00,0x00,0x00,0xf8,0xf0,0xff,0xff,0x01,0x00,0x00,0x00,0x19,0x00,0x00,0x00,0x02,0x00,0x00,0x00,0x18,0x00,0x00,0x00,0x0e,0x00,0x00,0x00,0xca,0xfe,0xff,0xff,0x0c,0x00,0x00,0x00,0x10,0x00,0x00,0x00,0x02,0x00,0x00,0x00,0x01,0x00,0x00,0x00,0x18,0x00,0x00,0x00,0x02,0x00,0x00,0x00,0x17,0x00,0x00,0x00,0x01,0x00,0x00,0x00,0xbe,0xfe,0xff,0xff,0x14,0x00,0x00,0x00,0x00,0x00,0x00,0x01,0x20,0x00,0x00,0x00,0x24,0x00,0x00,0x00,0x01,0x00,0x00,0x00,0xb0,0xfe,0xff,0xff,0x00,0x00,0x00,0x01,0x01,0x00,0x00,0x00,0x01,0x00,0x00,0x00,0x00,0x00,0x00,0x01,0x01,0x00,0x00,0x00,0x17,0x00,0x00,0x00,0x03,0x00,0x00,0x00,0x16,0x00,0x00,0x00,0x04,0x00,0x00,0x00,0x0c,0x00,0x00,0x00,0xa2,0xfe,0xff,0xff,0x10,0x00,0x00,0x00,0x00,0x00,0x00,0x34,0x0c,0x00,0x00,0x00,0x10,0x00,0x00,0x00,0x8c,0xf1,0xff,0xff,0x01,0x00,0x00,0x00,0x16,0x00,0x00,0x00,0x02,0x00,0x00,0x00,0x15,0x00,0x00,0x00,0x0f,0x00,0x00,0x00,0x5e,0xff,0xff,0xff,0x0c,0x00,0x00,0x00,0x10,0x00,0x00,0x00,0x02,0x00,0x00,0x00,0x01,0x00,0x00,0x00,0x15,0x00,0x00,0x00,0x02,0x00,0x00,0x00,0x14,0x00,0x00,0x00,0x02,0x00,0x00,0x00,0x52,0xff,0xff,0xff,0x24,0x00,0x00,0x00,0x00,0x00,0x00,0x05,0x34,0x00,0x00,0x00,0x38,0x00,0x00,0x00,0x03,0x00,0x00,0x00,0x00,0x00,0x0e,0x00,0x18,0x00,0x17,0x00,0x10,0x00,0x0c,0x00,0x08,0x00,0x04,0x00,0x0e,0x00,0x00,0x00,0x01,0x00,0x00,0x00,0x02,0x00,0x00,0x00,0x01,0x00,0x00,0x00,0x02,0x00,0x00,0x00,0x00,0x00,0x00,0x01,0x01,0x00,0x00,0x00,0x14,0x00,0x00,0x00,0x01,0x00,0x00,0x00,0x13,0x00,0x00,0x00,0x42,0xff,0xff,0xff,0x10,0x00,0x00,0x00,0x00,0x00,0x00,0x34,0x0c,0x00,0x00,0x00,0x10,0x00,0x00,0x00,0x2c,0xf2,0xff,0xff,0x01,0x00,0x00,0x00,0x13,0x00,0x00,0x00,0x02,0x00,0x00,0x00,0x12,0x00,0x00,0x00,0x0e,0x00,0x00,0x00,0x00,0x00,0x0a,0x00,0x10,0x00,0x0c,0x00,0x08,0x00,0x04,0x00,0x0a,0x00,0x00,0x00,0x0c,0x00,0x00,0x00,0x10,0x00,0x00,0x00,0x02,0x00,0x00,0x00,0x01,0x00,0x00,0x00,0x12,0x00,0x00,0x00,0x02,0x00,0x00,0x00,0x11,0x00,0x00,0x00,0x03,0x00,0x00,0x00,0x00,0x00,0x0e,0x00,0x18,0x00,0x14,0x00,0x10,0x00,0x0c,0x00,0x0b,0x00,0x04,0x00,0x0e,0x00,0x00,0x00,0x20,0x00,0x00,0x00,0x00,0x00,0x00,0x01,0x2c,0x00,0x00,0x00,0x30,0x00,0x00,0x00,0x01,0x00,0x00,0x00,0x0c,0x00,0x14,0x00,0x13,0x00,0x0c,0x00,0x08,0x00,0x07,0x00,0x0c,0x00,0x00,0x00,0x00,0x00,0x00,0x01,0x01,0x00,0x00,0x00,0x01,0x00,0x00,0x00,0x00,0x00,0x00,0x01,0x01,0x00,0x00,0x00,0x11,0x00,0x00,0x00,0x03,0x00,0x00,0x00,0x10,0x00,0x00,0x00,0x05,0x00,0x00,0x00,0x0b,0x00,0x00,0x00,0x00,0x00,0x0e,0x00,0x14,0x00,0x00,0x00,0x10,0x00,0x0c,0x00,0x0b,0x00,0x04,0x00,0x0e,0x00,0x00,0x00,0x10,0x00,0x00,0x00,0x00,0x00,0x00,0x34,0x0c,0x00,0x00,0x00,0x10,0x00,0x00,0x00,0xf8,0xf2,0xff,0xff,0x01,0x00,0x00,0x00,0x10,0x00,0x00,0x00,0x02,0x00,0x00,0x00,0x00,0x00,0x00,0x00,0x0f,0x00,0x00,0x00,0x01,0x00,0x00,0x00,0x21,0x00,0x00,0x00,0x01,0x00,0x00,0x00,0x00,0x00,0x00,0x00,0x22,0x00,0x00,0x00,0xb0,0x0c,0x00,0x00,0x58,0x0c,0x00,0x00,0x00,0x0c,0x00,0x00,0xc0,0x0b,0x00,0x00,0x78,0x0b,0x00,0x00,0x18,0x0b,0x00,0x00,0xd8,0x0a,0x00,0x00,0x98,0x0a,0x00,0x00,0x58,0x0a,0x00,0x00,0x18,0x0a,0x00,0x00,0xd8,0x09,0x00,0x00,0x98,0x09,0x00,0x00,0x58,0x09,0x00,0x00,0x14,0x09,0x00,0x00,0xd4,0x08,0x00,0x00,0x94,0x08,0x00,0x00,0x14,0x08,0x00,0x00,0x5c,0x07,0x00,0x00,0xcc,0x06,0x00,0x00,0x48,0x06,0x00,0x00,0xd0,0x05,0x00,0x00,0x58,0x05,0x00,0x00,0xd8,0x04,0x00,0x00,0x18,0x04,0x00,0x00,0x84,0x03,0x00,0x00,0x14,0x03,0x00,0x00,0xb8,0x02,0x00,0x00,0x50,0x02,0x00,0x00,0xf0,0x01,0x00,0x00,0x88,0x01,0x00,0x00,0x28,0x01,0x00,0x00,0xc0,0x00,0x00,0x00,0x60,0x00,0x00,0x00,0x04,0x00,0x00,0x00,0xee,0xf3,0xff,0xff,0x00,0x00,0x00,0x01,0x14,0x00,0x00,0x00,0x1c,0x00,0x00,0x00,0x1c,0x00,0x00,0x00,0x22,0x00,0x00,0x00,0x34,0x00,0x00,0x00,0x02,0x00,0x00,0x00,0xff,0xff,0xff,0xff,0x09,0x00,0x00,0x00,0xd4,0xf3,0xff,0xff,0x1b,0x00,0x00,0x00,0x53,0x74,0x61,0x74,0x65,0x66,0x75,0x6c,0x50,0x61,0x72,0x74,0x69,0x74,0x69,0x6f,0x6e,0x65,0x64,0x43,0x61,0x6c,0x6c,0x5f,0x31,0x3a,0x30,0x00,0x02,0x00,0x00,0x00,0x01,0x00,0x00,0x00,0x09,0x00,0x00,0x00,0x46,0xf4,0xff,0xff,0x00,0x00,0x00,0x01,0x14,0x00,0x00,0x00,0x1c,0x00,0x00,0x00,0x1c,0x00,0x00,0x00,0x21,0x00,0x00,0x00,0x38,0x00,0x00,0x00,0x02,0x00,0x00,0x00,0xff,0xff,0xff,0xff,0x03,0x00,0x00,0x00,0x2c,0xf4,0xff,0xff,0x1e,0x00,0x00,0x00,0x73,0x65,0x71,0x75,0x65,0x6e,0x74,0x69,0x61,0x6c,0x5f,0x31,0x2f,0x64,0x65,0x6e,0x73,0x65,0x5f,0x31,0x2f,0x53,0x6f,0x66,0x74,0x6d,0x61,0x78,0x5f,0x32,0x00,0x00,0x02,0x00,0x00,0x00,0x01,0x00,0x00,0x00,0x03,0x00,0x00,0x00,0xa2,0xf4,0xff,0xff,0x00,0x00,0x00,0x01,0x14,0x00,0x00,0x00,0x1c,0x00,0x00,0x00,0x1c,0x00,0x00,0x00,0x20,0x00,0x00,0x00,0x40,0x00,0x00,0x00,0x02,0x00,0x00,0x00,0xff,0xff,0xff,0xff,0x03,0x00,0x00,0x00,0x88,0xf4,0xff,0xff,0x24,0x00,0x00,0x00,0x73,0x65,0x71,0x75,0x65,0x6e,0x74,0x69,0x61,0x6c,0x5f,0x31,0x2f,0x64,0x65,0x6e,0x73,0x65,0x5f,0x31,0x2f,0x73,0x74,0x72,0x69,0x64,0x65,0x64,0x5f,0x73,0x6c,0x69,0x63,0x65,0x5f,0x38,0x00,0x00,0x00,0x00,0x02,0x00,0x00,0x00,0x01,0x00,0x00,0x00,0x03,0x00,0x00,0x00,0x06,0xf5,0xff,0xff,0x00,0x00,0x00,0x01,0x14,0x00,0x00,0x00,0x1c,0x00,0x00,0x00,0x1c,0x00,0x00,0x00,0x1f,0x00,0x00,0x00,0x38,0x00,0x00,0x00,0x02,0x00,0x00,0x00,0xff,0xff,0xff,0xff,0x02,0x00,0x00,0x00,0xec,0xf4,0xff,0xff,0x1e,0x00,0x00,0x00,0x73,0x65,0x71,0x75,0x65,0x6e,0x74,0x69,0x61,0x6c,0x5f,0x31,0x2f,0x64,0x65,0x6e,0x73,0x65,0x5f,0x31,0x2f,0x53,0x6f,0x66,0x74,0x6d,0x61,0x78,0x5f,0x31,0x00,0x00,0x02,0x00,0x00,0x00,0x01,0x00,0x00,0x00,0x02,0x00,0x00,0x00,0x62,0xf5,0xff,0xff,0x00,0x00,0x00,0x01,0x14,0x00,0x00,0x00,0x1c,0x00,0x00,0x00,0x1c,0x00,0x00,0x00,0x1e,0x00,0x00,0x00,0x40,0x00,0x00,0x00,0x02,0x00,0x00,0x00,0xff,0xff,0xff,0xff,0x02,0x00,0x00,0x00,0x48,0xf5,0xff,0xff,0x24,0x00,0x00,0x00,0x73,0x65,0x71,0x75,0x65,0x6e,0x74,0x69,0x61,0x6c,0x5f,0x31,0x2f,0x64,0x65,0x6e,0x73,0x65,0x5f,0x31,0x2f,0x73,0x74,0x72,0x69,0x64,0x65,0x64,0x5f,0x73,0x6c,0x69,0x63,0x65,0x5f,0x35,0x00,0x00,0x00,0x00,0x02,0x00,0x00,0x00,0x01,0x00,0x00,0x00,0x02,0x00,0x00,0x00,0xc6,0xf5,0xff,0xff,0x00,0x00,0x00,0x01,0x14,0x00,0x00,0x00,0x1c,0x00,0x00,0x00,0x1c,0x00,0x00,0x00,0x1d,0x00,0x00,0x00,0x38,0x00,0x00,0x00,0x02,0x00,0x00,0x00,0xff,0xff,0xff,0xff,0x04,0x00,0x00,0x00,0xac,0xf5,0xff,0xff,0x1c,0x00,0x00,0x00,0x73,0x65,0x71,0x75,0x65,0x6e,0x74,0x69,0x61,0x6c,0x5f,0x31,0x2f,0x64,0x65,0x6e,0x73,0x65,0x5f,0x31,0x2f,0x53,0x6f,0x66,0x74,0x6d,0x61,0x78,0x00,0x00,0x00,0x00,0x02,0x00,0x00,0x00,0x01,0x00,0x00,0x00,0x04,0x00,0x00,0x00,0x22,0xf6,0xff,0xff,0x00,0x00,0x00,0x01,0x14,0x00,0x00,0x00,0x1c,0x00,0x00,0x00,0x1c,0x00,0x00,0x00,0x1c,0x00,0x00,0x00,0x40,0x00,0x00,0x00,0x02,0x00,0x00,0x00,0xff,0xff,0xff,0xff,0x04,0x00,0x00,0x00,0x08,0xf6,0xff,0xff,0x24,0x00,0x00,0x00,0x73,0x65,0x71,0x75,0x65,0x6e,0x74,0x69,0x61,0x6c,0x5f,0x31,0x2f,0x64,0x65,0x6e,0x73,0x65,0x5f,0x31,0x2f,0x73,0x74,0x72,0x69,0x64,0x65,0x64,0x5f,0x73,0x6c,0x69,0x63,0x65,0x5f,0x32,0x00,0x00,0x00,0x00,0x02,0x00,0x00,0x00,0x01,0x00,0x00,0x00,0x04,0x00,0x00,0x00,0x86,0xf6,0xff,0xff,0x00,0x00,0x00,0x01,0x14,0x00,0x00,0x00,0x1c,0x00,0x00,0x00,0x1c,0x00,0x00,0x00,0x1b,0x00,0x00,0x00,0x34,0x00,0x00,0x00,0x02,0x00,0x00,0x00,0xff,0xff,0xff,0xff,0x09,0x00,0x00,0x00,0x6c,0xf6,0xff,0xff,0x1b,0x00,0x00,0x00,0x73,0x65,0x71,0x75,0x65,0x6e,0x74,0x69,0x61,0x6c,0x5f,0x31,0x2f,0x64,0x65,0x6e,0x73,0x65,0x5f,0x31,0x2f,0x4d,0x61,0x74,0x4d,0x75,0x6c,0x00,0x02,0x00,0x00,0x00,0x01,0x00,0x00,0x00,0x09,0x00,0x00,0x00,0xde,0xf6,0xff,0xff,0x00,0x00,0x00,0x01,0x14,0x00,0x00,0x00,0x1c,0x00,0x00,0x00,0x1c,0x00,0x00,0x00,0x1a,0x00,0x00,0x00,0x48,0x00,0x00,0x00,0x02,0x00,0x00,0x00,0xff,0xff,0xff,0xff,0x20,0x00,0x00,0x00,0xc4,0xf6,0xff,0xff,0x2c,0x00,0x00,0x00,0x73,0x65,0x71,0x75,0x65,0x6e,0x74,0x69,0x61,0x6c,0x5f,0x31,0x2f,0x67,0x6c,0x6f,0x62,0x61,0x6c,0x5f,0x61,0x76,0x65,0x72,0x61,0x67,0x65,0x5f,0x70,0x6f,0x6f,0x6c,0x69,0x6e,0x67,0x31,0x64,0x5f,0x31,0x2f,0x4d,0x65,0x61,0x6e,0x00,0x00,0x00,0x00,0x02,0x00,0x00,0x00,0x01,0x00,0x00,0x00,0x20,0x00,0x00,0x00,0x4a,0xf7,0xff,0xff,0x00,0x00,0x00,0x01,0x14,0x00,0x00,0x00,0x20,0x00,0x00,0x00,0x20,0x00,0x00,0x00,0x19,0x00,0x00,0x00,0x68,0x00,0x00,0x00,0x03,0x00,0x00,0x00,0xff,0xff,0xff,0xff,0x1d,0x00,0x00,0x00,0x20,0x00,0x00,0x00,0x34,0xf7,0xff,0xff,0x48,0x00,0x00,0x00,0x73,0x65,0x71,0x75,0x65,0x6e,0x74,0x69,0x61,0x6c,0x5f,0x31,0x2f,0x63,0x6f,0x6e,0x76,0x31,0x64,0x5f,0x31,0x5f,0x32,0x2f,0x52,0x65,0x6c,0x75,0x3b,0x73,0x65,0x71,0x75,0x65,0x6e,0x74,0x69,0x61,0x6c,0x5f,0x31,0x2f,0x63,0x6f,0x6e,0x76,0x31,0x64,0x5f,0x31,0x5f,0x32,0x2f,0x63,0x6f,0x6e,0x76,0x6f,0x6c,0x75,0x74,0x69,0x6f,0x6e,0x2f,0x53,0x71,0x75,0x65,0x65,0x7a,0x65,0x00,0x00,0x00,0x00,0x03,0x00,0x00,0x00,0x01,0x00,0x00,0x00,0x1d,0x00,0x00,0x00,0x20,0x00,0x00,0x00,0xda,0xf7,0xff,0xff,0x00,0x00,0x00,0x01,0x14,0x00,0x00,0x00,0x24,0x00,0x00,0x00,0x24,0x00,0x00,0x00,0x18,0x00,0x00,0x00,0x90,0x00,0x00,0x00,0x04,0x00,0x00,0x00,0xff,0xff,0xff,0xff,0x01,0x00,0x00,0x00,0x1d,0x00,0x00,0x00,0x20,0x00,0x00,0x00,0xc8,0xf7,0xff,0xff,0x6c,0x00,0x00,0x00,0x73,0x65,0x71,0x75,0x65,0x6e,0x74,0x69,0x61,0x6c,0x5f,0x31,0x2f,0x63,0x6f,0x6e,0x76,0x31,0x64,0x5f,0x31,0x5f,0x32,0x2f,0x52,0x65,0x6c,0x75,0x3b,0x73,0x65,0x71,0x75,0x65,0x6e,0x74,0x69,0x61,0x6c,0x5f,0x31,0x2f,0x63,0x6f,0x6e,0x76,0x31,0x64,0x5f,0x31,0x5f,0x32,0x2f,0x63,0x6f,0x6e,0x76,0x6f,0x6c,0x75,0x74,0x69,0x6f,0x6e,0x2f,0x53,0x71,0x75,0x65,0x65,0x7a,0x65,0x3b,0x73,0x65,0x71,0x75,0x65,0x6e,0x74,0x69,0x61,0x6c,0x5f,0x31,0x2f,0x63,0x6f,0x6e,0x76,0x31,0x64,0x5f,0x31,0x5f,0x32,0x2f,0x63,0x6f,0x6e,0x76,0x6f,0x6c,0x75,0x74,0x69,0x6f,0x6e,0x00,0x00,0x00,0x00,0x04,0x00,0x00,0x00,0x01,0x00,0x00,0x00,0x01,0x00,0x00,0x00,0x1d,0x00,0x00,0x00,0x20,0x00,0x00,0x00,0x96,0xf8,0xff,0xff,0x00,0x00,0x00,0x01,0x14,0x00,0x00,0x00,0x24,0x00,0x00,0x00,0x24,0x00,0x00,0x00,0x17,0x00,0x00,0x00,0x50,0x00,0x00,0x00,0x04,0x00,0x00,0x00,0xff,0xff,0xff,0xff,0x01,0x00,0x00,0x00,0x1f,0x00,0x00,0x00,0x10,0x00,0x00,0x00,0x84,0xf8,0xff,0xff,0x2e,0x00,0x00,0x00,0x73,0x65,0x71,0x75,0x65,0x6e,0x74,0x69,0x61,0x6c,0x5f,0x31,0x2f,0x63,0x6f,0x6e,0x76,0x31,0x64,0x5f,0x31,0x5f,0x32,0x2f,0x63,0x6f,0x6e,0x76,0x6f,0x6c,0x75,0x74,0x69,0x6f,0x6e,0x2f,0x45,0x78,0x70,0x61,0x6e,0x64,0x44,0x69,0x6d,0x73,0x00,0x00,0x04,0x00,0x00,0x00,0x01,0x00,0x00,0x00,0x01,0x00,0x00,0x00,0x1f,0x00,0x00,0x00,0x10,0x00,0x00,0x00,0x12,0xf9,0xff,0xff,0x00,0x00,0x00,0x01,0x14,0x00,0x00,0x00,0x20,0x00,0x00,0x00,0x20,0x00,0x00,0x00,0x16,0x00,0x00,0x00,0x4c,0x00,0x00,0x00,0x03,0x00,0x00,0x00,0xff,0xff,0xff,0xff,0x1f,0x00,0x00,0x00,0x10,0x00,0x00,0x00,0xfc,0xf8,0xff,0xff,0x2e,0x00,0x00,0x00,0x73,0x65,0x71,0x75,0x65,0x6e,0x74,0x69,0x61,0x6c,0x5f,0x31,0x2f,0x6d,0x61,0x78,0x5f,0x70,0x6f,0x6f,0x6c,0x69,0x6e,0x67,0x31,0x64,0x5f,0x31,0x2f,0x4d,0x61,0x78,0x50,0x6f,0x6f,0x6c,0x31,0x64,0x2f,0x53,0x71,0x75,0x65,0x65,0x7a,0x65,0x00,0x00,0x03,0x00,0x00,0x00,0x01,0x00,0x00,0x00,0x1f,0x00,0x00,0x00,0x10,0x00,0x00,0x00,0x86,0xf9,0xff,0xff,0x00,0x00,0x00,0x01,0x14,0x00,0x00,0x00,0x24,0x00,0x00,0x00,0x24,0x00,0x00,0x00,0x15,0x00,0x00,0x00,0x48,0x00,0x00,0x00,0x04,0x00,0x00,0x00,0xff,0xff,0xff,0xff,0x01,0x00,0x00,0x00,0x1f,0x00,0x00,0x00,0x10,0x00,0x00,0x00,0x74,0xf9,0xff,0xff,0x26,0x00,0x00,0x00,0x73,0x65,0x71,0x75,0x65,0x6e,0x74,0x69,0x61,0x6c,0x5f,0x31,0x2f,0x6d,0x61,0x78,0x5f,0x70,0x6f,0x6f,0x6c,0x69,0x6e,0x67,0x31,0x64,0x5f,0x31,0x2f,0x4d,0x61,0x78,0x50,0x6f,0x6f,0x6c,0x31,0x64,0x00,0x00,0x04,0x00,0x00,0x00,0x01,0x00,0x00,0x00,0x01,0x00,0x00,0x00,0x1f,0x00,0x00,0x00,0x10,0x00,0x00,0x00,0xfa,0xf9,0xff,0xff,0x00,0x00,0x00,0x01,0x14,0x00,0x00,0x00,0x24,0x00,0x00,0x00,0x24,0x00,0x00,0x00,0x14,0x00,0x00,0x00,0x54,0x00,0x00,0x00,0x04,0x00,0x00,0x00,0xff,0xff,0xff,0xff,0x01,0x00,0x00,0x00,0x3e,0x00,0x00,0x00,0x10,0x00,0x00,0x00,0xe8,0xf9,0xff,0xff,0x31,0x00,0x00,0x00,0x73,0x65,0x71,0x75,0x65,0x6e,0x74,0x69,0x61,0x6c,0x5f,0x31,0x2f,0x6d,0x61,0x78,0x5f,0x70,0x6f,0x6f,0x6c,0x69,0x6e,0x67,0x31,0x64,0x5f,0x31,0x2f,0x4d,0x61,0x78,0x50,0x6f,0x6f,0x6c,0x31,0x64,0x2f,0x45,0x78,0x70,0x61,0x6e,0x64,0x44,0x69,0x6d,0x73,0x00,0x00,0x00,0x04,0x00,0x00,0x00,0x01,0x00,0x00,0x00,0x01,0x00,0x00,0x00,0x3e,0x00,0x00,0x00,0x10,0x00,0x00,0x00,0x7a,0xfa,0xff,0xff,0x00,0x00,0x00,0x01,0x14,0x00,0x00,0x00,0x20,0x00,0x00,0x00,0x20,0x00,0x00,0x00,0x13,0x00,0x00,0x00,0x64,0x00,0x00,0x00,0x03,0x00,0x00,0x00,0xff,0xff,0xff,0xff,0x3e,0x00,0x00,0x00,0x10,0x00,0x00,0x00,0x64,0xfa,0xff,0xff,0x44,0x00,0x00,0x00,0x73,0x65,0x71,0x75,0x65,0x6e,0x74,0x69,0x61,0x6c,0x5f,0x31,0x2f,0x63,0x6f,0x6e,0x76,0x31,0x64,0x5f,0x31,0x2f,0x52,0x65,0x6c,0x75,0x3b,0x73,0x65,0x71,0x75,0x65,0x6e,0x74,0x69,0x61,0x6c,0x5f,0x31,0x2f,0x63,0x6f,0x6e,0x76,0x31,0x64,0x5f,0x31,0x2f,0x63,0x6f,0x6e,0x76,0x6f,0x6c,0x75,0x74,0x69,0x6f,0x6e,0x2f,0x53,0x71,0x75,0x65,0x65,0x7a,0x65,0x00,0x00,0x00,0x00,0x03,0x00,0x00,0x00,0x01,0x00,0x00,0x00,0x3e,0x00,0x00,0x00,0x10,0x00,0x00,0x00,0x06,0xfb,0xff,0xff,0x00,0x00,0x00,0x01,0x14,0x00,0x00,0x00,0x24,0x00,0x00,0x00,0x24,0x00,0x00,0x00,0x12,0x00,0x00,0x00,0x88,0x00,0x00,0x00,0x04,0x00,0x00,0x00,0xff,0xff,0xff,0xff,0x01,0x00,0x00,0x00,0x3e,0x00,0x00,0x00,0x10,0x00,0x00,0x00,0xf4,0xfa,0xff,0xff,0x66,0x00,0x00,0x00,0x73,0x65,0x71,0x75,0x65,0x6e,0x74,0x69,0x61,0x6c,0x5f,0x31,0x2f,0x63,0x6f,0x6e,0x76,0x31,0x64,0x5f,0x31,0x2f,0x52,0x65,0x6c,0x75,0x3b,0x73,0x65,0x71,0x75,0x65,0x6e,0x74,0x69,0x61,0x6c,0x5f,0x31,0x2f,0x63,0x6f,0x6e,0x76,0x31,0x64,0x5f,0x31,0x2f,0x63,0x6f,0x6e,0x76,0x6f,0x6c,0x75,0x74,0x69,0x6f,0x6e,0x2f,0x53,0x71,0x75,0x65,0x65,0x7a,0x65,0x3b,0x73,0x65,0x71,0x75,0x65,0x6e,0x74,0x69,0x61,0x6c,0x5f,0x31,0x2f,0x63,0x6f,0x6e,0x76,0x31,0x64,0x5f,0x31,0x2f,0x63,0x6f,0x6e,0x76,0x6f,0x6c,0x75,0x74,0x69,0x6f,0x6e,0x00,0x00,0x04,0x00,0x00,0x00,0x01,0x00,0x00,0x00,0x01,0x00,0x00,0x00,0x3e,0x00,0x00,0x00,0x10,0x00,0x00,0x00,0xba,0xfb,0xff,0xff,0x00,0x00,0x00,0x01,0x14,0x00,0x00,0x00,0x24,0x00,0x00,0x00,0x24,0x00,0x00,0x00,0x11,0x00,0x00,0x00,0x50,0x00,0x00,0x00,0x04,0x00,0x00,0x00,0xff,0xff,0xff,0xff,0x01,0x00,0x00,0x00,0x40,0x00,0x00,0x00,0x06,0x00,0x00,0x00,0xa8,0xfb,0xff,0xff,0x2c,0x00,0x00,0x00,0x73,0x65,0x71,0x75,0x65,0x6e,0x74,0x69,0x61,0x6c,0x5f,0x31,0x2f,0x63,0x6f,0x6e,0x76,0x31,0x64,0x5f,0x31,0x2f,0x63,0x6f,0x6e,0x76,0x6f,0x6c,0x75,0x74,0x69,0x6f,0x6e,0x2f,0x45,0x78,0x70,0x61,0x6e,0x64,0x44,0x69,0x6d,0x73,0x00,0x00,0x00,0x00,0x04,0x00,0x00,0x00,0x01,0x00,0x00,0x00,0x01,0x00,0x00,0x00,0x40,0x00,0x00,0x00,0x06,0x00,0x00,0x00,0x8a,0xfc,0xff,0xff,0x00,0x00,0x00,0x01,0x14,0x00,0x00,0x00,0x14,0x00,0x00,0x00,0x10,0x00,0x00,0x00,0x00,0x00,0x00,0x02,0x20,0x00,0x00,0x00,0x10,0xfc,0xff,0xff,0x10,0x00,0x00,0x00,0x61,0x72,0x69,0x74,0x68,0x2e,0x63,0x6f,0x6e,0x73,0x74,0x61,0x6e,0x74,0x31,0x34,0x00,0x00,0x00,0x00,0x00,0x00,0x00,0x00,0xc6,0xfc,0xff,0xff,0x00,0x00,0x00,0x01,0x14,0x00,0x00,0x00,0x14,0x00,0x00,0x00,0x0f,0x00,0x00,0x00,0x00,0x00,0x00,0x02,0x20,0x00,0x00,0x00,0x4c,0xfc,0xff,0xff,0x10,0x00,0x00,0x00,0x61,0x72,0x69,0x74,0x68,0x2e,0x63,0x6f,0x6e,0x73,0x74,0x61,0x6e,0x74,0x31,0x33,0x00,0x00,0x00,0x00,0x00,0x00,0x00,0x00,0x02,0xfd,0xff,0xff,0x00,0x00,0x00,0x01,0x14,0x00,0x00,0x00,0x14,0x00,0x00,0x00,0x0e,0x00,0x00,0x00,0x00,0x00,0x00,0x02,0x20,0x00,0x00,0x00,0x88,0xfc,0xff,0xff,0x10,0x00,0x00,0x00,0x61,0x72,0x69,0x74,0x68,0x2e,0x63,0x6f,0x6e,0x73,0x74,0x61,0x6e,0x74,0x31,0x32,0x00,0x00,0x00,0x00,0x01,0x00,0x00,0x00,0x02,0x00,0x00,0x00,0x16,0xfe,0xff,0xff,0x00,0x00,0x00,0x01,0x10,0x00,0x00,0x00,0x10,0x00,0x00,0x00,0x0d,0x00,0x00,0x00,0x20,0x00,0x00,0x00,0xc4,0xfc,0xff,0xff,0x10,0x00,0x00,0x00,0x61,0x72,0x69,0x74,0x68,0x2e,0x63,0x6f,0x6e,0x73,0x74,0x61,0x6e,0x74,0x31,0x31,0x00,0x00,0x00,0x00,0x01,0x00,0x00,0x00,0x20,0x00,0x00,0x00,0x52,0xfe,0xff,0xff,0x00,0x00,0x00,0x01,0x10,0x00,0x00,0x00,0x10,0x00,0x00,0x00,0x0c,0x00,0x00,0x00,0x20,0x00,0x00,0x00,0x00,0xfd,0xff,0xff,0x10,0x00,0x00,0x00,0x61,0x72,0x69,0x74,0x68,0x2e,0x63,0x6f,0x6e,0x73,0x74,0x61,0x6e,0x74,0x31,0x30,0x00,0x00,0x00,0x00,0x01,0x00,0x00,0x00,0x10,0x00,0x00,0x00,0xba,0xfd,0xff,0xff,0x00,0x00,0x00,0x01,0x14,0x00,0x00,0x00,0x14,0x00,0x00,0x00,0x0b,0x00,0x00,0x00,0x00,0x00,0x00,0x02,0x1c,0x00,0x00,0x00,0x40,0xfd,0xff,0xff,0x0f,0x00,0x00,0x00,0x61,0x72,0x69,0x74,0x68,0x2e,0x63,0x6f,0x6e,0x73,0x74,0x61,0x6e,0x74,0x39,0x00,0x01,0x00,0x00,0x00,0x02,0x00,0x00,0x00,0xf6,0xfd,0xff,0xff,0x00,0x00,0x00,0x01,0x14,0x00,0x00,0x00,0x14,0x00,0x00,0x00,0x0a,0x00,0x00,0x00,0x00,0x00,0x00,0x02,0x1c,0x00,0x00,0x00,0x7c,0xfd,0xff,0xff,0x0f,0x00,0x00,0x00,0x61,0x72,0x69,0x74,0x68,0x2e,0x63,0x6f,0x6e,0x73,0x74,0x61,0x6e,0x74,0x38,0x00,0x01,0x00,0x00,0x00,0x02,0x00,0x00,0x00,0x32,0xfe,0xff,0xff,0x00,0x00,0x00,0x01,0x14,0x00,0x00,0x00,0x14,0x00,0x00,0x00,0x09,0x00,0x00,0x00,0x00,0x00,0x00,0x02,0x1c,0x00,0x00,0x00,0xb8,0xfd,0xff,0xff,0x0f,0x00,0x00,0x00,0x61,0x72,0x69,0x74,0x68,0x2e,0x63,0x6f,0x6e,0x73,0x74,0x61,0x6e,0x74,0x37,0x00,0x01,0x00,0x00,0x00,0x02,0x00,0x00,0x00,0x6e,0xfe,0xff,0xff,0x00,0x00,0x00,0x01,0x14,0x00,0x00,0x00,0x14,0x00,0x00,0x00,0x08,0x00,0x00,0x00,0x00,0x00,0x00,0x02,0x1c,0x00,0x00,0x00,0xf4,0xfd,0xff,0xff,0x0f,0x00,0x00,0x00,0x61,0x72,0x69,0x74,0x68,0x2e,0x63,0x6f,0x6e,0x73,0x74,0x61,0x6e,0x74,0x36,0x00,0x01,0x00,0x00,0x00,0x02,0x00,0x00,0x00,0x7e,0xff,0xff,0xff,0x00,0x00,0x00,0x01,0x10,0x00,0x00,0x00,0x10,0x00,0x00,0x00,0x07,0x00,0x00,0x00,0x1c,0x00,0x00,0x00,0x2c,0xfe,0xff,0xff,0x0f,0x00,0x00,0x00,0x61,0x72,0x69,0x74,0x68,0x2e,0x63,0x6f,0x6e,0x73,0x74,0x61,0x6e,0x74,0x35,0x00,0x02,0x00,0x00,0x00,0x09,0x00,0x00,0x00,0x20,0x00,0x00,0x00,0xba,0xff,0xff,0xff,0x00,0x00,0x00,0x01,0x10,0x00,0x00,0x00,0x10,0x00,0x00,0x00,0x06,0x00,0x00,0x00,0x1c,0x00,0x00,0x00,0x68,0xfe,0xff,0xff,0x0f,0x00,0x00,0x00,0x61,0x72,0x69,0x74,0x68,0x2e,0x63,0x6f,0x6e,0x73,0x74,0x61,0x6e,0x74,0x34,0x00,0x04,0x00,0x00,0x00,0x10,0x00,0x00,0x00,0x01,0x00,0x00,0x00,0x03,0x00,0x00,0x00,0x06,0x00,0x00,0x00,0x00,0x00,0x16,0x00,0x18,0x00,0x14,0x00,0x00,0x00,0x10,0x00,0x0c,0x00,0x08,0x00,0x00,0x00,0x00,0x00,0x00,0x00,0x07,0x00,0x16,0x00,0x00,0x00,0x00,0x00,0x00,0x01,0x10,0x00,0x00,0x00,0x10,0x00,0x00,0x00,0x05,0x00,0x00,0x00,0x1c,0x00,0x00,0x00,0xc4,0xfe,0xff,0xff,0x0f,0x00,0x00,0x00,0x61,0x72,0x69,0x74,0x68,0x2e,0x63,0x6f,0x6e,0x73,0x74,0x61,0x6e,0x74,0x33,0x00,0x04,0x00,0x00,0x00,0x20,0x00,0x00,0x00,0x01,0x00,0x00,0x00,0x03,0x00,0x00,0x00,0x10,0x00,0x00,0x00,0x86,0xff,0xff,0xff,0x00,0x00,0x00,0x01,0x14,0x00,0x00,0x00,0x14,0x00,0x00,0x00,0x04,0x00,0x00,0x00,0x00,0x00,0x00,0x02,0x1c,0x00,0x00,0x00,0x0c,0xff,0xff,0xff,0x0f,0x00,0x00,0x00,0x61,0x72,0x69,0x74,0x68,0x2e,0x63,0x6f,0x6e,0x73,0x74,0x61,0x6e,0x74,0x32,0x00,0x01,0x00,0x00,0x00,0x03,0x00,0x00,0x00,0xc2,0xff,0xff,0xff,0x00,0x00,0x00,0x01,0x14,0x00,0x00,0x00,0x14,0x00,0x00,0x00,0x03,0x00,0x00,0x00,0x00,0x00,0x00,0x02,0x1c,0x00,0x00,0x00,0x48,0xff,0xff,0xff,0x0f,0x00,0x00,0x00,0x61,0x72,0x69,0x74,0x68,0x2e,0x63,0x6f,0x6e,0x73,0x74,0x61,0x6e,0x74,0x31,0x00,0x01,0x00,0x00,0x00,0x03,0x00,0x00,0x00,0x00,0x00,0x16,0x00,0x1c,0x00,0x18,0x00,0x17,0x00,0x10,0x00,0x0c,0x00,0x08,0x00,0x00,0x00,0x00,0x00,0x00,0x00,0x07,0x00,0x16,0x00,0x00,0x00,0x00,0x00,0x00,0x01,0x14,0x00,0x00,0x00,0x14,0x00,0x00,0x00,0x02,0x00,0x00,0x00,0x00,0x00,0x00,0x02,0x1c,0x00,0x00,0x00,0x9c,0xff,0xff,0xff,0x0e,0x00,0x00,0x00,0x61,0x72,0x69,0x74,0x68,0x2e,0x63,0x6f,0x6e,0x73,0x74,0x61,0x6e,0x74,0x00,0x00,0x01,0x00,0x00,0x00,0x03,0x00,0x00,0x00,0x00,0x00,0x16,0x00,0x1c,0x00,0x18,0x00,0x00,0x00,0x14,0x00,0x10,0x00,0x0c,0x00,0x00,0x00,0x00,0x00,0x08,0x00,0x07,0x00,0x16,0x00,0x00,0x00,0x00,0x00,0x00,0x01,0x14,0x00,0x00,0x00,0x24,0x00,0x00,0x00,0x24,0x00,0x00,0x00,0x01,0x00,0x00,0x00,0x40,0x00,0x00,0x00,0x03,0x00,0x00,0x00,0xff,0xff,0xff,0xff,0x40,0x00,0x00,0x00,0x06,0x00,0x00,0x00,0x04,0x00,0x04,0x00,0x04,0x00,0x00,0x00,0x1e,0x00,0x00,0x00,0x73,0x65,0x72,0x76,0x69,0x6e,0x67,0x5f,0x64,0x65,0x66,0x61,0x75,0x6c,0x74,0x5f,0x6b,0x65,0x72,0x61,0x73,0x5f,0x74,0x65,0x6e,0x73,0x6f,0x72,0x3a,0x30,0x00,0x00,0x03,0x00,0x00,0x00,0x01,0x00,0x00,0x00,0x40,0x00,0x00,0x00,0x06,0x00,0x00,0x00,0x09,0x00,0x00,0x00,0x90,0x00,0x00,0x00,0x74,0x00,0x00,0x00,0x64,0x00,0x00,0x00,0x54,0x00,0x00,0x00,0x44,0x00,0x00,0x00,0x34,0x00,0x00,0x00,0x24,0x00,0x00,0x00,0x14,0x00,0x00,0x00,0x04,0x00,0x00,0x00,0xa0,0xff,0xff,0xff,0x02,0x00,0x00,0x00,0x00,0x00,0x00,0x02,0xac,0xff,0xff,0xff,0x19,0x00,0x00,0x00,0x00,0x00,0x00,0x19,0xb8,0xff,0xff,0xff,0x2d,0x00,0x00,0x00,0x00,0x00,0x00,0x2d,0xc4,0xff,0xff,0xff,0x09,0x00,0x00,0x00,0x00,0x00,0x00,0x09,0xd0,0xff,0xff,0xff,0x28,0x00,0x00,0x00,0x00,0x00,0x00,0x28,0xdc,0xff,0xff,0xff,0x11,0x00,0x00,0x00,0x00,0x00,0x00,0x11,0xe8,0xff,0xff,0xff,0x16,0x00,0x00,0x00,0x00,0x00,0x00,0x16,0xf4,0xff,0xff,0xff,0x03,0x00,0x00,0x00,0x00,0x00,0x00,0x03,0x0c,0x00,0x0c,0x00,0x0b,0x00,0x00,0x00,0x00,0x00,0x04,0x00,0x0c,0x00,0x00,0x00,0x46,0x00,0x00,0x00,0x00,0x00,0x00,0x46};
#endif
